<pad>	0
</s>	0
<unk>	0
.	-2.25906
▁a	-3.53146
▁so	-3.72257
▁the	-3.86748
▁	-4.02836
▁is	-4.17725
▁iyan	-4.3104
▁He	-4.42284
?	-4.42773
▁ka	-4.47123
▁ko	-4.4737
s	-4.62206
▁The	-4.64848
▁to	-4.67935
▁o	-4.76715
▁sa	-4.7819
▁na	-4.78604
▁of	-4.82784
▁sekaniyan	-4.94739
▁I	-4.98975
▁manga	-5.14602
▁you	-5.15859
▁niyan	-5.17293
▁ngka	-5.2026
an	-5.22775
▁aken	-5.23735
▁i	-5.26897
▁his	-5.29713
i	-5.32265
▁in	-5.37988
▁be	-5.38774
ing	-5.42236
a	-5.43126
ed	-5.48577
▁So	-5.49295
▁will	-5.60481
▁not	-5.61875
▁on	-5.62046
▁are	-5.70953
▁Di	-5.72185
▁was	-5.73289
▁ako	-5.74226
▁for	-5.78266
d	-5.82108
▁with	-5.87053
y	-5.87564
▁that	-5.91958
▁me	-5.95249
▁it	-5.97888
▁den	-5.99615
▁She	-6.01172
▁Da	-6.04817
▁he	-6.10701
▁di	-6.14185
n	-6.15387
t	-6.1804
▁taw	-6.18188
e	-6.19377
▁M	-6.20589
cause	-6.228
en	-6.22879
▁Yes	-6.27512
▁your	-6.27903
▁A	-6.28889
▁iran	-6.31155
▁Oway	-6.31956
▁her	-6.33448
o	-6.35549
▁him	-6.36066
▁go	-6.40072
▁my	-6.41981
▁man	-6.43563
▁wata	-6.44115
▁siran	-6.44172
▁ta	-6.45204
▁mama	-6.45731
▁What	-6.46106
▁ma	-6.46326
▁They	-6.48748
▁did	-6.49207
▁S	-6.51551
▁has	-6.51756
is	-6.52546
▁Hi	-6.5492
▁from	-6.55786
▁good	-6.5799
▁bo	-6.59846
▁do	-6.60137
▁have	-6.6026
▁ba	-6.61916
▁there	-6.62837
▁Ba	-6.64276
▁going	-6.66179
ll	-6.67163
▁H	-6.67528
▁can	-6.69061
▁child	-6.71529
▁m	-6.76594
▁at	-6.78704
▁people	-6.80395
▁sii	-6.80881
▁da	-6.81163
▁This	-6.81414
▁what	-6.84215
▁walay	-6.86169
▁raken	-6.86191
▁It	-6.86872
ya	-6.87731
▁and	-6.9046
▁Do	-6.9091
▁ami	-6.91349
▁p	-6.91967
st	-6.94757
▁rekaniyan	-6.96572
on	-6.96803
▁house	-6.97609
▁Miya	-6.98386
▁t	-6.99117
▁them	-7.0016
▁ai	-7.01986
▁s	-7.02151
▁up	-7.02208
▁this	-7.02358
▁We	-7.02762
▁inged	-7.03434
▁Antonaa	-7.03793
▁an	-7.03969
▁one	-7.05557
▁mapiya	-7.0571
▁roo	-7.06088
▁Na	-7.0609
▁Ma	-7.06378
▁out	-7.07328
▁they	-7.0754
▁ini	-7.0784
▁b	-7.10183
▁work	-7.1032
▁si	-7.10713
ly	-7.11147
▁P	-7.11375
▁pen	-7.12969
▁rice	-7.13121
▁no	-7.13369
g	-7.14641
▁Im	-7.14768
▁ago	-7.15686
▁Giya	-7.15703
▁reka	-7.16173
▁T	-7.16243
▁their	-7.16959
▁person	-7.17447
ekaniyan	-7.19835
▁kayo	-7.20024
▁now	-7.20849
▁baebay	-7.21203
▁know	-7.22225
▁galebek	-7.22636
▁There	-7.22794
▁who	-7.24183
giya	-7.24911
▁dii	-7.26184
▁mala	-7.26506
▁mambo	-7.26955
▁us	-7.27682
▁get	-7.27817
▁You	-7.27886
▁Anda	-7.28017
▁its	-7.29825
▁when	-7.29964
▁does	-7.31606
▁we	-7.31689
ng	-7.31934
in	-7.3249
r	-7.33131
▁like	-7.33952
were	-7.34087
▁k	-7.34194
by	-7.35612
our	-7.35984
▁money	-7.36235
▁pirak	-7.36251
▁Aden	-7.36358
▁want	-7.37691
▁God	-7.37951
▁K	-7.38073
l	-7.38212
▁An	-7.39908
▁off	-7.40153
▁O	-7.42587
▁she	-7.42887
▁How	-7.42985
▁Where	-7.42997
▁Let	-7.43446
▁B	-7.4435
▁seka	-7.45002
▁here	-7.45815
▁pe	-7.46075
▁lima	-7.46901
▁aden	-7.47244
▁tano	-7.5027
▁all	-7.5031
▁Si	-7.50547
ir	-7.50659
▁woman	-7.52062
▁Mapiya	-7.52111
k	-7.52193
▁C	-7.52699
nt	-7.53346
▁lopa	-7.54722
at	-7.54774
▁Antona	-7.55089
▁too	-7.55217
▁made	-7.56053
es	-7.57202
▁much	-7.57932
just	-7.58026
▁imanto	-7.58147
to	-7.58569
▁take	-7.59158
er	-7.59164
▁place	-7.60891
▁time	-7.61231
▁tree	-7.61259
na	-7.61274
▁pa	-7.63084
▁fish	-7.64204
▁about	-7.64221
▁karoma	-7.64232
▁canno	-7.64926
▁Mala	-7.6652
▁miya	-7.66801
▁kiran	-7.66891
▁Ka	-7.67242
▁anan	-7.67252
▁cut	-7.67263
▁ginawa	-7.68045
▁other	-7.68181
▁how	-7.68601
w	-7.68773
▁Why	-7.70929
▁seda	-7.70945
▁well	-7.711
▁ran	-7.7122
▁see	-7.71777
▁many	-7.7208
▁Sa	-7.73489
▁kami	-7.73562
▁way	-7.73681
▁In	-7.74341
▁And	-7.75151
▁great	-7.75562
▁water	-7.75569
re	-7.76459
ur	-7.79253
▁kiya	-7.79471
al	-7.80468
▁big	-7.8072
m	-7.80727
▁Ay	-7.80789
▁around	-7.80831
▁bad	-7.80866
▁ron	-7.80908
▁ig	-7.81258
▁ama	-7.82032
▁look	-7.82987
▁Her	-7.83109
▁again	-7.83337
▁dato	-7.83371
▁ped	-7.83491
▁W	-7.83593
▁give	-7.8483
f	-7.86474
out	-7.8711
▁friend	-7.8767
very	-7.88075
▁back	-7.88413
gira	-7.88477
▁Ah	-7.88798
▁Pira	-7.89692
▁Be	-7.91075
▁together	-7.91171
▁down	-7.91178
▁father	-7.91289
▁song	-7.91361
▁lokes	-7.91435
▁oto	-7.9193
▁That	-7.92448
▁long	-7.9283
▁brother	-7.94033
▁Oh	-7.94066
▁plant	-7.94072
ga	-7.94266
▁eat	-7.94631
▁hear	-7.95446
id	-7.95937
▁Pe	-7.96168
▁poon	-7.96981
▁madakel	-7.9705
▁land	-7.97208
▁Is	-7.97282
▁ilaw	-7.97323
▁Ju	-7.97449
▁mi	-7.97763
ar	-7.98125
▁some	-7.98985
▁c	-7.99657
▁sound	-7.99689
▁pagari	-7.99872
ba	-7.99885
▁Ini	-7.99931
▁make	-7.99942
▁said	-8.01007
▁L	-8.02093
iya	-8.02236
ut	-8.024
▁come	-8.02445
ta	-8.03083
▁wife	-8.03111
▁food	-8.0312
▁dont	-8.03365
▁giyan	-8.04729
▁put	-8.04937
▁hand	-8.05318
▁Okay	-8.06346
▁Allah	-8.06346
▁No	-8.06736
▁kataero	-8.06762
▁over	-8.06895
ka	-8.0768
ould	-8.07709
ting	-8.08211
▁gave	-8.09688
▁langon	-8.09916
▁each	-8.10117
▁body	-8.10316
▁aya	-8.10789
▁koda	-8.10866
into	-8.12089
▁old	-8.12273
▁tali	-8.12506
so	-8.12787
▁bes	-8.12806
▁tanto	-8.12861
sa	-8.13125
▁Thank	-8.13131
▁niyo	-8.13143
▁face	-8.13509
▁sapi	-8.13714
▁am	-8.13933
▁E	-8.14008
▁let	-8.14843
▁hard	-8.1491
begay	-8.15178
or	-8.15302
den	-8.15543
▁as	-8.15551
▁Miyaka	-8.15977
▁ina	-8.16114
▁Alahotaala	-8.16696
▁mother	-8.16742
▁chief	-8.16812
▁wind	-8.16969
ay	-8.17195
▁ki	-8.17312
p	-8.1854
▁antonaa	-8.18933
▁through	-8.20394
▁already	-8.20395
▁which	-8.20399
▁lawas	-8.20405
▁Ama	-8.20907
▁kano	-8.21537
▁Are	-8.21689
b	-8.22882
le	-8.22933
▁horse	-8.23374
u	-8.23698
▁cloth	-8.23773
▁ask	-8.24202
▁home	-8.24232
▁school	-8.24237
▁pamomolan	-8.24254
▁dinis	-8.24255
▁near	-8.24508
▁san	-8.24516
ngka	-8.24555
▁saya	-8.27857
▁sister	-8.28212
▁help	-8.28225
▁village	-8.28237
▁karatas	-8.28242
▁marata	-8.28363
▁pagariya	-8.28415
▁had	-8.28425
▁paras	-8.28663
▁love	-8.28801
▁G	-8.29144
▁d	-8.29544
▁maka	-8.29933
▁doing	-8.3005
if	-8.30087
it	-8.30315
ken	-8.30493
ko	-8.31831
ight	-8.32228
▁giyoto	-8.32383
▁river	-8.32385
▁something	-8.32409
▁would	-8.32446
▁maito	-8.32463
▁parents	-8.32545
▁wood	-8.32659
▁Manila	-8.32698
▁today	-8.3277
aw	-8.32901
▁head	-8.3292
▁pull	-8.32925
▁where	-8.33219
ve	-8.33639
▁Kena	-8.33721
piya	-8.3409
▁hit	-8.34173
▁name	-8.34481
ever	-8.35027
▁D	-8.35163
▁visit	-8.35368
la	-8.3586
▁carabao	-8.36729
▁karabaw	-8.3673
▁country	-8.36735
▁Kataya	-8.36753
▁gawii	-8.36763
epakay	-8.3735
▁sowaan	-8.37382
ong	-8.38809
▁f	-8.38857
▁wait	-8.3901
ngaran	-8.40877
se	-8.40911
▁lawasaig	-8.41275
▁ridoay	-8.41299
▁palaw	-8.41308
▁stopped	-8.41314
▁really	-8.41327
▁little	-8.41403
▁tamok	-8.41405
▁malong	-8.41432
▁kepakay	-8.41434
▁right	-8.4153
▁ator	-8.42095
me	-8.42683
▁away	-8.42802
▁ken	-8.43927
ro	-8.44144
▁w	-8.44395
ok	-8.44466
▁otan	-8.44955
▁rope	-8.45106
▁hands	-8.45345
wan	-8.45594
▁fast	-8.45713
▁small	-8.45956
▁kabaya	-8.46057
▁two	-8.46064
▁Salamat	-8.46087
▁prayer	-8.46111
▁buy	-8.46227
h	-8.4633
▁care	-8.46709
masa	-8.46837
eg	-8.4712
▁kae	-8.47373
▁amay	-8.47515
▁Mata	-8.4851
go	-8.48557
▁rek	-8.49576
▁Ina	-8.49858
▁R	-8.50178
▁end	-8.50242
▁wealth	-8.51036
▁himself	-8.51063
▁case	-8.511
▁lady	-8.51106
▁awang	-8.51428
▁dowa	-8.51496
▁aso	-8.51614
▁baden	-8.52019
▁th	-8.5234
▁beca	-8.52466
▁Your	-8.52839
▁day	-8.53003
ake	-8.53448
▁Ino	-8.53688
no	-8.53767
▁anda	-8.54396
▁Mi	-8.5465
▁giya	-8.54811
▁l	-8.54823
od	-8.55104
▁mountain	-8.5541
▁trouble	-8.55774
▁boat	-8.55927
▁room	-8.55963
▁far	-8.56011
▁after	-8.563
▁sondaro	-8.56302
▁strong	-8.56304
▁nice	-8.5632
▁dog	-8.56389
▁lost	-8.56417
▁katawan	-8.56456
▁bangkala	-8.56551
▁pikir	-8.56643
ful	-8.56807
S	-8.58171
da	-8.58451
went	-8.58659
▁iyo	-8.5867
ather	-8.58715
itaero	-8.5888
able	-8.59171
▁fiv	-8.59293
▁fence	-8.59454
▁Ta	-8.59535
man	-8.59622
ten	-8.60109
▁ndo	-8.60277
agiya	-8.60916
res	-8.61342
▁should	-8.61408
ot	-8.61756
ation	-8.61779
▁husband	-8.61855
▁grass	-8.61857
▁first	-8.61862
▁while	-8.6189
▁why	-8.62008
▁need	-8.62048
▁also	-8.6206
el	-8.6208
manto	-8.62139
▁broken	-8.62199
▁manok	-8.6224
wa	-8.62587
▁la	-8.62771
▁n	-8.62842
▁but	-8.63025
▁taman	-8.6323
kowa	-8.64187
▁de	-8.64214
▁crowd	-8.64381
use	-8.65049
▁young	-8.65118
▁sorat	-8.6526
▁Kaka	-8.65526
og	-8.65719
▁isa	-8.65822
pa	-8.65892
et	-8.66105
▁Kiya	-8.66283
pen	-8.66671
▁stone	-8.66927
ri	-8.67217
▁any	-8.67313
▁broke	-8.67396
▁think	-8.67633
▁class	-8.67658
▁firewood	-8.67739
▁children	-8.67758
▁box	-8.67762
▁clothes	-8.67842
▁things	-8.6794
▁raga	-8.68105
▁arga	-8.68161
▁mind	-8.68185
▁alongan	-8.68446
ket	-8.68523
▁even	-8.68697
▁looking	-8.68698
gen	-8.68785
▁All	-8.68889
ti	-8.69098
▁Com	-8.69227
▁peace	-8.69484
nan	-8.69679
▁Pa	-8.69786
▁olo	-8.70467
▁along	-8.70614
▁Go	-8.70734
▁ti	-8.70786
▁full	-8.71218
▁pag	-8.71366
▁kon	-8.7172
▁saw	-8.71769
▁kapa	-8.72221
ill	-8.72319
▁cr	-8.72541
▁girl	-8.72991
▁change	-8.73096
ang	-8.73118
ma	-8.73336
di	-8.73378
▁stay	-8.7388
▁left	-8.73988
▁Peace	-8.73989
▁betwe	-8.7399
▁part	-8.74004
▁Marawi	-8.74016
▁feast	-8.74017
▁another	-8.74017
▁doniya	-8.74052
▁cow	-8.74083
▁piyapiya	-8.74092
▁lalan	-8.74105
▁bought	-8.74135
▁When	-8.7415
▁act	-8.74165
▁finished	-8.74221
▁pain	-8.74242
▁sea	-8.74308
▁Saken	-8.74373
▁matao	-8.74437
▁tell	-8.74456
▁came	-8.74551
▁say	-8.74728
▁r	-8.74777
▁Mini	-8.74821
▁Eve	-8.74991
▁sakit	-8.75175
▁same	-8.75572
▁pot	-8.75854
ring	-8.75854
ook	-8.762
▁mata	-8.76412
▁antona	-8.76549
▁To	-8.76604
▁se	-8.7681
▁kaka	-8.77135
▁un	-8.77137
kan	-8.77255
ebod	-8.77685
▁Seka	-8.77914
yan	-8.78317
▁Wa	-8.7832
▁tao	-8.78405
neg	-8.78499
ek	-8.79138
not	-8.79556
▁road	-8.7982
do	-8.79957
▁book	-8.8017
▁value	-8.80654
▁hundred	-8.80654
▁world	-8.80657
▁nganin	-8.80658
▁morning	-8.80662
▁Naino	-8.80667
▁karsada	-8.80667
▁find	-8.80819
▁bar	-8.80821
▁baeg	-8.80853
▁peman	-8.80865
▁coming	-8.80915
▁pi	-8.80944
▁soldiers	-8.8097
adakel	-8.81122
▁Manga	-8.81316
▁accept	-8.81318
▁fire	-8.81668
▁real	-8.81951
ce	-8.82471
rata	-8.83162
ssalam	-8.83417
▁kowa	-8.83671
▁mo	-8.84368
▁than	-8.84591
ilay	-8.86487
ic	-8.86563
▁use	-8.87111
▁piece	-8.87194
▁new	-8.87351
▁pray	-8.87529
▁talk	-8.87585
▁pay	-8.87617
▁beautiful	-8.87797
▁bamboo	-8.87797
▁advice	-8.87798
▁found	-8.87803
▁bird	-8.87804
▁earth	-8.87806
▁true	-8.87832
▁yet	-8.87832
▁believe	-8.87908
▁evil	-8.87966
▁Ingkainoto	-8.87972
▁break	-8.87992
▁oras	-8.88001
▁mov	-8.88124
ive	-8.88253
▁city	-8.88293
▁pan	-8.88466
▁likod	-8.88558
▁al	-8.88688
▁Mara	-8.88728
▁own	-8.88827
▁handle	-8.88947
▁polo	-8.89095
▁field	-8.89126
▁sign	-8.89313
▁car	-8.89365
▁being	-8.89607
ity	-8.90516
led	-8.90652
oto	-8.90708
▁babay	-8.90771
▁saken	-8.908
▁koden	-8.91121
▁band	-8.915
ak	-8.91639
as	-8.91699
▁press	-8.91785
bay	-8.9214
▁reach	-8.92387
▁lot	-8.92568
▁g	-8.92991
fore	-8.93057
▁songow	-8.93086
awid	-8.93542
▁Maga	-8.94205
▁cause	-8.94338
▁leader	-8.94475
li	-8.95022
▁difficult	-8.95489
▁thousand	-8.95489
▁nditaren	-8.9549
▁mouth	-8.95491
▁masosowa	-8.95492
▁maregas	-8.95493
▁Alaykum	-8.95493
▁padian	-8.95502
▁market	-8.95504
▁present	-8.95516
▁still	-8.95518
▁Good	-8.95532
▁wound	-8.95542
▁keep	-8.95568
ushed	-8.95578
▁town	-8.95579
▁catch	-8.95586
▁pesowaan	-8.95602
os	-8.95611
▁kapipita	-8.95652
▁fruit	-8.95729
▁corn	-8.95791
▁rock	-8.95834
▁somong	-8.95846
▁ragat	-8.95884
▁game	-8.95927
▁ragon	-8.96072
▁making	-8.96101
tting	-8.96235
▁days	-8.96719
▁fear	-8.96994
▁stop	-8.97011
▁okit	-8.97279
ld	-8.97342
▁join	-8.98198
▁Lango	-8.98565
▁Who	-8.98961
las	-8.99054
▁dis	-8.99493
imbaal	-8.99793
song	-8.9984
▁ke	-9.00522
▁re	-9.00761
ways	-9.01119
▁J	-9.01182
om	-9.01397
ra	-9.01666
▁h	-9.01721
ad	-9.01938
▁got	-9.02214
lo	-9.02635
▁stick	-9.03438
▁finish	-9.03512
▁fight	-9.03551
▁daughter	-9.03823
▁lamisaan	-9.03823
▁situation	-9.03823
▁ribro	-9.03823
▁enemy	-9.03823
▁voice	-9.03823
▁itagon	-9.03831
▁white	-9.03835
▁sword	-9.03837
▁sugarcane	-9.03837
▁death	-9.03838
▁Alden	-9.03845
▁threw	-9.0385
▁search	-9.03859
▁tebo	-9.03865
▁poor	-9.03866
▁gathered	-9.03866
▁destroyed	-9.03892
▁fat	-9.03917
▁miyatay	-9.0393
▁ranaw	-9.03938
alaykum	-9.03987
▁saging	-9.0401
▁wall	-9.04095
▁arrived	-9.04099
▁cooked	-9.04135
▁inside	-9.04179
▁gold	-9.04197
▁Oman	-9.04237
▁line	-9.0435
ag	-9.04405
▁last	-9.04717
te	-9.04865
▁mat	-9.04904
ble	-9.04937
▁Pag	-9.0506
used	-9.05075
wi	-9.05145
▁play	-9.05364
▁mal	-9.05389
▁edge	-9.05461
▁hold	-9.05734
▁carry	-9.06053
ied	-9.06133
▁Mal	-9.06138
▁kapal	-9.06188
tel	-9.0624
▁paeka	-9.06363
▁friends	-9.0645
ought	-9.06791
iyan	-9.0724
am	-9.08179
agid	-9.0821
ongan	-9.08997
arata	-9.09084
oma	-9.09391
▁dar	-9.09443
ted	-9.09452
ment	-9.09588
▁Th	-9.10077
▁fell	-9.10532
▁or	-9.10994
aken	-9.11102
▁Daa	-9.11503
▁dare	-9.11512
po	-9.11776
naw	-9.12234
side	-9.12433
▁kape	-9.12493
rak	-9.12521
▁arrive	-9.12612
gay	-9.12711
ran	-9.1276
▁Salam	-9.12899
▁rido	-9.129
▁afraid	-9.12914
▁coconut	-9.12914
▁enemies	-9.12914
▁equal	-9.12914
▁iroplano	-9.12914
▁purpose	-9.12914
▁behind	-9.12914
▁gift	-9.12915
▁angry	-9.12916
▁basket	-9.12919
▁agreement	-9.12922
▁living	-9.12923
▁Maranao	-9.12925
▁caught	-9.12931
▁Ngkainoto	-9.12934
▁kamais	-9.12939
▁running	-9.12939
▁tomorrow	-9.12942
▁clean	-9.12947
▁teacher	-9.12957
▁Maregen	-9.1297
▁anything	-9.12975
▁Mother	-9.12987
▁block	-9.13072
▁begas	-9.13078
▁sh	-9.13121
▁passed	-9.13136
▁mailay	-9.13139
▁forget	-9.13143
▁bai	-9.13164
▁sapak	-9.13218
▁per	-9.13346
▁thin	-9.13377
▁sack	-9.13458
▁bantog	-9.13472
▁sun	-9.13475
ep	-9.13533
▁nggalebek	-9.13543
▁among	-9.13631
▁pira	-9.13646
▁table	-9.13648
▁sharp	-9.13653
▁mine	-9.13653
▁Man	-9.13747
▁men	-9.13915
▁le	-9.13984
▁pieces	-9.13989
▁oway	-9.14195
ave	-9.14329
▁beat	-9.14526
ilid	-9.1509
owan	-9.15159
▁bayad	-9.15636
ust	-9.15901
ling	-9.15999
▁sala	-9.15999
bo	-9.16073
yo	-9.16115
yaw	-9.16167
▁Rama	-9.16383
▁live	-9.16604
pelalakaw	-9.16663
awan	-9.16755
▁N	-9.16822
▁die	-9.17519
▁close	-9.1754
poon	-9.17873
▁onga	-9.18013
▁ro	-9.18206
ated	-9.19048
baeger	-9.19099
ose	-9.1923
▁piya	-9.1935
▁hid	-9.19704
em	-9.19716
▁mba	-9.20019
tter	-9.20031
▁aim	-9.20091
ngan	-9.20097
▁shak	-9.20334
men	-9.20375
▁miyaka	-9.20894
lan	-9.20972
lay	-9.21064
taero	-9.2107
▁these	-9.21825
▁Ki	-9.21832
asa	-9.21845
▁chicken	-9.21992
pi	-9.22157
▁bed	-9.22238
▁Anta	-9.22243
nd	-9.22431
▁co	-9.22679
▁easily	-9.22914
▁obarobar	-9.22914
▁desire	-9.22914
▁lakongan	-9.22915
▁enough	-9.22916
▁frame	-9.22916
▁keleb	-9.22917
▁mangoda	-9.22919
▁high	-9.2292
▁uncle	-9.2292
▁Lord	-9.22925
▁heavy	-9.22934
▁foot	-9.22938
▁wrong	-9.2295
▁hair	-9.22959
▁learn	-9.2296
▁different	-9.2297
▁religion	-9.22973
▁Lanao	-9.22981
▁suffer	-9.22984
▁agama	-9.22993
▁floor	-9.22995
▁dead	-9.22998
▁rekami	-9.23022
▁called	-9.23054
▁night	-9.23111
▁feel	-9.23121
▁rekano	-9.23154
▁ngari	-9.23161
▁trak	-9.23165
▁Miy	-9.23211
▁walking	-9.23214
▁totol	-9.23275
▁covered	-9.23298
▁toward	-9.2331
▁colors	-9.23312
▁okay	-9.23339
▁more	-9.23356
▁relatives	-9.23403
▁door	-9.23439
▁klas	-9.23455
▁shy	-9.23531
▁words	-9.23557
day	-9.23628
▁bring	-9.2368
▁adat	-9.23684
▁sondang	-9.237
▁agong	-9.23827
▁maporo	-9.23922
ered	-9.23984
▁Can	-9.23986
▁anger	-9.24005
il	-9.24163
one	-9.24253
▁often	-9.24333
▁fit	-9.24628
▁oba	-9.24697
▁pae	-9.24701
▁lo	-9.2474
▁Big	-9.24878
ol	-9.24978
▁Me	-9.24987
dar	-9.25159
nda	-9.25194
▁lalakaw	-9.25245
lang	-9.25324
▁bago	-9.25392
▁gong	-9.25443
ge	-9.25523
sh	-9.25727
sabap	-9.25745
kawan	-9.25763
▁working	-9.25828
▁known	-9.2591
ped	-9.25965
▁agree	-9.26178
ipen	-9.26234
iyaneg	-9.26278
▁kaden	-9.26293
giving	-9.2653
▁tig	-9.26656
▁Paeka	-9.26694
▁br	-9.26728
bak	-9.26911
▁move	-9.27521
▁roll	-9.28088
ig	-9.2822
▁sako	-9.28299
▁ca	-9.28394
ally	-9.28508
▁La	-9.28949
▁Song	-9.29083
tay	-9.29217
pan	-9.29494
ii	-9.29547
obay	-9.29672
long	-9.30072
▁kind	-9.30138
▁died	-9.30407
▁Pekae	-9.30876
ance	-9.3095
ers	-9.31288
▁form	-9.31446
▁On	-9.3152
▁kap	-9.31639
▁Per	-9.32017
aden	-9.32437
ha	-9.32643
aid	-9.32682
▁tolan	-9.32683
ala	-9.32685
san	-9.3289
▁boy	-9.32989
▁du	-9.32995
▁companion	-9.33092
gat	-9.33097
▁leave	-9.3317
per	-9.33289
▁Le	-9.33415
▁study	-9.33632
▁though	-9.33673
▁dress	-9.3372
▁walk	-9.33726
▁plan	-9.33852
▁Piya	-9.33868
▁secret	-9.3394
▁branch	-9.33967
▁important	-9.34025
▁major	-9.34025
▁pagigimo	-9.34025
▁pangenengken	-9.34025
▁perfume	-9.34025
▁sowasowai	-9.34025
▁Kadnan	-9.34025
▁foolish	-9.34025
▁teeth	-9.34025
▁consent	-9.34026
▁matatago	-9.34027
▁harvest	-9.34027
▁State	-9.34028
▁committed	-9.34028
▁Nothing	-9.34032
▁disease	-9.34032
▁easy	-9.34032
▁papanok	-9.34033
▁crime	-9.34044
▁simple	-9.34047
▁kipantag	-9.34047
▁pinggan	-9.34048
▁mosque	-9.34051
▁kalasan	-9.34052
▁calm	-9.3406
▁battle	-9.3407
▁string	-9.34071
▁exper	-9.34075
▁makina	-9.34076
▁lightly	-9.34085
▁bentong	-9.34101
▁chew	-9.3411
▁bolawan	-9.34123
▁dried	-9.34129
▁prepared	-9.34139
▁skin	-9.34169
▁Apon	-9.34181
▁thoughts	-9.34199
▁lake	-9.34243
▁kaeraw	-9.34247
▁patient	-9.34272
▁post	-9.34303
▁pakaradiyaan	-9.34327
ayaw	-9.34346
▁magaan	-9.34364
ap	-9.34399
pas	-9.34409
▁Kaebaya	-9.34447
ion	-9.34474
▁kaebaya	-9.34554
▁talking	-9.34559
▁enter	-9.34581
▁hole	-9.34689
▁nut	-9.34694
▁plate	-9.34762
▁papers	-9.34787
mi	-9.34803
▁sleep	-9.34817
▁lalag	-9.34887
▁roam	-9.34892
▁pali	-9.35057
▁oman	-9.35184
▁watch	-9.3525
▁half	-9.35286
ngko	-9.35295
▁rent	-9.35544
ni	-9.35684
▁ball	-9.35864
▁willing	-9.35899
▁Pepae	-9.35932
▁net	-9.35975
tang	-9.36034
sen	-9.3648
dong	-9.36648
kit	-9.3691
ard	-9.36977
sorat	-9.37257
▁Pi	-9.37398
▁ginawai	-9.37421
gan	-9.37613
▁lose	-9.37871
owa	-9.38041
das	-9.38201
▁kag	-9.38246
kapantag	-9.38251
baya	-9.38371
order	-9.38398
nao	-9.38472
nto	-9.38544
▁others	-9.38759
▁side	-9.38859
▁soled	-9.38946
oon	-9.39058
▁koman	-9.39277
tero	-9.39349
▁whip	-9.39506
tar	-9.39668
▁likes	-9.40221
▁st	-9.40613
▁met	-9.40802
▁mag	-9.41201
op	-9.4132
igo	-9.41347
oman	-9.41497
rying	-9.41526
▁mini	-9.41665
ke	-9.41931
kat	-9.42025
less	-9.42126
▁pass	-9.423
▁Miyar	-9.42319
▁chopp	-9.42414
▁won	-9.42704
th	-9.43054
nclude	-9.43744
▁Mas	-9.44362
▁bok	-9.44493
wit	-9.44661
▁Paeg	-9.4467
nggibo	-9.44992
▁cross	-9.45035
sha	-9.45429
▁paka	-9.45466
▁fail	-9.45491
▁At	-9.45646
▁word	-9.45883
▁cook	-9.45955
▁Pepaeng	-9.46087
▁iskowila	-9.46108
ness	-9.46137
lid	-9.46163
angen	-9.46196
eng	-9.464
riend	-9.46407
▁carrie	-9.46503
▁Alhamdulillah	-9.46525
▁Japanese	-9.46525
▁knife	-9.46525
▁language	-9.46525
▁strength	-9.46525
▁After	-9.46525
▁princess	-9.46525
▁Bembaran	-9.46525
▁afternoon	-9.46525
▁lawyer	-9.46525
▁shirt	-9.46525
ilipino	-9.46525
▁Macky	-9.46525
▁Sultan	-9.46525
▁family	-9.46527
▁discipline	-9.46527
▁respect	-9.46529
▁kontra	-9.4653
▁sickness	-9.4653
▁borrow	-9.46531
▁Really	-9.46531
▁rattan	-9.46531
▁Auntie	-9.46533
▁Osto	-9.46536
▁Sister	-9.46546
▁miyakaoma	-9.46547
▁subject	-9.46548
▁leaf	-9.4655
▁cock	-9.4655
▁Giyoto	-9.46551
▁mix	-9.46554
▁life	-9.46563
▁wide	-9.46576
▁teach	-9.46582
▁mapipiya	-9.46584
▁listen	-9.46584
niyan	-9.466
▁mawatan	-9.46605
▁nothing	-9.46614
▁course	-9.4664
▁thank	-9.46644
▁stu	-9.46646
▁singing	-9.46647
▁masakit	-9.46649
▁pasi	-9.46651
▁remember	-9.46652
▁touched	-9.46677
▁osto	-9.46695
▁building	-9.46706
▁tonganay	-9.4672
▁pagonot	-9.46752
▁trick	-9.46771
▁bank	-9.46786
ant	-9.46805
▁forest	-9.4682
▁Babo	-9.46828
▁rowang	-9.46878
▁pito	-9.46886
▁trip	-9.46906
▁dressed	-9.46917
▁four	-9.46941
▁paper	-9.4701
▁li	-9.47052
▁plane	-9.47099
pet	-9.47177
▁niyog	-9.47249
▁bitiyara	-9.47255
▁pipiya	-9.47286
▁point	-9.47309
▁Ti	-9.47322
▁Minda	-9.47353
▁crack	-9.47474
▁lama	-9.4752
▁Here	-9.47586
▁Piy	-9.47693
▁maling	-9.47717
min	-9.4772
▁Not	-9.47744
▁ship	-9.47884
▁consider	-9.48072
▁kill	-9.48149
si	-9.48253
ab	-9.48472
▁start	-9.4858
pantag	-9.48653
ate	-9.48707
▁Ke	-9.48727
eb	-9.4875
▁then	-9.48868
▁peke	-9.48907
▁gar	-9.48914
▁pekae	-9.48927
un	-9.48986
▁eating	-9.4901
ata	-9.4905
atch	-9.49114
ew	-9.49288
cking	-9.49421
▁ari	-9.49546
▁Miyada	-9.49548
▁tago	-9.49553
▁continue	-9.49676
mba	-9.49681
ip	-9.49848
▁Pagari	-9.50083
▁aki	-9.5027
▁marry	-9.50292
▁sin	-9.50355
▁may	-9.50571
▁every	-9.50604
▁kapiya	-9.50649
diya	-9.5083
▁bend	-9.50901
ito	-9.51005
ves	-9.51093
▁Maka	-9.51369
▁Paka	-9.51407
front	-9.52004
▁poro	-9.52203
▁baso	-9.52238
▁bak	-9.52379
▁pese	-9.52581
▁wear	-9.52594
▁aoto	-9.52805
ck	-9.52989
▁bee	-9.53282
ts	-9.53446
ik	-9.53833
pened	-9.53884
git	-9.5409
▁aka	-9.54119
ry	-9.54756
▁ra	-9.55013
▁top	-9.55051
▁para	-9.55184
▁wi	-9.55289
▁Lima	-9.55425
kar	-9.55618
▁fl	-9.56085
anda	-9.56143
row	-9.5621
red	-9.5622
ama	-9.56324
▁Mabaeba	-9.57279
▁Siya	-9.57374
▁liya	-9.57379
ions	-9.57976
▁ng	-9.58006
edge	-9.58036
▁bolo	-9.58062
▁unti	-9.58177
▁peka	-9.58225
▁Kaba	-9.58354
way	-9.58535
pos	-9.58744
lalakaw	-9.58783
▁thre	-9.59432
▁ones	-9.59634
▁Tanto	-9.59663
▁banana	-9.59938
▁eye	-9.59984
▁forgive	-9.60446
get	-9.60465
▁please	-9.60508
rance	-9.60546
ira	-9.60574
▁bone	-9.60588
certain	-9.60757
▁careful	-9.60789
▁Philippines	-9.6081
▁Pilimpinas	-9.6081
▁cabinet	-9.6081
▁counsel	-9.6081
▁couple	-9.6081
▁encircle	-9.6081
▁furniture	-9.6081
▁journey	-9.6081
▁neighbor	-9.6081
▁next	-9.6081
▁attention	-9.60811
▁exchange	-9.60811
▁abandon	-9.60811
▁coffee	-9.60811
▁Meranaw	-9.60811
▁affect	-9.60811
▁black	-9.60812
▁travel	-9.60812
▁problem	-9.60813
▁split	-9.60813
▁crooked	-9.60813
▁lomalakaw	-9.60813
▁mak	-9.60813
▁paperwork	-9.60814
▁jeep	-9.60815
▁laz	-9.60817
▁palace	-9.60818
▁proud	-9.60819
▁cattle	-9.6082
▁serious	-9.60822
▁club	-9.60822
▁kiyapakaoma	-9.60823
▁kwarto	-9.60827
▁month	-9.60828
▁pamilya	-9.6083
▁neck	-9.60832
▁maregen	-9.60834
▁miyakapasad	-9.60835
▁marriage	-9.60842
▁tekaew	-9.60845
▁noise	-9.6086
▁siringan	-9.60861
▁torogan	-9.60863
▁basak	-9.60864
▁mapita	-9.60868
▁salamat	-9.60881
▁kailangan	-9.60895
▁yourself	-9.609
▁gathering	-9.60902
▁provok	-9.60918
▁sick	-9.6092
▁Dowa	-9.60954
▁Mapasad	-9.60979
▁burned	-9.61
▁cost	-9.61021
▁blowing	-9.61035
▁iskwilaan	-9.61058
▁chopping	-9.61082
▁mataid	-9.61092
▁raon	-9.61108
▁mabaeger	-9.61112
▁Tiya	-9.61115
▁bite	-9.61139
▁understand	-9.61165
▁weeds	-9.61182
▁kanggalebek	-9.61196
▁under	-9.61221
▁happy	-9.61224
▁pinto	-9.61233
▁Imam	-9.61236
▁taking	-9.61268
▁Miyaso	-9.61285
maan	-9.61334
▁race	-9.6134
▁years	-9.61405
▁early	-9.61431
▁fighting	-9.61445
▁fa	-9.61471
▁iskowilaan	-9.61477
▁notice	-9.6154
▁katao	-9.61559
▁shell	-9.61569
▁paekaoma	-9.61579
ongen	-9.61625
▁eyes	-9.61664
▁thinking	-9.6172
▁opakat	-9.61736
▁wa	-9.61761
▁bola	-9.61792
▁sambayang	-9.61848
▁Sari	-9.6209
▁asar	-9.62277
▁tabang	-9.62365
▁light	-9.62446
▁news	-9.62573
▁open	-9.63146
▁Tom	-9.63221
▁kaban	-9.63232
▁meet	-9.63261
cal	-9.63275
▁Mar	-9.63306
xcuse	-9.63394
▁miy	-9.63507
inasa	-9.63522
and	-9.63585
kiran	-9.63627
▁Miyak	-9.63725
▁Pen	-9.63732
▁Liya	-9.63774
ver	-9.63898
▁taero	-9.64082
rong	-9.64085
▁kapi	-9.64351
apan	-9.64428
▁overtak	-9.64537
▁leap	-9.64613
be	-9.64945
ki	-9.64964
▁kala	-9.64981
▁Gi	-9.65279
ked	-9.65436
▁dark	-9.65563
age	-9.66019
ous	-9.66372
▁ipe	-9.66459
▁tiyan	-9.66934
mat	-9.66999
where	-9.67016
▁brave	-9.67355
olan	-9.67362
ngen	-9.67602
ult	-9.67732
▁Pesae	-9.67797
im	-9.68271
aan	-9.68509
ila	-9.68643
▁toma	-9.68873
olintang	-9.69314
▁Miyapa	-9.69395
odas	-9.69619
▁arm	-9.70138
▁Ad	-9.70556
▁increase	-9.70961
dan	-9.70979
tod	-9.7121
▁su	-9.71347
kog	-9.71682
iyo	-9.72132
ubl	-9.72142
▁kiyapa	-9.72284
let	-9.72344
pay	-9.72366
rot	-9.72388
▁oppos	-9.72556
eep	-9.72859
▁apo	-9.73034
aya	-9.73161
sion	-9.73365
nday	-9.73586
▁Lang	-9.73655
▁bent	-9.73713
mo	-9.73799
▁rim	-9.73876
imbang	-9.74217
reg	-9.74253
▁daan	-9.74267
▁red	-9.74353
tak	-9.74461
▁Petae	-9.74576
▁Se	-9.7462
oten	-9.75127
▁boast	-9.75161
▁mataan	-9.75414
bi	-9.75469
▁po	-9.7547
hich	-9.75484
▁kiyapaka	-9.75487
otowa	-9.75794
ish	-9.75953
ent	-9.75958
ite	-9.76237
angka	-9.76401
▁run	-9.76404
▁cheat	-9.76438
▁daa	-9.76471
ybe	-9.76475
▁Muslim	-9.76577
▁flower	-9.7663
▁relative	-9.76643
▁heart	-9.76648
▁soldier	-9.76651
▁pemba	-9.76876
▁ear	-9.76964
▁speak	-9.77121
▁divorce	-9.77155
▁limit	-9.7716
▁Commercial	-9.77477
▁Grandpa	-9.77477
▁Hussein	-9.77477
▁Hussien	-9.77477
▁Mostaqbal	-9.77477
▁Norjan	-9.77477
▁airplane	-9.77477
▁character	-9.77477
▁encumb	-9.77477
▁machine	-9.77477
▁registrar	-9.77477
▁sinapang	-9.77477
▁slaughter	-9.77477
▁Tagalog	-9.77477
▁maputi	-9.77477
▁exact	-9.77477
▁lumber	-9.77477
▁monkey	-9.77477
▁picture	-9.77478
▁olaola	-9.77478
▁tassel	-9.77478
▁wakto	-9.77478
nivers	-9.77478
▁government	-9.77478
▁speech	-9.77478
▁Tae	-9.77478
▁power	-9.77478
▁Alright	-9.77479
▁illness	-9.77479
▁quiet	-9.77479
▁maitem	-9.7748
▁flirt	-9.7748
▁tangila	-9.7748
▁miskin	-9.77481
▁rapid	-9.77481
▁rotten	-9.77481
▁doubt	-9.77483
▁penetrate	-9.77483
▁truck	-9.77483
▁stirr	-9.77486
▁short	-9.77487
▁Tabiya	-9.77487
▁worth	-9.77489
▁grave	-9.77491
▁glass	-9.77492
▁payment	-9.77496
▁chest	-9.77498
▁daondaw	-9.77498
▁kalilang	-9.77502
▁Islam	-9.77503
▁brothers	-9.77508
▁baeboy	-9.7751
▁mariga	-9.77512
▁pekasong	-9.77513
▁separate	-9.77514
▁miyapasad	-9.77515
▁medicine	-9.77517
▁bru	-9.77518
▁hammer	-9.77519
▁datu	-9.77523
▁ground	-9.77526
▁painful	-9.77527
▁sapadan	-9.77541
▁second	-9.77544
▁confused	-9.77547
▁tired	-9.77547
▁fame	-9.77561
▁outlaw	-9.77574
▁carefully	-9.77578
▁poket	-9.77585
▁letter	-9.77591
ch	-9.77591
▁married	-9.77606
▁salasa	-9.77607
▁gun	-9.77609
▁attend	-9.77616
▁joke	-9.77618
▁idaida	-9.77621
▁wild	-9.77621
▁store	-9.77628
▁solotan	-9.7763
▁kowarto	-9.77648
▁scratching	-9.77653
▁slow	-9.77677
▁breathing	-9.77683
▁Inowit	-9.77703
▁seven	-9.77709
▁wire	-9.77711
▁rich	-9.77718
▁size	-9.7773
▁cheater	-9.77739
▁disturbed	-9.77749
▁visa	-9.77755
▁salt	-9.77756
▁Malo	-9.77757
▁monot	-9.77767
▁story	-9.77802
▁speaking	-9.77838
▁ikidi	-9.77842
▁Then	-9.77858
▁maana	-9.77859
▁killed	-9.77883
▁Para	-9.77887
▁worry	-9.77896
▁hide	-9.77947
▁boil	-9.77977
▁sapo	-9.78011
▁done	-9.78028
reak	-9.78085
▁One	-9.7811
▁kapatay	-9.78303
▁raise	-9.78326
nggolaola	-9.78415
▁katokaw	-9.78442
saembayang	-9.78454
▁cry	-9.78487
▁rain	-9.78508
▁kelas	-9.78513
▁feed	-9.78515
▁troubled	-9.78541
ger	-9.78547
▁perch	-9.78556
▁ayam	-9.78583
greed	-9.78592
▁moved	-9.78619
▁daring	-9.78653
▁riya	-9.78677
▁ranon	-9.78703
▁imam	-9.78853
▁low	-9.7888
▁war	-9.78894
▁abogado	-9.78919
▁dosa	-9.79107
lakaw	-9.79143
▁rat	-9.79171
paey	-9.79197
gowa	-9.79245
▁Pemasa	-9.79259
▁darpa	-9.79267
▁alad	-9.79293
▁kapaka	-9.79334
land	-9.79423
ter	-9.79426
▁fly	-9.79441
taeng	-9.79477
▁fla	-9.79502
ray	-9.79635
ies	-9.79764
▁fro	-9.79869
▁saying	-9.79984
apoy	-9.80044
pasang	-9.80085
pipikir	-9.80203
pped	-9.80409
hap	-9.8041
along	-9.80585
▁gira	-9.80651
otan	-9.80663
bed	-9.80757
▁pasad	-9.80758
gabi	-9.80769
est	-9.81118
barang	-9.81161
ai	-9.81204
▁dish	-9.81224
▁call	-9.81417
yod	-9.81783
dowa	-9.81804
▁pami	-9.82028
▁ch	-9.82103
▁king	-9.82134
▁pick	-9.8215
▁somamb	-9.82207
ban	-9.82223
▁Tomo	-9.82249
dakel	-9.82275
▁comes	-9.82428
▁plants	-9.82468
▁seen	-9.82614
yog	-9.82649
nger	-9.8289
▁rod	-9.82932
▁mil	-9.83337
▁Jo	-9.83341
▁Miyase	-9.8343
▁tight	-9.83536
▁dry	-9.83548
gaga	-9.83664
having	-9.83796
▁ten	-9.83821
us	-9.83877
oran	-9.84003
gi	-9.84198
▁pal	-9.8424
▁Masasa	-9.84288
▁Pae	-9.84334
▁par	-9.84421
ayong	-9.8444
mpir	-9.84498
▁wo	-9.84566
egen	-9.84651
tan	-9.84809
ded	-9.84825
law	-9.84894
▁shore	-9.84918
▁log	-9.84955
liyo	-9.85027
▁Oba	-9.85112
▁son	-9.85145
engen	-9.85153
▁olan	-9.85217
wat	-9.8526
▁amo	-9.85365
▁tero	-9.85433
lipatan	-9.85851
▁beto	-9.8588
kal	-9.85898
▁tinda	-9.86008
sowa	-9.86012
▁spear	-9.86016
gar	-9.86361
▁Ga	-9.86497
wel	-9.8665
peta	-9.86886
▁Somiy	-9.87071
ward	-9.87094
▁ab	-9.87188
patay	-9.87299
▁show	-9.87331
▁e	-9.87607
▁Miyas	-9.87889
embaal	-9.87899
onotan	-9.88025
lek	-9.88072
▁peso	-9.88254
some	-9.88385
asan	-9.88466
ught	-9.88636
▁mbae	-9.88766
body	-9.88882
▁Miyab	-9.88987
▁leg	-9.89136
round	-9.89172
ngeni	-9.89289
▁whipp	-9.8929
end	-9.89373
ont	-9.89477
▁og	-9.89547
lem	-9.89746
cess	-9.89995
▁ow	-9.90238
▁tar	-9.90268
▁mada	-9.90323
yong	-9.90482
ised	-9.9049
▁wash	-9.91084
▁makape	-9.91299
▁makap	-9.91321
anga	-9.9134
kadowa	-9.91441
▁hu	-9.91587
▁ri	-9.91641
▁Lo	-9.91664
▁Miyaba	-9.91748
▁loma	-9.91911
▁ar	-9.9205
▁Pek	-9.92086
oro	-9.92387
▁bec	-9.92483
ct	-9.92559
ease	-9.9259
ndang	-9.92773
▁dip	-9.92793
▁Ra	-9.92871
portion	-9.93015
▁Li	-9.93149
ened	-9.9329
rang	-9.93295
▁Dara	-9.93328
▁Al	-9.93561
etter	-9.93609
field	-9.93662
▁win	-9.93773
▁Miko	-9.94049
▁det	-9.94126
▁Piyaka	-9.94272
▁Taeta	-9.94315
▁isnt	-9.94335
▁makato	-9.94406
▁mus	-9.94419
len	-9.94576
▁tae	-9.94608
▁kiyog	-9.94724
▁Tini	-9.9478
▁lad	-9.94822
taeroon	-9.94905
▁pat	-9.95026
▁Mimba	-9.95068
aka	-9.95095
ell	-9.95163
ump	-9.95331
ron	-9.95382
olaos	-9.95469
nga	-9.95573
▁mar	-9.95599
tor	-9.95737
▁Inil	-9.95827
▁peg	-9.95897
lain	-9.96078
pok	-9.96214
umb	-9.96221
lin	-9.96399
▁chair	-9.96476
▁spirit	-9.96577
angkap	-9.96687
▁color	-9.96691
ctor	-9.96723
pasad	-9.96749
▁curse	-9.97114
▁disturb	-9.97147
▁follow	-9.97155
▁year	-9.97173
▁happen	-9.97182
▁bull	-9.97189
▁cover	-9.97208
repare	-9.97342
▁defect	-9.97469
▁conspicuous	-9.97477
▁example	-9.97477
▁expensive	-9.97477
▁abaca	-9.97477
▁beauty	-9.97477
▁gossip	-9.97477
▁Bantogen	-9.97477
▁barahala	-9.97478
▁condition	-9.97478
▁pretty	-9.97478
▁fifty	-9.97478
▁English	-9.97478
▁pagalongan	-9.97478
▁burst	-9.97478
▁written	-9.97479
▁yesterday	-9.97479
▁gelat	-9.9748
▁answer	-9.97481
▁wedding	-9.97481
▁guard	-9.97482
▁drink	-9.97483
▁Tohan	-9.97483
▁keteb	-9.97483
▁hospital	-9.97484
▁disappeared	-9.97484
▁gagawii	-9.97484
▁else	-9.97484
▁loud	-9.97485
▁sweet	-9.97486
▁soloten	-9.97491
▁endure	-9.97492
▁bundle	-9.97492
▁friendship	-9.975
▁lolot	-9.97503
▁regard	-9.97503
▁bullet	-9.97504
▁Miyakapiyapiya	-9.97505
▁transport	-9.97506
▁container	-9.97509
▁Kadaan	-9.9751
▁writing	-9.9751
▁lalayon	-9.97512
▁reban	-9.97512
▁price	-9.97518
▁quickly	-9.97521
▁loose	-9.97521
▁goris	-9.97522
▁sympathy	-9.97524
▁ragami	-9.97525
▁office	-9.97526
▁mamot	-9.97527
pesong	-9.9753
kas	-9.97538
▁malalagoy	-9.97543
▁window	-9.97552
▁sawati	-9.97556
▁invoke	-9.97568
▁model	-9.97579
▁awhile	-9.97581
gid	-9.97586
▁oniin	-9.97588
▁vegetables	-9.9759
▁scattered	-9.97591
▁trap	-9.976
▁timos	-9.97602
▁insulted	-9.97606
▁Re	-9.97612
▁leaning	-9.97617
▁flowing	-9.97619
▁later	-9.9763
▁Wait	-9.97635
▁toladan	-9.97647
polo	-9.97648
▁popot	-9.97652
mity	-9.97659
▁shouted	-9.97662
▁jumped	-9.97666
▁fulfilled	-9.97666
▁outside	-9.97667
▁healthy	-9.97678
▁spreading	-9.97687
▁spend	-9.97693
▁gobirno	-9.97711
▁korsi	-9.97711
▁Lomiya	-9.97721
▁gomaan	-9.97742
▁mapasad	-9.97747
▁dirty	-9.97755
▁clear	-9.97763
▁reading	-9.97768
▁antangan	-9.97768
▁pando	-9.97794
iyailay	-9.97796
▁aroan	-9.97798
▁administration	-9.97799
layang	-9.97802
▁Tiyago	-9.97804
▁kambing	-9.9782
▁large	-9.97824
▁lawn	-9.97828
▁train	-9.97844
▁consumed	-9.97864
▁ipag	-9.97866
▁igaan	-9.97879
▁Tak	-9.97915
▁election	-9.9792
▁Penggar	-9.97933
▁pekebabayaan	-9.97952
▁temowan	-9.97981
▁bolong	-9.97994
▁cracked	-9.97999
▁sipa	-9.98003
▁Pakab	-9.98019
▁bath	-9.98019
▁matter	-9.98039
lengi	-9.98078
▁sapolo	-9.98092
▁knock	-9.98109
▁kagai	-9.98128
▁otek	-9.98161
▁means	-9.9817
▁perpera	-9.9819
▁lame	-9.9826
▁samok	-9.98261
▁type	-9.98305
▁gatos	-9.98334
▁rush	-9.98447
▁equipp	-9.98459
▁polis	-9.98559
▁flowers	-9.98559
▁nda	-9.98601
oontod	-9.98643
olo	-9.98645
▁Build	-9.98751
▁Wat	-9.98851
▁hot	-9.98883
▁iron	-9.98949
iran	-9.98992
▁protect	-9.99161
▁fasting	-9.99185
▁boys	-9.99242
▁paekada	-9.99265
▁pepae	-9.99269
pper	-9.99285
▁pekaebe	-9.99288
ati	-9.99327
▁Kae	-9.99425
▁matay	-9.99519
ding	-9.99583
▁kawat	-9.99646
▁lana	-9.9978
dak	-9.99887
rite	-9.9997
▁liyo	-10.0004
ere	-10.0013
▁Kin	-10.0026
▁books	-10.0032
▁ride	-10.0044
▁semba	-10.0052
▁Isa	-10.0057
▁set	-10.0064
pak	-10.0065
▁stones	-10.0069
egay	-10.0071
▁Bu	-10.0075
▁rubbe	-10.0082
▁lago	-10.0084
gobat	-10.0084
▁board	-10.0095
▁seem	-10.0119
▁libr	-10.0123
▁suit	-10.0126
▁share	-10.0132
▁goat	-10.0132
iyowa	-10.0137
▁cat	-10.0138
▁Kiyo	-10.0141
▁ala	-10.0142
▁tobo	-10.0143
▁Pepaen	-10.0149
▁kena	-10.0152
tail	-10.0162
▁wanted	-10.0175
mbo	-10.0177
▁kep	-10.018
ropet	-10.0185
mbaal	-10.0187
▁tall	-10.0216
gaw	-10.0225
▁Peka	-10.0231
bang	-10.0237
mong	-10.0242
▁horses	-10.0249
▁tel	-10.0255
ogop	-10.0259
▁hell	-10.0263
ty	-10.0302
▁Tomiya	-10.0324
▁Ilaya	-10.0331
filled	-10.0344
akal	-10.0358
▁bomb	-10.0361
▁Ge	-10.0398
▁Petepe	-10.0398
▁tool	-10.0404
londog	-10.0432
onga	-10.0439
▁becom	-10.0441
▁thing	-10.0463
ition	-10.0482
ngkainoto	-10.0485
alayon	-10.0492
▁mis	-10.0496
baebaya	-10.0517
anan	-10.0518
odan	-10.0523
▁kasa	-10.0589
▁observ	-10.0617
▁tr	-10.0623
mbaloy	-10.0638
▁dr	-10.0643
kangginawai	-10.0652
▁Mela	-10.0653
▁rag	-10.0675
makaoma	-10.0683
▁trees	-10.0684
▁reache	-10.0686
▁row	-10.069
ebaed	-10.0692
alem	-10.0704
▁sit	-10.0707
tek	-10.0711
c	-10.0721
ber	-10.0727
▁te	-10.0732
▁Ro	-10.0733
ended	-10.0746
kep	-10.0747
apasang	-10.0758
omic	-10.0771
niya	-10.0796
▁buil	-10.0802
▁sho	-10.0829
▁Co	-10.0843
dad	-10.0861
▁plow	-10.0873
▁Tiyo	-10.0874
▁Roo	-10.0898
rother	-10.0907
dok	-10.0922
▁Make	-10.0929
gged	-10.0937
pes	-10.0942
▁pakat	-10.0955
ogen	-10.0961
▁Sisi	-10.0984
saeg	-10.1
▁cane	-10.1009
sod	-10.1013
▁stand	-10.1017
▁Kowa	-10.1029
came	-10.1032
etaw	-10.104
▁belittl	-10.1041
standing	-10.105
dag	-10.105
adi	-10.1057
tepad	-10.1062
▁baya	-10.1081
▁Bi	-10.1082
▁mas	-10.1083
gal	-10.1088
ow	-10.1098
▁kilala	-10.1098
lor	-10.1115
▁bota	-10.1119
dot	-10.1119
▁bag	-10.1127
son	-10.1167
▁Ko	-10.1176
▁Kag	-10.1184
▁appear	-10.1184
par	-10.1193
▁sc	-10.1203
▁Pito	-10.1204
▁pl	-10.1213
▁pipe	-10.1214
▁chop	-10.1226
▁send	-10.1227
▁pek	-10.1232
▁observe	-10.1233
ndo	-10.1247
▁Penaya	-10.1251
iten	-10.1258
ybody	-10.1268
ollow	-10.1271
may	-10.1299
eken	-10.1324
▁tra	-10.1328
▁read	-10.1349
was	-10.1352
kapasad	-10.1371
▁Il	-10.1379
tig	-10.1388
▁twi	-10.1415
ora	-10.1437
▁Mari	-10.1437
▁allow	-10.1439
lagoy	-10.1444
akol	-10.1444
▁bro	-10.1453
▁banda	-10.1464
east	-10.1468
saren	-10.1471
ree	-10.1483
▁duri	-10.1489
hose	-10.1509
solen	-10.1509
pagilaya	-10.1521
ikit	-10.1539
▁Tata	-10.1549
tri	-10.1551
▁waka	-10.1552
▁pir	-10.1583
roof	-10.1593
▁mipe	-10.1614
▁lano	-10.1618
rom	-10.1619
▁Lili	-10.1629
lak	-10.1668
sta	-10.1674
▁thie	-10.1677
▁fle	-10.1679
▁sari	-10.1693
▁toto	-10.1696
ause	-10.1704
baw	-10.1709
▁maga	-10.1718
nar	-10.1719
▁bal	-10.1729
betad	-10.1745
▁Pepaege	-10.1747
▁diyo	-10.1764
ged	-10.1777
bayaan	-10.18
▁Miyale	-10.1801
▁divide	-10.1811
cy	-10.1819
▁taga	-10.1847
ary	-10.1862
▁As	-10.1865
kes	-10.1865
itinda	-10.1871
ndaw	-10.1872
▁dur	-10.1875
▁ino	-10.1893
▁age	-10.1897
▁pala	-10.1936
▁gam	-10.194
x	-10.1943
ection	-10.1945
tion	-10.1952
▁tabo	-10.1956
rrange	-10.1957
▁load	-10.1957
ndiyar	-10.1958
▁lim	-10.196
▁Miyaant	-10.1962
▁pro	-10.198
ccept	-10.1983
▁Toto	-10.1989
wata	-10.2004
▁Piyo	-10.2008
▁maso	-10.2023
kilala	-10.2045
▁ana	-10.2049
angkal	-10.2063
gad	-10.2076
▁Bo	-10.2077
banog	-10.2078
▁Miyap	-10.2085
awa	-10.2087
ering	-10.2096
rop	-10.2097
▁ho	-10.2102
apa	-10.2102
eka	-10.2122
acco	-10.2126
ating	-10.2126
▁Gamor	-10.2145
▁animal	-10.2154
alom	-10.2156
▁Inis	-10.2158
eked	-10.2159
▁begi	-10.2161
▁kibe	-10.2184
old	-10.219
gomba	-10.2196
korot	-10.2199
▁discount	-10.2208
andang	-10.2224
self	-10.2225
▁dirt	-10.2229
ngi	-10.2236
▁Pemba	-10.2236
▁blow	-10.2237
▁swift	-10.2238
▁politi	-10.224
▁float	-10.2243
▁number	-10.2247
▁ATM	-10.2248
▁Asmera	-10.2248
▁Landbank	-10.2248
▁Markaz	-10.2248
▁Saduc	-10.2248
▁Studies	-10.2248
▁Tugaya	-10.2248
▁blossom	-10.2248
▁deposit	-10.2248
▁earthquake	-10.2248
▁famous	-10.2248
▁involve	-10.2248
▁kanggitagita	-10.2248
▁laugh	-10.2248
▁material	-10.2248
▁nickname	-10.2248
▁propitious	-10.2248
▁question	-10.2248
▁recently	-10.2248
▁ringworm	-10.2248
▁society	-10.2248
▁stomach	-10.2248
▁substitute	-10.2248
▁trousers	-10.2248
▁universe	-10.2248
▁wisdom	-10.2248
▁blanket	-10.2248
▁complex	-10.2248
▁enroll	-10.2248
▁pupil	-10.2248
▁selfish	-10.2248
▁doktor	-10.2248
▁effect	-10.2248
▁makapopoon	-10.2248
▁straight	-10.2248
▁mudfish	-10.2248
▁punish	-10.2248
▁contents	-10.2248
▁prevent	-10.2248
▁throat	-10.2248
▁grandmother	-10.2248
▁Ilokano	-10.2248
▁Meranao	-10.2248
▁endurance	-10.2248
▁sermon	-10.2248
▁swimming	-10.2248
▁pattern	-10.2248
▁snapped	-10.2248
▁Honol	-10.2248
▁airport	-10.2248
▁ticket	-10.2248
▁Alonto	-10.2248
▁powasa	-10.2248
▁chatter	-10.2248
▁debt	-10.2248
▁laginding	-10.2248
▁disregard	-10.2248
▁everything	-10.2248
▁Rinayong	-10.2248
▁kaolit	-10.2248
▁margas	-10.2248
▁sultan	-10.2248
▁joking	-10.2248
▁Saudi	-10.2249
▁surround	-10.2249
▁tamaing	-10.2249
▁sugar	-10.2249
▁middle	-10.2249
▁dempas	-10.2249
▁division	-10.2249
▁leaving	-10.2249
▁panglo	-10.2249
▁Pipira	-10.2249
▁Okey	-10.225
▁bangkaw	-10.225
▁Distri	-10.225
▁blind	-10.225
▁season	-10.225
▁build	-10.225
▁Two	-10.2251
▁Andamanaya	-10.2251
▁drunk	-10.2251
▁mapoti	-10.2251
rim	-10.2251
▁mbarambarang	-10.2251
uck	-10.2251
▁tonong	-10.2251
▁Word	-10.2251
▁slave	-10.2251
▁hurry	-10.2252
▁dough	-10.2252
▁balagen	-10.2252
urry	-10.2252
▁draw	-10.2252
▁Domada	-10.2252
▁susp	-10.2252
▁langit	-10.2252
▁hope	-10.2252
▁egg	-10.2252
▁satisf	-10.2253
▁Piyamola	-10.2253
▁command	-10.2253
▁maginawa	-10.2253
▁Singkil	-10.2253
▁horn	-10.2255
▁slip	-10.2256
▁Omar	-10.2256
▁changeable	-10.2256
▁useful	-10.2256
▁lalaw	-10.2257
▁Marantao	-10.2257
▁delay	-10.2258
▁bottle	-10.2259
▁kereg	-10.2259
▁touch	-10.2259
▁saboten	-10.226
▁studie	-10.2261
▁marani	-10.2261
▁dishonest	-10.2261
▁Amera	-10.2262
▁offered	-10.2262
▁fingers	-10.2262
▁siblings	-10.2262
▁kenaba	-10.2263
▁growing	-10.2264
▁lucky	-10.2264
▁curve	-10.2264
▁potaw	-10.2264
▁miyasowa	-10.2264
▁possible	-10.2265
▁sorrow	-10.2266
▁makasong	-10.2267
▁gita	-10.2267
▁lomes	-10.2267
▁attacker	-10.2268
▁cold	-10.2268
▁tikit	-10.227
▁nine	-10.227
▁imbegay	-10.2271
▁formal	-10.2273
▁farmer	-10.2274
▁Sh	-10.2275
▁rogo	-10.2275
▁fine	-10.2276
▁dying	-10.2276
▁miyaling	-10.2277
▁bangko	-10.2278
▁singer	-10.228
▁pole	-10.2281
▁idol	-10.2282
▁Lolo	-10.2282
▁complete	-10.2282
▁anggan	-10.2283
▁paek	-10.2284
ield	-10.2285
▁metal	-10.2287
▁kadato	-10.2289
▁meaning	-10.2291
▁happened	-10.2292
▁Mitae	-10.2294
▁Paga	-10.2294
▁Kiyara	-10.2295
▁pinch	-10.2297
▁pesaemb	-10.2299
▁papan	-10.2299
ience	-10.23
▁cheated	-10.2304
▁late	-10.2305
▁scar	-10.2306
▁fortune	-10.2306
▁lying	-10.2308
▁bless	-10.2309
misita	-10.231
▁kadakelan	-10.2311
yat	-10.2312
▁weapons	-10.2313
▁pier	-10.2314
▁path	-10.2314
▁Tira	-10.2315
▁mali	-10.2315
▁lig	-10.2317
▁Inoto	-10.2323
▁biyo	-10.2323
▁pantal	-10.2325
▁kobal	-10.2326
▁beaten	-10.2327
▁kebaya	-10.2333
▁ospital	-10.2333
angko	-10.2334
▁pangaromaa	-10.2336
▁pasin	-10.234
▁piyak	-10.2344
▁pangoya	-10.2346
▁pipira	-10.2346
▁titir	-10.2347
daan	-10.2348
▁Timo	-10.235
rated	-10.2351
▁quit	-10.2353
ela	-10.2353
▁product	-10.2361
▁spirits	-10.2364
▁guess	-10.2365
▁Pepaegi	-10.2366
▁hook	-10.2374
likod	-10.2374
waan	-10.2375
osod	-10.239
▁Muslims	-10.239
ture	-10.2392
iksa	-10.2394
▁action	-10.2396
▁Ok	-10.2408
▁fate	-10.2411
kin	-10.2412
▁Kiyato	-10.2412
▁awid	-10.2414
▁Burn	-10.2414
▁amag	-10.2415
▁bananas	-10.2415
▁magatos	-10.2424
▁ahead	-10.2427
▁Miyare	-10.2429
▁Tagoa	-10.2438
▁tanor	-10.2446
tude	-10.2449
▁kadakel	-10.2462
▁leaves	-10.2467
▁appro	-10.2475
▁gas	-10.2486
▁opened	-10.2491
▁visiting	-10.2492
▁indige	-10.2494
ayon	-10.2494
pakay	-10.2498
▁Asar	-10.2498
▁breath	-10.2506
ita	-10.2507
ther	-10.251
pangendao	-10.2514
▁Min	-10.2518
▁batang	-10.2521
▁began	-10.2537
koman	-10.2542
▁cap	-10.2547
idan	-10.2558
▁kodal	-10.2567
▁Every	-10.257
▁Mama	-10.2572
yard	-10.2581
iket	-10.2585
▁Maban	-10.2589
▁hate	-10.2598
ving	-10.2601
gembaal	-10.2601
▁burn	-10.2604
▁sebang	-10.2606
koda	-10.2612
▁paratiyaya	-10.2613
▁mold	-10.2614
mbitiyara	-10.2619
▁pangol	-10.2625
▁kalili	-10.2625
isa	-10.2628
▁gola	-10.2637
▁changes	-10.2647
riday	-10.2656
▁sokay	-10.2658
garangan	-10.2664
onan	-10.2671
▁awi	-10.2676
ib	-10.2683
tabang	-10.2687
▁youth	-10.2688
▁onaan	-10.2699
▁cro	-10.2703
▁Peli	-10.2721
▁rooms	-10.2726
▁mountains	-10.2729
▁serv	-10.2741
▁bu	-10.2747
▁gona	-10.2752
▁law	-10.2787
▁Map	-10.2796
▁petae	-10.2797
ataid	-10.2817
▁Pagi	-10.2832
ist	-10.2835
kekowa	-10.2841
▁tata	-10.2848
des	-10.2865
pengan	-10.2867
ego	-10.2877
yawan	-10.2881
imban	-10.2883
▁sled	-10.2891
god	-10.2896
ereng	-10.2904
ratiyaya	-10.2915
▁anta	-10.2918
▁practice	-10.292
▁Miyo	-10.2922
▁soil	-10.2923
▁Ri	-10.2932
▁parang	-10.2933
ne	-10.2936
▁heap	-10.2944
▁kali	-10.2951
▁oil	-10.2956
alan	-10.2959
▁makapa	-10.2965
face	-10.2966
▁sting	-10.2968
▁bit	-10.2982
▁badas	-10.2994
▁pos	-10.3006
elek	-10.3021
▁badi	-10.3028
eres	-10.3033
aot	-10.3038
▁Inamp	-10.3041
ines	-10.3049
owaan	-10.3052
▁kick	-10.3056
pping	-10.3063
▁kapepaekala	-10.3064
ind	-10.3064
▁dropp	-10.3068
ori	-10.3072
uran	-10.3083
gowan	-10.3107
ngga	-10.3115
akat	-10.3129
siken	-10.313
bayad	-10.3138
▁wit	-10.3138
gangan	-10.3141
mpit	-10.3148
rubbing	-10.3152
ritan	-10.3152
lalong	-10.3154
▁kaso	-10.3154
▁batiyo	-10.3164
bra	-10.3167
▁Mag	-10.3175
galin	-10.3175
▁creat	-10.3187
tched	-10.3195
esok	-10.3203
▁Rana	-10.3209
isita	-10.321
taw	-10.3231
▁Miyaro	-10.324
intad	-10.3266
tol	-10.3269
mang	-10.3276
▁spr	-10.3298
▁Pat	-10.3313
▁whe	-10.3316
▁ru	-10.3325
mola	-10.3328
raot	-10.3342
▁brea	-10.3343
▁tal	-10.3349
▁somi	-10.335
ure	-10.3352
ndana	-10.3362
▁Pelo	-10.3367
reng	-10.3373
▁Liy	-10.3375
sakit	-10.3377
▁raw	-10.338
ninindaan	-10.3386
▁Pekoko	-10.3399
▁sand	-10.3403
endod	-10.3404
▁Ipe	-10.3413
amasa	-10.3413
ji	-10.3419
▁adi	-10.3424
babayaan	-10.3431
▁Miyago	-10.3435
kot	-10.3435
▁Mababa	-10.3475
▁pr	-10.3493
▁Lom	-10.3495
gon	-10.3502
bat	-10.3507
aneg	-10.351
▁try	-10.3519
▁card	-10.3519
▁times	-10.3527
▁bare	-10.353
▁Diya	-10.3547
▁accus	-10.3566
▁kaon	-10.3568
ebot	-10.3577
▁kalo	-10.3598
rok	-10.3618
siyon	-10.3619
seg	-10.3625
light	-10.3626
ina	-10.3628
▁proce	-10.3631
bon	-10.3637
▁fi	-10.3644
ami	-10.3645
▁Wh	-10.3654
deer	-10.3679
▁matag	-10.3688
▁bae	-10.369
▁Mali	-10.3722
▁oran	-10.3738
▁somiyo	-10.3744
▁Pere	-10.3747
bas	-10.3748
▁mati	-10.3752
ized	-10.3762
▁match	-10.3762
▁cri	-10.3772
inlaw	-10.3774
tiya	-10.3806
▁mang	-10.3834
▁sp	-10.3836
notan	-10.3838
▁peli	-10.384
▁Minir	-10.3849
▁petero	-10.3866
sembayang	-10.388
▁tob	-10.3887
ny	-10.3897
pog	-10.3898
ards	-10.3907
ganay	-10.3909
▁Tael	-10.3919
tok	-10.3922
aga	-10.3926
given	-10.3932
ping	-10.394
olad	-10.3941
gawan	-10.395
joy	-10.3957
tle	-10.396
lawan	-10.3964
▁bet	-10.3968
iyamola	-10.3973
▁Pend	-10.3996
nitoman	-10.4004
ice	-10.4026
▁Minito	-10.4032
ganad	-10.4041
▁Saya	-10.4047
kapiya	-10.405
▁rubb	-10.4062
ram	-10.4082
soson	-10.409
▁Giyan	-10.409
rarangitan	-10.4095
▁Miyage	-10.411
▁makat	-10.4132
▁pu	-10.4132
mate	-10.4141
▁Rini	-10.4145
▁lom	-10.4155
▁conc	-10.4187
dance	-10.4193
paka	-10.42
intang	-10.4206
yon	-10.4216
ain	-10.4221
▁fr	-10.4225
bor	-10.4227
ompong	-10.4236
▁Bala	-10.4248
ambiling	-10.425
▁Pepaeg	-10.4268
taid	-10.4271
▁Pero	-10.4273
▁hi	-10.4278
▁Miyapo	-10.4284
tinda	-10.4288
geba	-10.4298
ors	-10.4301
▁sure	-10.4303
▁add	-10.4309
▁leba	-10.431
ola	-10.4314
emek	-10.4318
rase	-10.4321
tal	-10.4323
payag	-10.4325
gepes	-10.4326
kol	-10.4329
▁miyag	-10.4339
tain	-10.434
antag	-10.434
▁mer	-10.4346
imo	-10.4356
ero	-10.4356
▁Pang	-10.4359
bir	-10.4369
rangit	-10.437
ontoda	-10.4379
▁Some	-10.4388
ari	-10.4392
co	-10.441
ient	-10.4411
▁kal	-10.4468
▁Pel	-10.4503
▁kawan	-10.4507
mp	-10.4507
▁kasakit	-10.4515
lit	-10.4525
uki	-10.4528
okit	-10.4531
kebabayaan	-10.4541
kae	-10.4541
▁panga	-10.4549
mbantay	-10.455
▁May	-10.4584
▁scratch	-10.4591
ith	-10.4596
toon	-10.4599
ntel	-10.4611
▁page	-10.4613
▁lan	-10.4615
▁Op	-10.4616
bono	-10.4616
egan	-10.462
▁maki	-10.4623
eden	-10.464
ise	-10.4641
ogat	-10.4645
▁rampa	-10.4648
▁pekael	-10.465
laban	-10.4675
▁fill	-10.4692
neb	-10.4695
pit	-10.4702
mbong	-10.4705
antaw	-10.4719
▁Mom	-10.472
▁kota	-10.4725
bet	-10.4734
aego	-10.4739
▁contemplat	-10.4739
low	-10.4743
teng	-10.4755
▁grand	-10.4775
▁Mapipi	-10.4783
▁sibo	-10.4795
nik	-10.4807
▁pegilay	-10.4829
▁rak	-10.4837
company	-10.4843
▁mos	-10.4856
tindo	-10.4857
▁mon	-10.486
limo	-10.4872
ako	-10.4881
pon	-10.4893
kay	-10.4894
eten	-10.4912
▁pago	-10.4931
▁prob	-10.4962
omala	-10.4977
ration	-10.4985
▁Now	-10.4986
sek	-10.4995
orong	-10.4997
kasowa	-10.4997
thers	-10.5013
kataya	-10.5015
lamp	-10.5019
▁pego	-10.5021
ilanga	-10.5022
▁kapeka	-10.5025
nce	-10.504
each	-10.5045
▁Ilay	-10.5048
anti	-10.5059
▁katae	-10.5061
igan	-10.5062
angkaya	-10.5073
▁va	-10.5076
gging	-10.5077
▁dat	-10.5078
daon	-10.5082
ove	-10.5091
aring	-10.5092
tawan	-10.5093
▁pig	-10.51
▁Mo	-10.5108
amine	-10.5115
▁pari	-10.512
▁dima	-10.5132
▁Pepaegan	-10.5138
tarima	-10.5139
▁kab	-10.5142
hold	-10.5142
▁kit	-10.5145
▁fort	-10.5147
▁fo	-10.5151
embo	-10.5167
▁kiyap	-10.5168
okitan	-10.5183
ketiyar	-10.5185
▁kapet	-10.5186
angan	-10.5192
▁Was	-10.5215
ink	-10.5223
apiya	-10.5224
pengginawa	-10.523
alas	-10.5237
▁kase	-10.5239
lokes	-10.5245
paper	-10.5249
ship	-10.5251
▁ranta	-10.5253
ched	-10.5261
▁roro	-10.5262
aman	-10.5265
▁Dad	-10.5266
leg	-10.5274
aren	-10.5279
ilaw	-10.5292
lease	-10.5299
▁kapagin	-10.5302
▁baka	-10.5303
laan	-10.5314
rious	-10.5317
▁vi	-10.5318
▁makapag	-10.5335
opped	-10.5337
sayaw	-10.5338
▁v	-10.5342
daw	-10.5343
▁appl	-10.5356
de	-10.5358
formed	-10.5361
nder	-10.5377
▁Miso	-10.5378
▁pit	-10.5384
mor	-10.5385
orad	-10.5386
▁kaeli	-10.5389
iyab	-10.5391
kawit	-10.5399
elo	-10.5403
▁pagida	-10.5406
mbono	-10.5414
poonan	-10.5416
darat	-10.5417
▁Penda	-10.5427
▁Peso	-10.5431
king	-10.5431
▁Hol	-10.5442
imam	-10.5446
awi	-10.5447
nti	-10.5479
oriyan	-10.5484
▁thread	-10.5485
▁weapon	-10.5491
▁guy	-10.5496
▁tag	-10.5498
iling	-10.5499
ada	-10.5502
▁Ca	-10.5504
timan	-10.5515
bong	-10.5516
ried	-10.5528
sel	-10.5532
pilan	-10.5535
tas	-10.5535
kap	-10.5536
▁panana	-10.5538
pasan	-10.5541
beto	-10.5541
▁neglect	-10.5541
▁health	-10.5545
▁unite	-10.5546
▁fulfill	-10.5548
▁jump	-10.5548
pakan	-10.555
▁destroy	-10.5551
konan	-10.5553
▁Kora	-10.5561
▁wave	-10.5569
▁pesowaa	-10.5569
irsidinti	-10.5573
▁Ngkaino	-10.5573
▁quick	-10.5573
▁Piyakakae	-10.5575
orgive	-10.5577
mbidabida	-10.5581
nggolalan	-10.5581
ronze	-10.5581
▁Mecca	-10.5581
▁Mohammed	-10.5581
▁adjacent	-10.5581
▁arrival	-10.5581
▁authority	-10.5581
▁avoid	-10.5581
▁challenge	-10.5581
▁challenging	-10.5581
▁chronic	-10.5581
▁circle	-10.5581
▁cloud	-10.5581
▁control	-10.5581
▁dipagapinan	-10.5581
▁exhaust	-10.5581
▁explode	-10.5581
▁exposed	-10.5581
▁fifteen	-10.5581
▁footprint	-10.5581
▁frequently	-10.5581
▁gitagita	-10.5581
▁kambayada	-10.5581
▁malombat	-10.5581
▁merchandise	-10.5581
▁pilgrimage	-10.5581
▁rainbow	-10.5581
▁receive	-10.5581
▁reputation	-10.5581
▁responsib	-10.5581
▁scabbard	-10.5581
▁smashed	-10.5581
▁stomachache	-10.5581
▁students	-10.5581
▁system	-10.5581
▁taribasok	-10.5581
▁tiniker	-10.5581
▁unique	-10.5581
▁vehicle	-10.5581
▁whittling	-10.5581
▁kingdom	-10.5581
▁kitchen	-10.5581
▁mababaling	-10.5581
▁matenggaw	-10.5581
▁pelebengan	-10.5581
▁thirty	-10.5581
▁favor	-10.5581
▁sigopan	-10.5581
▁Chinese	-10.5581
▁maklok	-10.5581
▁possess	-10.5581
▁progress	-10.5581
▁Guess	-10.5581
▁discern	-10.5581
▁Aleem	-10.5581
▁thorough	-10.5581
▁lipaw	-10.5581
▁Br	-10.5581
▁lupa	-10.5581
▁mipendarainon	-10.5581
▁connect	-10.5581
▁engine	-10.5581
▁sweetheart	-10.5581
▁wrote	-10.5581
▁sigoro	-10.5581
▁anchor	-10.5581
▁withdraw	-10.5581
▁permission	-10.5581
▁biaes	-10.5581
▁pobri	-10.5581
▁silver	-10.5581
▁concern	-10.5581
▁judgment	-10.5581
▁jealousy	-10.5581
▁dyip	-10.5581
▁future	-10.5581
▁buoyan	-10.5581
▁idiot	-10.5581
▁shining	-10.5581
▁amount	-10.5581
▁property	-10.5581
▁Lominik	-10.5581
▁Mikaka	-10.5581
▁steel	-10.5581
▁cursing	-10.5581
▁saroar	-10.5582
▁marayag	-10.5582
▁rubbish	-10.5582
▁supply	-10.5582
▁pekerarangitan	-10.5582
▁promise	-10.5582
▁cheek	-10.5582
bolosan	-10.5582
▁Romoro	-10.5582
▁pamari	-10.5582
▁chess	-10.5582
baling	-10.5582
ransfer	-10.5582
▁domalida	-10.5582
▁numberless	-10.5582
▁bowaya	-10.5582
▁growth	-10.5582
▁pagiyog	-10.5582
▁pasbi	-10.5582
▁Kapedi	-10.5582
▁friction	-10.5582
▁masgit	-10.5582
▁estimate	-10.5582
▁alright	-10.5582
▁spouse	-10.5582
▁Madidi	-10.5582
▁performed	-10.5583
▁gimpisa	-10.5583
▁overcome	-10.5583
▁discussion	-10.5583
▁moralat	-10.5583
▁copy	-10.5583
▁wrappe	-10.5583
pirogo	-10.5583
▁potato	-10.5583
▁bitten	-10.5583
▁steal	-10.5584
▁thick	-10.5584
▁president	-10.5584
▁bitter	-10.5584
▁blood	-10.5584
▁tirikan	-10.5584
▁gadong	-10.5584
▁kosina	-10.5584
▁Lomolo	-10.5584
▁defective	-10.5584
▁ringkar	-10.5584
▁tabla	-10.5584
▁beads	-10.5584
▁depend	-10.5584
▁tonight	-10.5584
▁wander	-10.5584
▁raota	-10.5585
▁grace	-10.5585
▁bayok	-10.5585
▁blue	-10.5586
▁dagger	-10.5586
▁pesombali	-10.5586
▁Samping	-10.5586
▁paddy	-10.5586
▁terminal	-10.5586
▁entangle	-10.5586
▁Pekaeneg	-10.5586
▁women	-10.5587
▁heaven	-10.5587
nggagaan	-10.5587
▁marsik	-10.5587
▁trans	-10.5588
▁shout	-10.5588
▁stove	-10.5588
▁moment	-10.5588
▁invited	-10.5588
inrol	-10.5588
▁maontol	-10.5588
▁jar	-10.5588
▁decreased	-10.5589
▁magari	-10.5589
▁kelong	-10.5589
▁atomik	-10.559
▁common	-10.559
▁filthy	-10.559
▁music	-10.559
▁fooled	-10.559
▁Accounting	-10.559
▁wrestling	-10.559
▁Madila	-10.5591
▁chain	-10.5592
▁warna	-10.5592
ingagag	-10.5592
▁belonging	-10.5592
▁dikelas	-10.5592
▁alloy	-10.5593
▁politika	-10.5593
▁maolog	-10.5594
▁Ipekae	-10.5594
▁bitoon	-10.5594
▁flight	-10.5594
▁gnaw	-10.5595
gemaw	-10.5595
▁disarrange	-10.5595
▁Antawa	-10.5596
▁bleed	-10.5597
▁magarang	-10.5597
▁brush	-10.5597
▁maninimo	-10.5598
▁candy	-10.5598
▁sisters	-10.5598
▁hours	-10.5599
▁forgot	-10.5599
▁babaling	-10.5599
▁Miyapasad	-10.56
▁Mirika	-10.5601
▁stars	-10.5601
▁crops	-10.5601
▁stalks	-10.5602
▁eight	-10.5602
▁green	-10.5602
▁mangaroma	-10.5602
▁bangon	-10.5603
onaan	-10.5603
▁cup	-10.5604
▁kaposan	-10.5604
▁baleng	-10.5604
▁imitate	-10.5605
▁rollers	-10.5605
▁biro	-10.5605
▁tower	-10.5606
▁bisaya	-10.5606
▁City	-10.5606
▁ilmo	-10.5608
▁deeds	-10.5609
▁secretly	-10.5609
▁pandi	-10.561
▁taste	-10.561
▁Awid	-10.5611
▁Ndae	-10.5611
▁ropa	-10.5613
▁clu	-10.5613
▁belt	-10.5613
▁Penggiri	-10.5613
ettle	-10.5615
rupt	-10.5615
▁opama	-10.5616
▁hung	-10.5618
▁Sompat	-10.5618
▁Taros	-10.5619
▁shouting	-10.562
nited	-10.5621
▁riyawat	-10.5621
▁fact	-10.5623
▁fright	-10.5624
salin	-10.5625
▁gagaan	-10.5625
▁rantay	-10.5627
▁craze	-10.5629
▁soft	-10.5632
▁kagagawi	-10.5634
▁Koran	-10.5634
▁niya	-10.5635
▁pekaya	-10.5636
▁Pesong	-10.5637
▁forward	-10.5638
▁imitated	-10.5638
▁Kaeri	-10.5638
▁reketa	-10.5639
▁sangkai	-10.5639
▁pekarag	-10.5641
▁leaping	-10.5645
▁tooth	-10.5647
▁piyakii	-10.5647
▁perila	-10.5649
▁farm	-10.565
▁apart	-10.565
pembelag	-10.565
▁ndato	-10.5652
▁Pegilay	-10.5653
ul	-10.5656
▁divorced	-10.5657
uous	-10.5658
▁wise	-10.5658
▁Petael	-10.5659
▁kaeromai	-10.566
▁nayaon	-10.5661
▁paengen	-10.5661
▁begel	-10.5663
osiya	-10.5665
▁bariya	-10.5665
▁Kael	-10.5669
▁loss	-10.5669
▁Salin	-10.5669
▁Miyati	-10.5673
▁ambog	-10.5673
▁waves	-10.5676
rso	-10.5679
▁meeting	-10.5681
▁paekarag	-10.5681
dden	-10.5682
▁galingan	-10.5684
▁nations	-10.5686
pelangoy	-10.5687
▁dye	-10.5687
▁Biyado	-10.5689
lose	-10.569
▁brain	-10.5694
▁omoy	-10.5695
▁cooking	-10.5701
▁kapangendao	-10.5701
katan	-10.5706
▁oyagoyag	-10.5706
▁paranga	-10.5709
▁pageda	-10.5709
directly	-10.5709
▁Kasa	-10.571
▁crossed	-10.5711
▁sailed	-10.5711
▁mono	-10.5712
nsara	-10.5713
▁animals	-10.5713
▁ongar	-10.5714
▁studying	-10.5715
darpa	-10.5715
▁Math	-10.5717
▁sinta	-10.5717
▁forgiven	-10.5723
▁kagabi	-10.5725
ord	-10.5726
▁Apay	-10.5727
▁hind	-10.5727
ragged	-10.5728
▁taam	-10.5728
▁Clea	-10.5729
▁Lalan	-10.5729
▁scrap	-10.573
engan	-10.5731
▁kalod	-10.5732
▁Mato	-10.5732
ined	-10.5734
▁totoo	-10.5742
▁troubles	-10.5743
▁Katan	-10.5743
▁katiya	-10.5748
▁lapis	-10.5751
▁baby	-10.5752
▁bara	-10.5757
▁sticky	-10.5758
▁keto	-10.5767
▁With	-10.5768
alo	-10.5769
▁sambi	-10.577
edad	-10.5772
hief	-10.5774
▁makamba	-10.5775
▁Pangenin	-10.5775
rontay	-10.5776
mboka	-10.5776
▁Soso	-10.5776
▁pesos	-10.5778
▁pair	-10.5779
▁Tomini	-10.5783
yag	-10.5783
ikir	-10.5786
▁praying	-10.5787
▁spread	-10.5792
▁mapi	-10.58
▁paying	-10.5806
▁mood	-10.5809
▁staying	-10.5819
▁aching	-10.5819
mpered	-10.5824
▁apply	-10.5825
▁Peke	-10.5826
ndaan	-10.5828
▁nggalebeken	-10.583
▁evening	-10.583
bapa	-10.5831
tch	-10.5832
▁vol	-10.5836
▁bones	-10.5837
inggi	-10.5838
▁Kiki	-10.5841
iness	-10.5842
terday	-10.5842
▁stre	-10.5844
sik	-10.5845
tic	-10.5846
▁pagila	-10.5848
bos	-10.5851
▁bebay	-10.586
▁fall	-10.5862
oled	-10.5865
banowit	-10.587
▁ac	-10.587
he	-10.587
▁torogen	-10.5871
bern	-10.5872
▁bil	-10.5876
ndiga	-10.5887
▁posts	-10.5889
▁pressur	-10.5891
▁Plea	-10.5897
▁companions	-10.59
▁apir	-10.5902
▁rarata	-10.5904
▁adv	-10.5905
▁kambola	-10.5906
▁Ita	-10.5908
▁week	-10.5909
eech	-10.5916
▁wipe	-10.5917
▁shoulder	-10.5924
▁company	-10.5925
pengaroma	-10.5937
▁Liyo	-10.5939
baeg	-10.594
▁chickens	-10.594
▁Miyag	-10.5944
▁pisos	-10.5946
husk	-10.5948
bokel	-10.5949
agen	-10.5951
lass	-10.5952
▁timan	-10.5957
teroon	-10.5957
▁ipae	-10.5966
gasto	-10.5971
▁paeki	-10.5972
▁Pepaengi	-10.5973
▁bin	-10.5976
mos	-10.5977
yth	-10.5979
▁Oga	-10.5982
pin	-10.5985
lon	-10.5985
▁clothing	-10.5988
▁mapapa	-10.5992
▁fare	-10.5999
▁arrange	-10.6004
▁Minip	-10.6005
▁cour	-10.6012
sang	-10.6033
▁chi	-10.6033
loaded	-10.6033
oray	-10.6035
ilikos	-10.6037
dasan	-10.6041
lisen	-10.6046
panaman	-10.6048
▁sounded	-10.6052
antap	-10.6054
▁Peti	-10.6057
▁Pisaeg	-10.6065
▁Biyan	-10.6066
▁sirip	-10.6068
kapagiskowila	-10.6073
▁elde	-10.6074
▁omen	-10.6075
▁masar	-10.6081
▁deprive	-10.609
▁math	-10.6095
▁key	-10.6096
hange	-10.6105
▁kapemb	-10.6111
ribar	-10.6113
▁soul	-10.6113
like	-10.6122
▁je	-10.6123
▁wail	-10.6125
▁indu	-10.6128
▁pemb	-10.6129
▁begin	-10.6132
lidasan	-10.6138
▁Pete	-10.614
▁pepaeka	-10.6142
▁lap	-10.6144
rampet	-10.6149
olog	-10.615
▁intend	-10.6151
▁Pengge	-10.6153
sarseb	-10.6156
tapi	-10.6168
▁Magogo	-10.6177
▁Sasa	-10.6181
garang	-10.6182
nsan	-10.6184
gra	-10.6186
▁pamasa	-10.6186
mpat	-10.6196
etan	-10.621
liling	-10.6218
▁kil	-10.6218
▁Peto	-10.6226
▁blo	-10.6229
onon	-10.6232
▁Biyon	-10.6232
▁Lim	-10.6233
▁makimbo	-10.6234
paired	-10.6237
tempo	-10.624
▁onor	-10.6246
keb	-10.6249
▁Baya	-10.625
▁dogs	-10.6257
boyog	-10.6258
▁bibi	-10.6278
aper	-10.6279
nay	-10.6284
▁basa	-10.6289
▁mamasa	-10.6299
ager	-10.6308
bog	-10.6309
▁Minita	-10.6311
▁gamo	-10.6314
▁int	-10.6319
rita	-10.6323
teb	-10.634
enar	-10.6341
▁sombali	-10.6342
▁wor	-10.6343
ability	-10.6354
immed	-10.6366
pe	-10.6373
▁Miyal	-10.6383
grain	-10.6394
▁gom	-10.6398
torogen	-10.6399
taebek	-10.6402
▁kapakay	-10.6408
▁tur	-10.6428
▁ndae	-10.6435
aran	-10.6437
ngkis	-10.6438
▁seat	-10.6438
▁Ng	-10.6443
▁gent	-10.6443
▁weed	-10.6444
▁watang	-10.6459
ven	-10.646
▁lean	-10.646
▁Matano	-10.6463
▁Giyana	-10.6468
kel	-10.6469
rap	-10.6479
▁Miyat	-10.648
▁Saegi	-10.6486
osip	-10.649
▁extra	-10.6502
▁kiyabo	-10.6502
▁paint	-10.6504
▁solaw	-10.6504
▁Kiyas	-10.6508
marked	-10.6517
titimo	-10.653
▁taint	-10.6533
▁goal	-10.6533
▁aged	-10.6549
alak	-10.6557
▁pelalakaw	-10.6558
▁Keke	-10.6574
▁pad	-10.6575
inowa	-10.658
ddle	-10.6585
▁Su	-10.659
pira	-10.66
engkel	-10.6612
raga	-10.6621
abaya	-10.6622
▁seek	-10.6624
onsider	-10.6625
ms	-10.6631
ning	-10.6635
▁ease	-10.6638
lot	-10.664
▁force	-10.6656
▁scratche	-10.6657
▁Amon	-10.6672
awatan	-10.6678
▁Miyakos	-10.6686
▁kasowa	-10.6688
ue	-10.6691
eyad	-10.6693
▁Miyabin	-10.6697
▁pekaele	-10.6707
kata	-10.6712
▁pre	-10.6719
poron	-10.6722
▁kiy	-10.6724
▁kara	-10.6729
iz	-10.6735
▁Pelala	-10.6739
▁miyalek	-10.6748
nin	-10.6755
▁round	-10.6757
sj	-10.6763
▁gr	-10.6768
mar	-10.678
▁Miyape	-10.6781
▁en	-10.6781
lge	-10.6782
eras	-10.6793
▁Mapapa	-10.6797
▁romi	-10.6797
rawa	-10.68
▁Miyaki	-10.6804
uch	-10.6811
▁Tamb	-10.6814
▁Somo	-10.6815
rod	-10.682
kataban	-10.683
▁kipa	-10.6834
▁kompa	-10.6841
▁ge	-10.6849
ears	-10.6862
▁siyo	-10.6865
ced	-10.6874
▁Tal	-10.6876
olen	-10.6888
▁air	-10.689
quire	-10.6902
dapoan	-10.6914
etiger	-10.6918
ffic	-10.6928
powa	-10.6929
but	-10.6942
impos	-10.6949
rek	-10.6951
▁Had	-10.6951
▁Lika	-10.6952
etembang	-10.697
▁con	-10.6971
▁bato	-10.6972
▁Mada	-10.6975
ying	-10.698
▁irrita	-10.6982
▁lele	-10.6991
mbelag	-10.6992
▁ha	-10.6997
sok	-10.6998
▁fu	-10.6998
▁miyatae	-10.7
▁Kiy	-10.7006
ranga	-10.7018
esen	-10.7019
▁Pimba	-10.7023
▁magin	-10.7024
ereg	-10.7027
ona	-10.7038
▁Tan	-10.704
iriga	-10.7041
▁pas	-10.7046
▁lay	-10.7049
▁miyada	-10.7058
▁preache	-10.7059
▁bi	-10.7079
▁Ins	-10.7097
kaeilay	-10.7103
eda	-10.7114
▁Piro	-10.7127
▁Paega	-10.7129
▁pem	-10.7131
▁prais	-10.7132
▁Pese	-10.7133
tidawa	-10.7144
ready	-10.7145
▁Ariko	-10.7167
mpa	-10.7168
rarangit	-10.7174
bagi	-10.7179
▁Pin	-10.7179
tong	-10.7182
rog	-10.7182
▁ipaka	-10.7201
elobed	-10.7211
▁ipek	-10.7213
ssed	-10.7228
wang	-10.7232
wibi	-10.7239
▁Maa	-10.7245
xamine	-10.7257
▁seed	-10.7259
active	-10.7259
adiyam	-10.7278
appeared	-10.7282
aba	-10.7296
▁Sayan	-10.7297
▁Peki	-10.7298
▁Ala	-10.7301
▁turn	-10.7301
▁kamba	-10.7302
▁kasab	-10.7311
▁cla	-10.732
▁fore	-10.7345
bager	-10.735
▁Pres	-10.7351
rs	-10.7353
nekaew	-10.7367
▁betad	-10.7377
▁mipa	-10.7377
ellow	-10.7385
▁cor	-10.7385
▁Powa	-10.7388
tik	-10.7392
▁miyak	-10.7399
▁Minira	-10.7409
▁fenc	-10.7423
kaoma	-10.7427
▁cannon	-10.7457
▁Dav	-10.746
▁Inib	-10.7463
pad	-10.7471
▁kapang	-10.7472
top	-10.7473
▁tam	-10.7475
sogok	-10.748
▁rom	-10.7482
olotan	-10.7484
born	-10.7494
▁pengg	-10.7504
iski	-10.7518
itindeg	-10.752
▁Sak	-10.7522
tolak	-10.7528
api	-10.7529
▁weak	-10.7531
▁som	-10.7532
oraok	-10.7533
▁pes	-10.7555
▁preci	-10.7568
ekeb	-10.7579
▁kawa	-10.7583
▁mela	-10.7583
idea	-10.7584
iro	-10.76
mpong	-10.761
epeng	-10.7613
▁pela	-10.7615
▁pagosara	-10.7615
ock	-10.762
adan	-10.7642
▁Kata	-10.7652
▁kakan	-10.7672
lima	-10.7674
ookitan	-10.7677
ush	-10.7679
endek	-10.7683
rem	-10.7709
▁petaero	-10.771
the	-10.7724
▁Lag	-10.7731
▁karo	-10.7738
ae	-10.7749
ky	-10.7752
▁ngkai	-10.7753
▁Pep	-10.7758
mara	-10.7762
ndag	-10.7773
▁kapan	-10.7776
eket	-10.7783
botan	-10.7787
gina	-10.7788
▁anti	-10.7792
zed	-10.7793
kaeden	-10.78
alin	-10.7801
▁Soro	-10.7805
▁koba	-10.7817
deng	-10.7827
▁Begi	-10.7831
ured	-10.7855
toga	-10.7858
▁Init	-10.7864
▁pers	-10.7878
ob	-10.7893
iled	-10.79
▁Miyasen	-10.7912
ontod	-10.7913
ngit	-10.7915
▁Piyak	-10.7919
ndas	-10.7921
▁kiyamb	-10.7922
▁fre	-10.7924
▁magi	-10.794
abaeger	-10.7943
▁kake	-10.795
iyatimo	-10.7957
▁Lomi	-10.7967
▁tie	-10.7977
▁korang	-10.7979
numer	-10.7983
iyag	-10.7989
ff	-10.8001
anto	-10.8017
▁Sini	-10.8027
▁Eng	-10.8031
▁Masago	-10.8033
potol	-10.8057
▁Tepe	-10.8062
▁Ikae	-10.8064
lim	-10.8065
▁mab	-10.807
▁Maran	-10.8073
goraok	-10.8073
▁bida	-10.8081
▁Miyate	-10.8088
▁rako	-10.8092
▁ripe	-10.81
▁produce	-10.81
dol	-10.8106
pepen	-10.8115
dep	-10.8123
▁Miyatae	-10.8131
▁bog	-10.814
are	-10.8148
ey	-10.8166
port	-10.817
▁Pano	-10.8196
▁dri	-10.8211
placed	-10.8212
arinta	-10.8221
▁Minin	-10.8232
ikolay	-10.8236
▁bono	-10.8236
▁gek	-10.8237
yanga	-10.8247
▁bon	-10.8248
reb	-10.8253
▁Piyaga	-10.8254
kad	-10.827
anaw	-10.8287
lingi	-10.829
etaengen	-10.8296
▁Piyang	-10.8303
alebo	-10.8303
eren	-10.8313
▁Dom	-10.8318
ker	-10.8328
▁kori	-10.8332
mpen	-10.8332
bar	-10.8338
▁Liyap	-10.8367
▁nan	-10.8369
▁Pu	-10.8376
ome	-10.8381
▁mbo	-10.8384
adeng	-10.8391
ros	-10.8394
esowa	-10.8402
amber	-10.8404
▁ser	-10.8416
▁Pepaega	-10.8419
▁nail	-10.8421
ageda	-10.8431
tolad	-10.8438
pek	-10.8438
▁Miyata	-10.8439
▁baba	-10.8444
ranti	-10.8445
alokalo	-10.8447
▁Rom	-10.8448
▁ban	-10.8449
▁lopak	-10.8451
alim	-10.8452
▁sto	-10.8468
ile	-10.8471
▁sta	-10.8474
▁Isae	-10.848
▁onot	-10.8481
bok	-10.85
▁kapakap	-10.8518
kaklas	-10.8535
tur	-10.8542
roro	-10.8565
▁Miyakasae	-10.8576
▁malang	-10.8578
opakat	-10.8614
bal	-10.8635
▁kiyato	-10.8657
tokaw	-10.8658
cious	-10.8659
▁Miyako	-10.8662
▁taro	-10.8672
▁Pan	-10.8681
▁layo	-10.8684
gas	-10.8685
▁Miyapi	-10.8696
tangk	-10.8699
osowa	-10.8706
alik	-10.871
owit	-10.8715
goes	-10.8715
▁Leb	-10.8738
▁kambo	-10.8742
▁Pes	-10.8745
rti	-10.8746
dal	-10.8765
agasi	-10.8773
empe	-10.8773
reward	-10.8774
naan	-10.8777
▁ayat	-10.8794
mbar	-10.8805
tog	-10.8806
▁Pana	-10.8815
ine	-10.8822
tangan	-10.8829
▁makapal	-10.8832
impo	-10.8833
▁Andaa	-10.8837
▁dalin	-10.8846
ras	-10.8847
okan	-10.8847
▁plu	-10.8849
▁cal	-10.8866
mb	-10.8873
▁nig	-10.8877
▁pang	-10.8883
▁piyam	-10.889
▁mam	-10.8897
naon	-10.8897
apotol	-10.8897
sisii	-10.8898
my	-10.8902
▁Inida	-10.8917
ragon	-10.8946
nta	-10.8948
▁mato	-10.8966
▁ways	-10.8968
▁Ipepaengan	-10.8968
ben	-10.8981
entay	-10.8985
saolay	-10.8999
▁Siyang	-10.902
▁Paratiyaya	-10.9022
kikilala	-10.9023
yadi	-10.9031
pus	-10.9036
▁Pisae	-10.9037
ili	-10.9038
sal	-10.904
moy	-10.9041
▁Somasa	-10.9052
bangan	-10.908
▁Tiyay	-10.9088
dor	-10.9105
kila	-10.9122
zing	-10.914
alam	-10.914
egas	-10.9145
leb	-10.9157
▁meri	-10.9158
▁Pepaenge	-10.9161
yatan	-10.9172
▁Kiyati	-10.9175
nsang	-10.9177
▁Tinim	-10.9182
lic	-10.9182
▁Pela	-10.9185
sala	-10.9202
pat	-10.921
pekaerarangit	-10.921
asbod	-10.9219
▁maako	-10.9226
ately	-10.9232
odo	-10.9235
▁continu	-10.9238
aban	-10.9238
eath	-10.9239
▁Kid	-10.9247
libet	-10.925
odi	-10.9253
ntang	-10.926
▁Iniy	-10.9271
▁Ap	-10.9279
ngkap	-10.9282
▁Mat	-10.9282
lik	-10.9282
nggalebek	-10.9292
ayawa	-10.9294
▁Pepaem	-10.9296
▁ag	-10.9296
iyawan	-10.9299
aon	-10.9303
▁paniya	-10.9317
bantak	-10.9318
▁Mite	-10.932
▁lag	-10.9334
▁temp	-10.9338
rga	-10.9345
lai	-10.9358
gonanao	-10.9363
tekaw	-10.9364
pama	-10.9382
▁goro	-10.9399
▁begg	-10.9409
▁j	-10.9413
ndi	-10.9415
uld	-10.9418
▁Pama	-10.9422
mit	-10.9432
▁Pema	-10.9438
pasa	-10.9439
peg	-10.9443
▁att	-10.9447
lod	-10.9452
▁cooperate	-10.9454
bala	-10.9457
▁sogo	-10.9457
ambar	-10.9459
pag	-10.9467
▁Assa	-10.9477
kor	-10.9482
▁ger	-10.9487
▁sorok	-10.9489
ggila	-10.9491
▁oma	-10.9495
▁mig	-10.9509
ast	-10.9518
iyaolog	-10.9519
mber	-10.952
atar	-10.9524
▁Miyakato	-10.9546
asi	-10.9571
▁Siy	-10.9572
ebabayaan	-10.9575
ampir	-10.9589
▁baro	-10.9596
abak	-10.9615
epak	-10.9619
ipping	-10.9621
ney	-10.9629
▁Mer	-10.9631
▁dim	-10.9639
▁rest	-10.964
▁makar	-10.9644
▁sur	-10.9651
kapiyapiya	-10.9657
icked	-10.9657
▁pega	-10.9661
▁kalipat	-10.9664
▁mark	-10.9671
▁paga	-10.9683
yaan	-10.9686
epa	-10.97
ngin	-10.9703
yar	-10.9727
agiketiyar	-10.9731
▁cur	-10.9731
inggalebek	-10.9735
taey	-10.9738
▁Am	-10.9747
lowis	-10.9752
baga	-10.9769
▁Nam	-10.9785
▁Peko	-10.9792
ilaya	-10.9794
edaan	-10.9797
▁depriv	-10.9801
robak	-10.9801
ud	-10.9807
head	-10.981
▁toton	-10.9819
▁comm	-10.982
▁im	-10.9821
▁dom	-10.9825
reges	-10.9832
bayadan	-10.9835
▁pop	-10.9838
aegisa	-10.985
▁makapasa	-10.9851
▁pakam	-10.9859
▁Paena	-10.9868
work	-10.9881
▁Kiyata	-10.9882
ipatan	-10.9885
▁pel	-10.9886
▁Miyan	-10.9888
▁tawn	-10.989
▁kapem	-10.9891
kasambi	-10.9892
ino	-10.9893
▁Makaaa	-10.993
▁pananago	-10.9935
using	-10.9935
▁kiyab	-10.9938
▁drop	-10.9939
ipegan	-10.994
lam	-10.9941
▁ni	-10.9943
▁police	-10.9945
▁Mipae	-10.9947
▁Miyakat	-10.9956
tart	-10.9972
akataepeg	-10.9978
▁mamaan	-10.9985
▁nec	-10.9998
▁miyale	-11.0004
▁paen	-11.0007
iken	-11.001
▁aff	-11.0029
▁rar	-11.0033
▁deci	-11.0038
ini	-11.0042
con	-11.0047
loc	-11.0048
aded	-11.0057
▁tomiya	-11.0082
▁dayon	-11.0082
antaan	-11.0088
Manila	-11.0119
ince	-11.0129
P	-11.0133
ibi	-11.0139
iga	-11.015
teg	-11.0156
langon	-11.0157
asaan	-11.0159
▁Papa	-11.0159
linog	-11.016
kiyaba	-11.0162
iki	-11.0176
angin	-11.018
sleep	-11.018
giskowila	-11.0181
▁Paes	-11.0185
fall	-11.0187
shore	-11.019
point	-11.0193
agariya	-11.0195
obosa	-11.0196
▁kas	-11.0196
bagak	-11.0199
pol	-11.02
antong	-11.0217
▁Inika	-11.0233
ategas	-11.0234
iyata	-11.0237
hor	-11.0246
▁ad	-11.025
▁lakaw	-11.0254
▁fan	-11.0256
engka	-11.0258
embala	-11.0267
▁Ran	-11.0267
ening	-11.0269
doro	-11.027
katiger	-11.0278
llowed	-11.0283
lalim	-11.0286
wind	-11.0289
▁Maba	-11.0291
▁pama	-11.0291
abogado	-11.0298
▁Tomiyar	-11.0304
cial	-11.0305
tole	-11.0316
antang	-11.0321
rikan	-11.0331
▁makate	-11.0332
▁deli	-11.034
orot	-11.034
ganat	-11.0341
▁miyati	-11.0346
▁kiyat	-11.0346
▁attack	-11.035
▁Miyakak	-11.0354
▁Lana	-11.0358
lapis	-11.036
ompa	-11.0365
▁Bind	-11.0383
agawa	-11.0383
genekan	-11.0392
nimbak	-11.0401
sambayang	-11.0404
urning	-11.0404
▁Ru	-11.0411
rectly	-11.0417
▁provi	-11.0418
leng	-11.0426
room	-11.0429
▁Ch	-11.0436
▁lilin	-11.0438
▁sembayan	-11.044
▁conf	-11.0451
▁overt	-11.0453
ough	-11.0461
gin	-11.0465
paekaoma	-11.0469
fit	-11.0472
▁Pembo	-11.0476
sara	-11.0476
▁habit	-11.0479
nayon	-11.0489
▁Miyalim	-11.0489
▁pembet	-11.0491
▁rub	-11.0496
taya	-11.0504
ilag	-11.0504
▁Biyo	-11.0505
▁imitat	-11.0508
▁prepar	-11.0508
▁gi	-11.0511
gang	-11.0511
▁Don	-11.0514
inengka	-11.0522
miki	-11.0526
▁Miyaren	-11.0528
ham	-11.0528
educ	-11.0529
gimpis	-11.0529
▁kapano	-11.053
▁Mimbae	-11.0531
nggita	-11.0531
sombali	-11.0533
▁Lini	-11.0538
▁banto	-11.0542
▁possibl	-11.0543
▁religio	-11.0545
▁thorn	-11.0545
▁differen	-11.0547
▁scatter	-11.0548
aten	-11.0549
atanog	-11.055
odar	-11.0554
jud	-11.0554
▁Kab	-11.0554
▁luck	-11.0556
▁gather	-11.0557
▁defe	-11.056
les	-11.0561
etegeben	-11.0561
earch	-11.0562
econd	-11.0562
▁miyata	-11.0563
▁Mbae	-11.0564
pindi	-11.0564
▁flow	-11.0565
▁cont	-11.0567
useum	-11.0568
arriage	-11.0568
rati	-11.0569
▁medic	-11.057
gol	-11.0572
▁corr	-11.0572
new	-11.0573
▁Ingkaino	-11.0573
▁Biya	-11.0574
idden	-11.0577
▁makasembay	-11.0577
ingkil	-11.0578
▁ju	-11.0578
▁comfort	-11.0579
spect	-11.058
paenon	-11.0581
ealousy	-11.0581
▁collaborat	-11.0581
▁deteriorat	-11.0581
▁gasolina	-11.0581
▁paglonen	-11.0581
▁project	-11.0581
▁subdivi	-11.0581
iyangagagango	-11.0581
stablish	-11.0581
▁Arabia	-11.0581
▁Egypt	-11.0581
▁Grandson	-11.0581
▁Kulintang	-11.0581
▁Silopin	-11.0581
▁accident	-11.0581
▁assignment	-11.0581
▁attorney	-11.0581
▁boundary	-11.0581
▁celebra	-11.0581
▁chaotic	-11.0581
▁cigarette	-11.0581
▁conceited	-11.0581
▁devastat	-11.0581
▁dimagiskwela	-11.0581
▁diminished	-11.0581
▁escape	-11.0581
▁exaggerate	-11.0581
▁exercising	-11.0581
▁explosion	-11.0581
▁festivities	-11.0581
▁figure	-11.0581
▁forefinger	-11.0581
▁gasoline	-11.0581
▁genuine	-11.0581
▁gobirnador	-11.0581
▁influence	-11.0581
▁influential	-11.0581
▁instrument	-11.0581
▁kanarakaan	-11.0581
▁kapamowasa	-11.0581
▁kaperidoay	-11.0581
▁kedikedi	-11.0581
▁leletaean	-11.0581
▁manuscript	-11.0581
▁matiwaro	-11.0581
▁minutes	-11.0581
▁mirror	-11.0581
▁misulutan	-11.0581
▁miyagaaleem	-11.0581
▁nggoniat	-11.0581
▁oclock	-11.0581
▁opponent	-11.0581
▁ornament	-11.0581
▁orphan	-11.0581
▁pegidaanowa	-11.0581
▁pregnant	-11.0581
▁proposal	-11.0581
▁recognize	-11.0581
▁romantic	-11.0581
▁sakmag	-11.0581
▁security	-11.0581
▁sheriff	-11.0581
▁significance	-11.0581
▁tamendeg	-11.0581
▁tarakayo	-11.0581
▁threadworn	-11.0581
▁tshirts	-11.0581
▁uniform	-11.0581
▁unselfish	-11.0581
▁uprooted	-11.0581
▁vacancy	-11.0581
▁vacant	-11.0581
▁vigorous	-11.0581
▁wiggl	-11.0581
▁winnowing	-11.0581
▁arriving	-11.0581
▁collided	-11.0581
▁employment	-11.0581
▁mabantay	-11.0581
▁magariyari	-11.0581
▁tirminal	-11.0581
mosawira	-11.0581
▁Pananadem	-11.0581
▁annex	-11.0581
▁bristle	-11.0581
▁diligently	-11.0581
▁group	-11.0581
▁scream	-11.0581
conscious	-11.0581
▁Cebu	-11.0581
▁basketball	-11.0581
▁eligib	-11.0581
▁fiancee	-11.0581
▁seminar	-11.0581
▁stipend	-11.0581
▁Pangangali	-11.0581
▁collect	-11.0581
▁kirakira	-11.0581
▁ngongoda	-11.0581
▁explaining	-11.0581
▁mapanton	-11.0581
diditaran	-11.0581
▁Kirakira	-11.0581
▁dansoli	-11.0581
▁firmly	-11.0581
▁groping	-11.0581
▁improve	-11.0581
▁kiyatangkaan	-11.0581
▁malilimoon	-11.0581
▁malowig	-11.0581
▁measurement	-11.0581
▁Yah	-11.0581
▁vibrat	-11.0581
kaontawar	-11.0581
▁accomplice	-11.0581
▁guitar	-11.0581
▁syiti	-11.0581
▁mimbeto	-11.0581
▁devious	-11.0581
▁harmony	-11.0581
▁climb	-11.0581
▁fez	-11.0581
▁injured	-11.0581
▁gomagalebek	-11.0581
etambetambe	-11.0581
▁garansang	-11.0581
▁karomasayan	-11.0581
▁Moslim	-11.0581
▁bayanek	-11.0581
▁pekebabayai	-11.0581
▁shadow	-11.0581
▁Khalid	-11.0581
▁mangawiyagan	-11.0581
▁minotos	-11.0581
fect	-11.0581
▁Moslem	-11.0581
▁balaola	-11.0581
▁pangomaan	-11.0581
▁priest	-11.0581
▁tarangga	-11.0581
▁Twenty	-11.0581
▁cousin	-11.0581
▁current	-11.0581
▁garagara	-11.0581
▁birth	-11.0581
▁business	-11.0581
▁inisapar	-11.0581
▁kolambo	-11.0581
▁poison	-11.0581
▁kapamanekaew	-11.0581
▁makitidawa	-11.0581
▁Pendaensa	-11.0581
▁curtain	-11.0581
▁interest	-11.0581
▁recit	-11.0581
▁tepik	-11.0581
▁giyoray	-11.0581
▁remove	-11.0581
▁bridge	-11.0581
▁perceiv	-11.0581
▁honor	-11.0581
▁dolsi	-11.0581
▁intentionally	-11.0581
gelgel	-11.0581
▁Petoyok	-11.0581
▁north	-11.0581
▁check	-11.0581
▁Hasmin	-11.0582
▁simbog	-11.0582
enter	-11.0582
▁kalalagan	-11.0582
katibao	-11.0582
▁maasiya	-11.0582
▁Tiyarima	-11.0582
▁occ	-11.0582
▁Mibaeba	-11.0582
siyasiya	-11.0582
▁conversation	-11.0582
▁insult	-11.0582
▁matibool	-11.0582
▁rival	-11.0582
ngkapangkap	-11.0582
▁Tetaid	-11.0582
▁twenty	-11.0582
easure	-11.0582
▁Masarakan	-11.0582
▁discovered	-11.0582
▁pandapat	-11.0582
▁altogether	-11.0582
▁detective	-11.0582
▁marries	-11.0582
▁minister	-11.0582
▁daradat	-11.0582
▁gomegenek	-11.0582
▁kapakataeta	-11.0582
▁juice	-11.0582
▁opisina	-11.0582
▁stories	-11.0582
▁swim	-11.0582
akorayan	-11.0582
▁gopoan	-11.0582
▁except	-11.0582
▁postpone	-11.0582
▁lieu	-11.0582
▁riddle	-11.0582
▁Nggaen	-11.0582
madiris	-11.0582
▁patience	-11.0582
▁related	-11.0582
▁Kasoso	-11.0582
▁Sugod	-11.0582
▁variet	-11.0582
▁Romara	-11.0582
▁snarl	-11.0582
▁ponit	-11.0582
▁plaything	-11.0582
▁tanaman	-11.0582
▁paletaw	-11.0582
▁inherit	-11.0582
▁intram	-11.0582
▁Pinggo	-11.0582
▁kipeki	-11.0582
▁blade	-11.0582
▁queen	-11.0582
▁potency	-11.0582
▁pekegabi	-11.0582
▁magorad	-11.0582
dultery	-11.0582
▁minibaeg	-11.0582
bantabantay	-11.0582
▁seedling	-11.0583
▁wrongfully	-11.0583
▁Gomagan	-11.0583
ikagang	-11.0583
▁enjoy	-11.0583
▁garoti	-11.0583
▁rowasan	-11.0583
▁apartment	-11.0583
▁magonot	-11.0583
ableegh	-11.0583
▁governor	-11.0583
▁Pananagotok	-11.0583
▁miyangosiyat	-11.0583
▁companionship	-11.0583
▁rangkayan	-11.0583
▁scold	-11.0583
▁Paegiseg	-11.0583
alimbot	-11.0583
▁ladies	-11.0583
▁entertain	-11.0583
▁proper	-11.0583
▁flesh	-11.0583
▁shelf	-11.0584
▁Pepaemaba	-11.0584
▁paekabaling	-11.0584
▁straw	-11.0584
▁heights	-11.0584
tengab	-11.0584
▁circum	-11.0584
▁pounded	-11.0584
▁Women	-11.0584
▁durable	-11.0584
▁lombay	-11.0584
▁kasosolotani	-11.0584
▁keromai	-11.0584
▁damage	-11.0584
▁President	-11.0584
rambayong	-11.0584
▁pangilay	-11.0584
▁kegabi	-11.0584
iringiring	-11.0584
▁haul	-11.0584
▁viole	-11.0584
▁komowa	-11.0585
▁lightning	-11.0585
▁Inambel	-11.0585
▁tedola	-11.0585
▁kaebela	-11.0585
▁forgiveness	-11.0585
▁Perimb	-11.0585
▁reef	-11.0585
steps	-11.0585
▁drum	-11.0585
▁mawaraw	-11.0585
▁bangkit	-11.0585
▁baston	-11.0585
kakaegisa	-11.0585
▁kadnan	-11.0586
▁commit	-11.0586
▁dimangosiyat	-11.0586
▁pekataban	-11.0586
▁makaonot	-11.0586
ireng	-11.0586
▁prophe	-11.0586
▁Bengkar	-11.0586
▁paitaw	-11.0586
▁swerve	-11.0586
▁mikela	-11.0586
▁noisy	-11.0586
▁mitoman	-11.0586
▁kiyaleka	-11.0586
▁gagaw	-11.0586
pamolong	-11.0587
agibatibat	-11.0587
▁orange	-11.0587
▁Minikoli	-11.0587
▁balloon	-11.0587
▁maniwang	-11.0588
▁gues	-11.0588
hibit	-11.0588
▁button	-11.0588
▁complain	-11.0588
▁beneng	-11.0588
songgod	-11.0588
▁raros	-11.0588
endanen	-11.0588
▁mbaenig	-11.0589
▁magarib	-11.0589
▁lalama	-11.0589
▁antoka	-11.0589
▁maliboteng	-11.0589
ngg	-11.0589
▁pamakineg	-11.0589
▁katagi	-11.0589
paentisan	-11.0589
▁single	-11.0589
▁imprison	-11.0589
▁retreat	-11.0589
▁salinding	-11.0589
nutritio	-11.0589
▁items	-11.059
▁lonel	-11.059
▁awake	-11.059
▁gonsi	-11.0591
▁witch	-11.0591
▁penayaon	-11.0591
▁pekewing	-11.0591
▁riyaot	-11.0591
▁magidaida	-11.0591
▁spur	-11.0592
zzle	-11.0592
ulu	-11.0592
▁glor	-11.0592
▁swelling	-11.0592
kapirma	-11.0592
▁shame	-11.0592
▁inikada	-11.0593
▁miyakapas	-11.0593
▁Karga	-11.0593
▁team	-11.0593
▁makasembayang	-11.0593
▁pintora	-11.0593
▁excuse	-11.0593
▁Gomin	-11.0593
▁Work	-11.0594
▁mercy	-11.0594
▁Today	-11.0594
▁Balili	-11.0594
▁repeat	-11.0594
▁kids	-11.0594
▁Kobis	-11.0595
▁Pirsidinti	-11.0595
▁dancing	-11.0595
▁stimulate	-11.0595
▁planned	-11.0595
▁Makatete	-11.0596
▁bontal	-11.0596
▁Pagadat	-11.0597
▁approaching	-11.0597
▁drawer	-11.0598
▁choose	-11.0598
▁mapayag	-11.0598
▁Roron	-11.0598
▁dinggi	-11.0598
▁miyapotol	-11.0599
▁paegembaal	-11.0599
ility	-11.0599
▁mikae	-11.06
▁obli	-11.06
▁mamakineg	-11.06
▁memoriz	-11.0601
▁randang	-11.0601
igh	-11.0601
nalibeg	-11.0602
▁rule	-11.0602
▁baroba	-11.0602
▁swiftly	-11.0602
▁master	-11.0602
▁feet	-11.0603
sindol	-11.0603
▁iksam	-11.0604
▁Museum	-11.0604
▁smoke	-11.0604
▁bobon	-11.0604
bangkorong	-11.0604
tandasa	-11.0605
▁accede	-11.0605
mon	-11.0605
▁bonor	-11.0605
▁saengkaan	-11.0606
isaew	-11.0606
▁mamamasaan	-11.0606
▁ambush	-11.0606
▁raway	-11.0606
▁duck	-11.0606
▁tetegeben	-11.0607
▁kaemina	-11.0607
▁Tamparan	-11.0608
▁Peloba	-11.0608
ilakilat	-11.0608
paawing	-11.0609
▁Riraa	-11.0609
▁autom	-11.0609
orget	-11.061
▁sympathize	-11.061
▁rotting	-11.061
▁Melon	-11.061
naniyaya	-11.061
▁ayonan	-11.0611
▁ascertain	-11.0611
mamala	-11.0611
▁kampil	-11.0611
▁pepaema	-11.0612
▁tugg	-11.0612
▁Lomala	-11.0612
▁alone	-11.0612
▁Somisira	-11.0612
stimate	-11.0613
▁Doyog	-11.0613
mpuls	-11.0613
▁maistro	-11.0613
▁treated	-11.0614
▁grado	-11.0614
▁Daud	-11.0614
▁mabaeg	-11.0614
▁speed	-11.0614
▁digging	-11.0615
▁Miyapingi	-11.0615
ndado	-11.0616
▁doma	-11.0616
▁antawaa	-11.0616
▁pab	-11.0617
▁tough	-11.0617
▁obstruct	-11.0618
▁expenses	-11.0618
▁romen	-11.0619
▁thorny	-11.062
▁kapakasong	-11.062
▁Paekaba	-11.062
ompiya	-11.0621
kelas	-11.0621
▁ditch	-11.0621
lompiyo	-11.0623
▁Kapipita	-11.0623
▁miyakab	-11.0623
imoket	-11.0623
▁resting	-11.0624
motan	-11.0624
▁mangembaal	-11.0624
ize	-11.0624
▁miyabaya	-11.0624
▁tomini	-11.0625
▁member	-11.0625
▁Inisan	-11.0625
▁Peteb	-11.0626
▁grown	-11.0626
▁chicks	-11.0626
▁speci	-11.0626
▁branches	-11.0626
▁Garani	-11.0627
▁Mimbor	-11.0627
▁busy	-11.0627
limbong	-11.0628
▁Miyakakae	-11.0628
▁inipa	-11.0629
▁banta	-11.0629
▁dull	-11.0629
iminar	-11.063
▁kaporo	-11.063
▁lilay	-11.063
▁Kibe	-11.0631
▁paegi	-11.0631
▁Piyaki	-11.0631
▁fees	-11.0631
▁Pagilay	-11.0631
▁unjust	-11.0631
▁mabetad	-11.0631
▁tior	-11.0632
amilya	-11.0632
laklak	-11.0633
crape	-11.0633
▁salongan	-11.0633
▁trust	-11.0635
▁prepare	-11.0636
bongkos	-11.0636
pagantap	-11.0637
▁opis	-11.0637
▁pakape	-11.0637
▁Inora	-11.0637
erness	-11.0638
ware	-11.0638
spread	-11.0638
▁result	-11.0639
mbolalang	-11.0639
▁Parenga	-11.064
▁Mbaebar	-11.064
▁Peget	-11.064
▁Liko	-11.0641
beg	-11.0641
pansir	-11.0641
▁beke	-11.0642
▁runner	-11.0642
runk	-11.0643
▁Mabibin	-11.0643
▁noose	-11.0643
▁moontod	-11.0643
▁united	-11.0645
agi	-11.0645
▁tube	-11.0646
▁kapaar	-11.0646
▁Tetae	-11.0646
▁makakan	-11.0646
▁neglected	-11.0646
balilis	-11.0648
▁Miyalamp	-11.0648
▁mistake	-11.0648
▁ngena	-11.065
▁pagan	-11.0651
▁Minida	-11.0651
▁kabebaya	-11.0652
▁mapodo	-11.0652
▁Tomiyawa	-11.0653
▁insik	-11.0653
▁sising	-11.0653
▁inisang	-11.0654
▁kedaan	-11.0654
▁Kayang	-11.0654
▁falling	-11.0655
▁agr	-11.0656
▁makada	-11.0657
paesada	-11.0657
▁Tibal	-11.0658
▁mud	-11.0658
tedol	-11.066
▁pior	-11.066
▁dyed	-11.0661
▁pekelas	-11.0662
▁diposito	-11.0662
▁aspir	-11.0662
▁babed	-11.0663
▁Mitaera	-11.0663
▁cheape	-11.0663
owder	-11.0664
▁saitan	-11.0664
▁Pekoy	-11.0666
▁pace	-11.0666
▁Miyabasa	-11.0666
▁completed	-11.0667
eing	-11.0669
▁Pepaegasa	-11.067
▁Pakape	-11.067
▁Pepema	-11.067
▁bobb	-11.067
▁closer	-11.0672
▁discounted	-11.0672
▁classes	-11.0673
omorrow	-11.0674
▁kawasa	-11.0675
▁baoo	-11.0676
pangbaal	-11.0677
ekew	-11.0678
▁past	-11.0679
abelang	-11.068
▁kicking	-11.068
ranggoy	-11.068
▁sendig	-11.0681
▁robbe	-11.0681
mangped	-11.0682
mbitiyarai	-11.0682
image	-11.0683
▁reve	-11.0683
▁habits	-11.0684
istic	-11.0685
▁pato	-11.0685
rompis	-11.0686
kisongow	-11.0687
ash	-11.0688
▁Kaewa	-11.0688
▁smaller	-11.0689
▁followed	-11.0689
▁clay	-11.0689
▁apportion	-11.069
▁Kiyoko	-11.069
▁matanos	-11.0691
ren	-11.0692
▁rekita	-11.0693
▁cursed	-11.0693
▁Perila	-11.0694
▁ascend	-11.0694
▁pakatokaw	-11.0695
rini	-11.0698
▁Biyowa	-11.0699
▁rara	-11.07
▁isaela	-11.0701
▁exam	-11.0701
▁melalakaw	-11.0702
▁Inikay	-11.0703
▁comfortable	-11.0705
bela	-11.0705
▁weight	-11.0706
lotoan	-11.0707
limpang	-11.0707
ntayan	-11.0709
▁Taeli	-11.0711
▁gomo	-11.0712
▁bully	-11.0712
▁Pepaengadi	-11.0712
▁eel	-11.0713
ear	-11.0713
ani	-11.0715
sters	-11.0715
▁dust	-11.0715
▁Panala	-11.0718
▁pepelalagoy	-11.0719
▁perak	-11.072
▁Tago	-11.072
▁ndorang	-11.072
▁beans	-11.0721
▁tokod	-11.0723
▁Pekaeta	-11.0723
lentay	-11.0723
itor	-11.0723
▁limited	-11.0723
roon	-11.0725
▁sendad	-11.0725
ima	-11.0725
▁karom	-11.0725
ngk	-11.0726
▁sowaa	-11.0728
▁thought	-11.0728
limalad	-11.0729
▁sokob	-11.0731
▁Minibowa	-11.0732
iringa	-11.0733
▁pepaene	-11.0733
▁pakiw	-11.0735
▁moran	-11.0736
▁Pepaenoko	-11.0737
lenos	-11.0737
▁Alata	-11.0738
▁Songkad	-11.0738
obey	-11.074
▁karga	-11.0741
▁Bini	-11.0741
odor	-11.0742
▁cheating	-11.0743
any	-11.0744
▁semping	-11.0748
▁decide	-11.0748
▁lem	-11.0748
▁nem	-11.0748
angkolo	-11.0749
▁guys	-11.0749
▁threads	-11.0751
rete	-11.0751
▁Petet	-11.0751
▁paegariya	-11.0753
▁warm	-11.0753
▁samber	-11.0753
kotika	-11.0753
▁Komiy	-11.0754
▁tembowan	-11.0755
▁bolt	-11.0755
▁arrest	-11.0755
▁Tining	-11.0758
▁pleased	-11.0758
▁dec	-11.0758
▁Miyakadan	-11.0758
j	-11.076
olang	-11.076
▁Piko	-11.0761
▁tomiyab	-11.0762
▁coin	-11.0763
▁sareng	-11.0764
▁occup	-11.0765
▁Liyang	-11.0766
▁peges	-11.0766
▁college	-11.0766
▁Kira	-11.0768
▁bindasen	-11.0768
cer	-11.077
enda	-11.077
▁sense	-11.0774
▁Linin	-11.0775
▁tri	-11.0775
▁nggae	-11.0779
▁bus	-11.078
▁nggenek	-11.078
▁Binit	-11.0781
▁Maririn	-11.0782
▁cake	-11.0782
idi	-11.0782
▁Ririk	-11.0785
▁grow	-11.0787
▁Minisag	-11.0788
iate	-11.0791
▁Inanga	-11.0791
agapoyan	-11.0792
▁floats	-11.0793
▁fetch	-11.0796
▁broad	-11.0796
soriman	-11.0798
▁Landap	-11.0799
▁sokoba	-11.08
▁fe	-11.0801
▁sosiyo	-11.0802
ndawa	-11.0802
▁list	-11.0803
▁Mapepe	-11.0806
▁Miyatongka	-11.0806
▁sport	-11.0807
▁Gaga	-11.0808
gagawan	-11.0808
▁Petoto	-11.0809
xplain	-11.081
▁Pagenes	-11.0811
iting	-11.0813
▁Sinira	-11.0813
▁Gre	-11.0814
pideng	-11.0814
▁Toka	-11.0815
tab	-11.0816
▁balas	-11.0817
▁opening	-11.0817
▁kamisita	-11.0818
▁grad	-11.0818
▁impit	-11.0819
esae	-11.082
▁Gamors	-11.082
▁six	-11.082
▁Lebat	-11.0821
▁eag	-11.0822
▁Timpa	-11.0823
alian	-11.0824
▁nu	-11.0825
▁gasi	-11.0826
iyapi	-11.0826
uggest	-11.0831
gatos	-11.0831
▁Linimb	-11.0831
rik	-11.0835
▁decre	-11.0836
▁defend	-11.084
▁goods	-11.0843
▁Miyakad	-11.0843
▁Gepe	-11.0845
bota	-11.0845
bod	-11.0848
▁mean	-11.0848
▁malaga	-11.0849
lift	-11.0849
panaod	-11.0851
rador	-11.0853
▁miniko	-11.0853
▁sul	-11.0855
▁kekan	-11.0856
▁Saemb	-11.0857
▁siyaba	-11.0858
▁waga	-11.0859
▁Miyakekae	-11.0862
▁magege	-11.0862
▁gibo	-11.0863
▁Misae	-11.0863
pool	-11.0864
▁Paeneg	-11.0866
▁Pile	-11.0867
okonan	-11.0872
▁Abat	-11.0875
▁spoke	-11.0875
▁makala	-11.0877
liz	-11.0877
▁Mikae	-11.0878
kolibog	-11.0883
▁pagabdas	-11.0883
▁chairs	-11.0885
▁Ipaego	-11.0889
geped	-11.089
▁loya	-11.0893
▁tayonga	-11.0895
gila	-11.0895
taewap	-11.0897
unity	-11.0905
▁kaeloka	-11.0905
giring	-11.0905
lilimod	-11.0906
▁pagokit	-11.0906
▁beds	-11.091
▁somewh	-11.091
paemakineg	-11.091
karadiyaan	-11.0911
eseb	-11.0912
▁pool	-11.0912
▁dike	-11.0912
▁salom	-11.0913
▁Hand	-11.0921
reserv	-11.0925
esorot	-11.0929
minal	-11.0933
▁ring	-11.0935
sidar	-11.0935
▁Makap	-11.0935
▁Tapi	-11.0937
pagabdas	-11.0937
seka	-11.0939
▁pagogop	-11.0941
▁pait	-11.0943
▁brow	-11.0946
▁Siyalo	-11.095
▁penggasto	-11.095
daya	-11.0954
tongkeg	-11.0954
▁kaesangk	-11.0954
kna	-11.0955
mpel	-11.0956
▁kiki	-11.0957
▁tak	-11.096
articula	-11.0962
▁hol	-11.0963
sanggoy	-11.0964
▁pipis	-11.0966
▁lambita	-11.0969
▁Peked	-11.0969
▁Paegaga	-11.097
rangi	-11.0971
gatas	-11.0972
▁Pepaenga	-11.0974
▁Ipae	-11.0975
▁stor	-11.0975
lekaan	-11.0979
etog	-11.098
▁kapaki	-11.0982
▁kogit	-11.0984
▁talang	-11.0984
▁rais	-11.0986
▁personal	-11.0988
kag	-11.0988
▁totok	-11.099
▁taer	-11.0994
peloloba	-11.0995
race	-11.0995
okot	-11.1013
▁fal	-11.1019
ambet	-11.1022
ends	-11.1022
gil	-11.1023
▁Pil	-11.1024
city	-11.1027
▁throw	-11.1032
▁linog	-11.1032
▁daga	-11.1039
▁Miyasong	-11.1045
allah	-11.1053
▁limba	-11.1053
▁deal	-11.1053
▁Tatala	-11.1057
▁Komo	-11.106
▁maistr	-11.1062
▁discuss	-11.1064
▁Miyapapa	-11.1065
tory	-11.1065
▁ganat	-11.1066
rembotan	-11.1067
onot	-11.1072
ign	-11.1072
ins	-11.1077
▁Miyasa	-11.1077
▁pink	-11.1083
▁Miyakap	-11.1086
▁Beke	-11.1089
vapor	-11.109
tawag	-11.1094
omiyaked	-11.1095
▁kiyanega	-11.1095
▁Solok	-11.1097
▁baor	-11.111
iyapotol	-11.111
laya	-11.1119
timpo	-11.1121
▁Miyaronggo	-11.1121
▁Teng	-11.1128
▁Biy	-11.1128
koyakas	-11.113
▁eaten	-11.1131
erag	-11.1133
▁sontok	-11.1139
pangba	-11.1141
lita	-11.1156
rib	-11.116
ano	-11.1169
arakan	-11.1175
▁kalalakaw	-11.1176
▁Paegad	-11.1176
▁roost	-11.1178
▁Kiyali	-11.118
▁Pepaela	-11.1182
petoon	-11.1188
▁pengginawa	-11.119
emasa	-11.1192
▁ga	-11.1199
▁mbaeka	-11.1202
▁Kiyada	-11.1205
▁Bod	-11.1206
▁belie	-11.1208
▁pelata	-11.1209
▁moon	-11.121
alamat	-11.1213
▁tongki	-11.1213
▁Baraba	-11.1215
ontal	-11.122
egaot	-11.1225
▁Riyo	-11.1228
▁bla	-11.1244
agendeng	-11.1245
ilang	-11.1246
inta	-11.1249
▁Baebe	-11.1251
▁whack	-11.1251
▁mape	-11.126
▁Lomp	-11.126
▁lambi	-11.126
all	-11.1267
▁Miyatar	-11.1267
ligent	-11.127
itibaba	-11.1271
▁Siniya	-11.1272
▁sight	-11.1285
ious	-11.1286
▁policem	-11.1286
kalaan	-11.1288
liliya	-11.1293
edag	-11.1297
▁mont	-11.1297
obagan	-11.1297
▁kadena	-11.1298
▁papa	-11.13
▁Mimbaeta	-11.1306
esel	-11.1306
▁crosse	-11.1307
lower	-11.1307
▁Inipi	-11.131
libon	-11.1312
rapa	-11.1325
▁masad	-11.1325
▁cu	-11.1327
pagidaida	-11.1328
▁peng	-11.1334
▁Pekaesi	-11.1334
▁com	-11.1335
▁Miyageta	-11.1337
lalalim	-11.1337
taros	-11.1338
▁gene	-11.1342
kik	-11.1342
▁Pagr	-11.1343
▁Magi	-11.1346
▁pepeng	-11.1347
▁por	-11.1351
▁relie	-11.1354
ef	-11.1359
▁banog	-11.1361
makan	-11.1365
▁Pimbon	-11.1369
▁ax	-11.1369
anggibo	-11.1371
▁tira	-11.1373
▁Reped	-11.1376
tagan	-11.1379
▁Nggo	-11.1384
▁Pekor	-11.1385
▁Time	-11.1387
▁tang	-11.1389
ntong	-11.1392
erous	-11.1401
▁Pepaengaba	-11.1403
hould	-11.1415
▁fea	-11.1415
▁Mipaer	-11.1418
dolon	-11.1422
sakan	-11.1423
▁state	-11.1424
nget	-11.1425
mitate	-11.1429
▁Whi	-11.143
tanto	-11.1431
▁inc	-11.1431
▁Tiyata	-11.1438
▁leaders	-11.144
noriman	-11.1446
ekena	-11.1448
▁Par	-11.1448
ood	-11.1455
mbayan	-11.1458
▁Sikat	-11.146
lokan	-11.146
idl	-11.1464
petepeng	-11.1466
▁plans	-11.1473
▁salam	-11.1473
rakowag	-11.1479
▁inoto	-11.1481
▁mapen	-11.1482
bolo	-11.1487
▁abs	-11.149
ikod	-11.1493
▁rank	-11.1493
kbir	-11.1495
▁baege	-11.1495
▁mait	-11.1496
iyandi	-11.15
lalolalong	-11.1503
tamok	-11.1504
▁kabayad	-11.1523
abonggoy	-11.1523
▁landing	-11.1523
▁Marege	-11.153
enty	-11.1537
isais	-11.1542
▁inile	-11.1543
pangadi	-11.1549
akaleklek	-11.1557
dish	-11.1558
▁onong	-11.1567
▁Miyabo	-11.1571
▁Inidala	-11.1571
samok	-11.1577
▁fin	-11.1579
ence	-11.1579
▁repa	-11.1581
ned	-11.1584
▁balek	-11.1594
▁tim	-11.1607
▁Pepaemag	-11.1618
▁Petaegan	-11.1619
▁dre	-11.1623
▁Moda	-11.1623
efully	-11.1628
opy	-11.1639
rat	-11.1639
▁girls	-11.1643
ndagang	-11.1644
▁nayaw	-11.1647
▁Has	-11.1649
paegongatongat	-11.165
▁divid	-11.1653
▁Bori	-11.1658
gger	-11.1661
andal	-11.1662
▁Iniki	-11.1663
apos	-11.1664
▁paekata	-11.1664
▁Ranta	-11.1667
abong	-11.1669
▁Komi	-11.1669
ited	-11.167
angkong	-11.1674
▁ears	-11.1679
iyor	-11.1681
▁Te	-11.1682
oked	-11.1683
obos	-11.1684
▁Pembon	-11.1686
has	-11.169
▁repai	-11.1691
abok	-11.1695
nggina	-11.1705
atawan	-11.171
asting	-11.1711
▁Kapapa	-11.1712
▁bathe	-11.1714
erengan	-11.1715
mabalaga	-11.1715
paegonaronar	-11.1716
apipiya	-11.1717
▁bata	-11.1717
hopping	-11.1719
▁Beta	-11.1721
▁iya	-11.1724
▁Pam	-11.1728
kakaden	-11.1728
pangonot	-11.1731
▁los	-11.1739
▁tarapa	-11.1743
dapat	-11.1744
adiya	-11.1749
▁baeba	-11.175
▁Sorawa	-11.1755
iyon	-11.176
▁pesong	-11.1763
ayan	-11.1764
▁Miyaring	-11.1765
angendao	-11.1767
taro	-11.1773
ogopi	-11.1774
nde	-11.1776
▁Pepaenala	-11.1787
eti	-11.1788
▁Pemasak	-11.179
▁Bangan	-11.1796
▁Basal	-11.1797
wad	-11.18
▁Iniya	-11.1801
▁Hang	-11.1805
▁Paeta	-11.181
lito	-11.181
yawa	-11.1816
nowit	-11.1818
▁sap	-11.182
▁Potol	-11.1822
▁Pini	-11.1823
gos	-11.1835
▁miyao	-11.1836
▁cargo	-11.1839
▁yours	-11.1842
▁cooperat	-11.1847
▁poke	-11.1848
onti	-11.186
▁mara	-11.1865
▁tro	-11.1865
makineg	-11.1866
eleng	-11.1867
rinta	-11.1871
▁Inana	-11.1872
empt	-11.1873
▁Miyala	-11.1875
▁Miyadi	-11.1881
ipos	-11.1881
apong	-11.1886
▁Piyan	-11.189
▁Pekaem	-11.1891
▁Bos	-11.1899
mbangkala	-11.1901
▁Piyakap	-11.1903
rent	-11.1907
daida	-11.1909
katen	-11.1912
▁Pelaola	-11.1933
▁karat	-11.1934
▁pangen	-11.1934
opak	-11.1936
bilang	-11.194
los	-11.1946
soy	-11.1947
gated	-11.1949
▁Inikas	-11.1951
▁Miyasar	-11.1958
▁gain	-11.196
▁Inisi	-11.1962
gaan	-11.1965
▁bangka	-11.1967
▁todo	-11.1969
▁boats	-11.1969
▁Mipi	-11.1969
▁Minitala	-11.1972
▁anc	-11.1973
kagaan	-11.1984
▁Labo	-11.1984
gam	-11.1987
apas	-11.1989
▁mbaele	-11.1991
▁ordinan	-11.1997
▁pagee	-11.1998
▁pige	-11.1999
▁ropes	-11.2
▁saba	-11.2006
wear	-11.2006
▁Dalo	-11.2015
▁kamo	-11.2015
▁kilo	-11.2016
▁tambo	-11.2019
▁Mabibia	-11.202
▁kalek	-11.2034
mbang	-11.2036
▁Kiyatan	-11.2037
▁Paegila	-11.2039
▁pin	-11.2044
imbayong	-11.2048
▁kapara	-11.2048
mble	-11.2059
▁dodo	-11.2063
▁Pade	-11.2067
▁bear	-11.2069
iyar	-11.2069
itoon	-11.2077
▁Cou	-11.2077
ency	-11.2078
▁Kaet	-11.208
ngkai	-11.2083
yot	-11.2083
▁urg	-11.2085
esaran	-11.2086
▁bets	-11.2091
▁miyakaila	-11.2091
▁Miyalop	-11.2098
pegilayn	-11.2109
▁bete	-11.2119
▁shot	-11.212
ction	-11.212
sowaan	-11.2123
▁contemplati	-11.2125
onder	-11.2127
ara	-11.213
▁matas	-11.2148
▁visits	-11.2152
atay	-11.2157
hi	-11.2157
orak	-11.2162
kabar	-11.2169
ekar	-11.2171
▁paekat	-11.2173
▁saesak	-11.2175
nners	-11.2176
▁vo	-11.2176
▁kapam	-11.2183
mbagak	-11.2188
▁yar	-11.2189
ekaenengket	-11.2193
▁dada	-11.2195
▁kasasang	-11.2196
▁Tel	-11.2202
ikota	-11.2207
goan	-11.2213
hil	-11.2217
omani	-11.2218
▁compa	-11.2219
iringan	-11.222
▁kato	-11.2221
asoy	-11.2226
gantang	-11.2231
▁Makalala	-11.2232
ool	-11.2238
ekaere	-11.2245
imbaan	-11.2246
por	-11.225
kaw	-11.2254
▁palan	-11.2264
egard	-11.2267
tae	-11.2277
▁Kiyab	-11.2281
angga	-11.2281
ngoy	-11.2285
ork	-11.2286
▁sek	-11.2293
ngaw	-11.2294
olor	-11.2295
▁diyam	-11.2302
rangkom	-11.2311
apeta	-11.2313
tir	-11.2321
▁forb	-11.2325
gampong	-11.2328
▁Siyapa	-11.2328
▁kaeti	-11.2336
▁Inid	-11.2339
▁Tambi	-11.2342
▁bengi	-11.2344
antotanto	-11.2357
▁Kat	-11.2361
arat	-11.2362
ipit	-11.2363
diyata	-11.2365
gogona	-11.2369
ataeda	-11.2389
icul	-11.239
▁penggalebek	-11.2392
▁Ja	-11.2394
itaelagad	-11.2395
▁miyakat	-11.2395
▁map	-11.2399
akasompat	-11.24
▁Malilib	-11.2405
cted	-11.2407
▁Maki	-11.2407
parent	-11.2411
niga	-11.2415
▁tangka	-11.2416
lampe	-11.2425
atiyong	-11.2425
▁Kaeb	-11.2426
aegembaal	-11.2428
isaekob	-11.2429
eba	-11.243
▁Paratiyayaa	-11.2433
saemok	-11.244
▁Kaek	-11.2453
▁ngir	-11.2453
kaer	-11.2456
baan	-11.2456
▁gir	-11.2457
rob	-11.2473
itated	-11.2475
▁Miyakara	-11.2482
bek	-11.2485
▁Onot	-11.249
▁Ipepaenga	-11.2494
lodan	-11.2495
unt	-11.2503
kabaling	-11.2508
bush	-11.251
▁kambang	-11.2518
▁Pet	-11.2519
▁teba	-11.2523
▁bolos	-11.2526
lar	-11.2526
▁piy	-11.2529
▁pamal	-11.2535
▁masamp	-11.2539
sangko	-11.254
▁malo	-11.2544
▁Miyagas	-11.2552
sed	-11.2553
▁paeta	-11.2554
▁koko	-11.2555
▁Siyand	-11.2556
itipas	-11.2557
ath	-11.2569
▁bran	-11.2575
akasosompat	-11.258
oney	-11.2582
▁Inita	-11.2583
▁Piyana	-11.2586
kembot	-11.261
▁prov	-11.2611
amay	-11.2618
ming	-11.2633
▁Iniba	-11.2661
ruly	-11.2675
az	-11.2678
ief	-11.2681
tiger	-11.2683
▁ne	-11.2684
fully	-11.2688
▁hunte	-11.2695
nding	-11.2711
▁Maasa	-11.2712
▁Nggon	-11.2722
▁Pipi	-11.2723
▁pour	-11.2724
ikep	-11.2725
sipat	-11.2727
nitampir	-11.2738
ternati	-11.2739
▁Minik	-11.2747
ekowa	-11.2754
epas	-11.2754
resik	-11.2766
▁Pepaeka	-11.2771
eman	-11.2773
lis	-11.2776
chast	-11.2782
iyong	-11.2785
▁Che	-11.2786
katlo	-11.2788
lalagoy	-11.2794
oli	-11.2809
own	-11.2813
pot	-11.2818
layon	-11.2821
▁Misasa	-11.283
▁kaeso	-11.2839
▁Mikola	-11.284
akes	-11.2851
▁miyap	-11.286
derang	-11.2862
pir	-11.2863
▁har	-11.2868
apasa	-11.2869
edeg	-11.2872
▁Paekari	-11.2875
▁makasa	-11.2878
▁Pamo	-11.2878
▁garo	-11.2878
som	-11.2892
agayon	-11.2894
▁kapepaeng	-11.29
▁tapo	-11.2901
▁Mail	-11.2912
diyong	-11.2914
owel	-11.292
▁niy	-11.2923
iriken	-11.2926
▁Pembae	-11.2929
otos	-11.2935
panotol	-11.294
here	-11.2941
▁Pendo	-11.2948
fiv	-11.2951
▁masab	-11.2953
▁ter	-11.296
mony	-11.2961
▁Paek	-11.2963
arsaek	-11.2968
inner	-11.2969
yapes	-11.2971
arati	-11.2973
mikir	-11.2975
▁pekaede	-11.2985
mine	-11.2986
ondan	-11.3
imbaelay	-11.3003
nok	-11.3004
▁rob	-11.3005
▁Maoop	-11.3006
bling	-11.3012
▁Pakal	-11.3013
▁kat	-11.3019
▁knot	-11.3029
arina	-11.3031
berak	-11.3038
nggaw	-11.3044
banga	-11.3045
asakit	-11.3046
▁Pele	-11.3046
ombali	-11.3048
baeya	-11.3048
▁jo	-11.3067
inirik	-11.307
gango	-11.3072
▁lepi	-11.3077
owang	-11.3079
behavi	-11.3081
▁arog	-11.3088
▁Tang	-11.3093
▁pele	-11.3096
dian	-11.3109
▁toy	-11.3114
▁kambayok	-11.3118
▁Domik	-11.3125
▁grati	-11.3125
▁dashe	-11.3131
▁gaga	-11.3135
▁Makali	-11.3151
sadan	-11.3152
▁mad	-11.3162
ttach	-11.3163
iyaga	-11.3163
▁Piyakao	-11.3164
rd	-11.3171
gani	-11.3171
▁ombo	-11.3172
▁Minipa	-11.3176
▁Inind	-11.3176
balo	-11.3177
kasakiti	-11.3179
ipores	-11.3181
▁Pende	-11.3189
pipiya	-11.3195
entang	-11.3197
▁Tina	-11.3202
gis	-11.3204
▁kamat	-11.3211
kapangaroma	-11.3211
▁kapelo	-11.3212
lling	-11.3216
agan	-11.3219
▁nggom	-11.322
owagatos	-11.322
▁accomp	-11.3227
▁Minipes	-11.3243
▁ipem	-11.3246
layog	-11.3247
▁Matae	-11.3247
ngongo	-11.3248
▁pegalo	-11.3252
▁tila	-11.3255
kasoy	-11.3259
▁Giyo	-11.3259
▁Inol	-11.3265
han	-11.3265
▁Miyaambe	-11.3275
andag	-11.3277
▁taon	-11.3279
um	-11.3291
▁kaebi	-11.3292
iyog	-11.3297
▁des	-11.3298
arrel	-11.3302
▁increas	-11.3305
▁marr	-11.331
▁baling	-11.3321
▁lion	-11.3323
▁miyakal	-11.3324
▁lang	-11.3327
sing	-11.335
ntak	-11.3361
patok	-11.3363
▁mbael	-11.3365
quee	-11.3366
fold	-11.3366
▁Mabeba	-11.3369
▁Rimba	-11.3372
even	-11.3378
langoy	-11.3389
▁bl	-11.3393
ntol	-11.3398
▁Kiyalan	-11.3398
ebaa	-11.3406
urely	-11.3412
▁Kao	-11.3424
▁fer	-11.343
▁mabo	-11.3433
tering	-11.3434
gogod	-11.3434
▁mist	-11.3436
ominowa	-11.3437
▁Mapit	-11.3454
▁inikab	-11.3466
laga	-11.3467
eriyowar	-11.3473
ibra	-11.3477
agingat	-11.3491
verything	-11.3493
kaesalin	-11.3502
▁non	-11.351
▁Komini	-11.3516
▁produc	-11.3518
▁Pesin	-11.3521
ililiya	-11.3524
lalek	-11.3532
tileng	-11.3539
kataros	-11.3547
gisean	-11.3547
uff	-11.3549
▁kangga	-11.3552
tist	-11.3567
risti	-11.3569
▁Miyalang	-11.3573
alen	-11.3573
watan	-11.3576
▁Gan	-11.3577
▁kek	-11.3592
▁Giyom	-11.3592
▁peel	-11.3608
▁Pesael	-11.3612
▁acc	-11.3612
▁sal	-11.362
rt	-11.3622
▁Mitat	-11.3624
rri	-11.3643
▁dila	-11.365
ekebabayaan	-11.3651
mpasa	-11.3651
gansi	-11.3652
▁distin	-11.3653
▁inika	-11.3656
ndiposito	-11.3665
rank	-11.3671
ngkol	-11.3674
olongan	-11.3684
▁Pray	-11.3694
tag	-11.3695
amarinta	-11.3696
▁atar	-11.3702
▁Siyaw	-11.3723
▁conti	-11.3723
enan	-11.3731
ikoya	-11.3744
▁Pembis	-11.3749
▁kaera	-11.3759
ninimo	-11.3767
nggan	-11.3772
▁Ndi	-11.3772
▁paenan	-11.3774
▁Inali	-11.3777
rasiya	-11.3781
gasa	-11.3783
▁Linil	-11.3787
wood	-11.3794
▁diitero	-11.38
▁Mipo	-11.3808
▁pangi	-11.3831
▁trample	-11.3833
▁kada	-11.3846
kandowa	-11.3852
▁Inili	-11.3862
mbing	-11.3864
iyalengan	-11.3865
▁Toma	-11.387
ingen	-11.3871
ngle	-11.3873
▁kapangab	-11.3886
▁kate	-11.3888
eading	-11.3889
bowat	-11.3897
angilaylay	-11.39
▁Tiyar	-11.3908
agar	-11.3909
lad	-11.3915
ana	-11.3915
▁Abr	-11.3921
▁kababaya	-11.3927
▁Inos	-11.3933
▁Pengga	-11.3937
▁taeta	-11.3963
▁faci	-11.3964
katepad	-11.3991
▁despise	-11.3992
tiyonga	-11.4009
urried	-11.4012
mbit	-11.4019
tra	-11.4024
sba	-11.4028
rarangiti	-11.403
▁lack	-11.4041
rampar	-11.4044
▁Taewa	-11.4046
mili	-11.4046
▁ak	-11.4053
abed	-11.4057
▁Kom	-11.4065
▁Pepela	-11.4065
dil	-11.4069
ngarang	-11.4076
▁dig	-11.4107
▁solo	-11.4108
▁kapame	-11.4111
▁Pepen	-11.4112
▁Pekaes	-11.4113
▁malagi	-11.4137
▁Kaes	-11.4138
▁pakipe	-11.4143
ian	-11.4155
allow	-11.4164
love	-11.4167
▁kandat	-11.4186
▁Miyalow	-11.4193
awidi	-11.42
▁advise	-11.4201
nggasto	-11.421
▁Petero	-11.4216
anggob	-11.4232
▁hat	-11.4234
riat	-11.4236
irik	-11.4239
med	-11.4244
▁Miyalo	-11.4244
wing	-11.4244
▁Miyatola	-11.4244
abi	-11.4254
▁lita	-11.4263
▁main	-11.427
mpaw	-11.4274
penggasto	-11.4276
sorot	-11.4279
intra	-11.4288
nampo	-11.4296
elogat	-11.4306
▁deri	-11.4312
aving	-11.432
ats	-11.4322
peng	-11.4331
rsik	-11.4343
▁Diyon	-11.4346
atas	-11.4357
wallow	-11.4358
▁kasi	-11.4367
ontol	-11.4369
▁pai	-11.4372
oes	-11.4373
gs	-11.4385
pangalintao	-11.4387
ekaebaebaya	-11.4396
▁floo	-11.4407
yang	-11.4408
antal	-11.4418
ndada	-11.4418
ambed	-11.4434
kasan	-11.444
ondaw	-11.4455
▁minipa	-11.4457
kota	-11.4457
▁Sin	-11.4461
▁tit	-11.4462
stor	-11.4464
▁karang	-11.4471
elayog	-11.4473
ador	-11.4489
sambi	-11.4495
kati	-11.4497
akali	-11.4499
▁Pembaero	-11.4504
dge	-11.4512
▁ever	-11.4518
▁Miyakamb	-11.4519
moon	-11.4521
sinlaw	-11.4522
▁kapeto	-11.4527
▁fir	-11.4531
soli	-11.4534
nimo	-11.4537
apes	-11.4543
nel	-11.4544
▁pirat	-11.4544
▁misc	-11.4549
nen	-11.4552
▁Miga	-11.4554
▁masa	-11.4557
closed	-11.4569
enggen	-11.4575
pap	-11.4577
▁minip	-11.459
ecau	-11.4591
ardwood	-11.4592
▁count	-11.4599
▁Ac	-11.46
mping	-11.4611
▁sagiya	-11.4616
▁balaba	-11.462
▁Inab	-11.462
aontongan	-11.4621
timo	-11.4628
▁Pepi	-11.4632
▁ot	-11.4637
hink	-11.4647
▁tard	-11.4651
▁Inikae	-11.4662
kitan	-11.4675
▁Gin	-11.4679
▁Lala	-11.4682
gokit	-11.4691
pong	-11.4691
wasa	-11.4696
▁Miyalep	-11.4706
ailangan	-11.4712
ils	-11.4713
magatos	-11.4721
loloba	-11.4725
▁Tatab	-11.4731
peka	-11.4732
loy	-11.4741
lip	-11.4753
towa	-11.4757
▁min	-11.4759
magodas	-11.4765
▁Engl	-11.4786
▁kors	-11.4787
▁Kake	-11.479
▁Pir	-11.4791
wala	-11.4793
once	-11.4804
▁makan	-11.4805
▁kata	-11.4807
ampang	-11.4809
▁kapepae	-11.4811
▁bagiy	-11.4822
yt	-11.4827
sampay	-11.4833
▁siyog	-11.4856
ndar	-11.4864
ombong	-11.4866
▁Po	-11.4872
▁sour	-11.4884
▁Inir	-11.4885
anggam	-11.4886
owaa	-11.4888
come	-11.4892
▁Lin	-11.49
sebo	-11.491
▁despis	-11.4917
▁simba	-11.4918
oronga	-11.4932
▁kapelalaka	-11.4937
▁Magamp	-11.4944
▁Id	-11.4956
mbowa	-11.496
ndagan	-11.4967
enga	-11.4969
▁Naya	-11.4972
▁kaet	-11.4972
▁Miyagep	-11.4977
akadorat	-11.4986
▁bum	-11.4996
ebang	-11.4996
mbak	-11.4997
akawit	-11.5027
akakodi	-11.5027
▁miyat	-11.503
▁Win	-11.5043
ily	-11.5046
vorce	-11.5048
alikod	-11.505
saan	-11.5054
crowded	-11.5054
▁Leka	-11.5059
▁lagi	-11.5067
irag	-11.5069
randiya	-11.5077
▁sle	-11.5091
arenggay	-11.5101
wal	-11.5102
▁Miyapik	-11.511
▁kita	-11.5117
▁Inile	-11.5117
kaempet	-11.5124
▁showe	-11.513
mada	-11.5134
▁advis	-11.5138
inanad	-11.5148
▁Kana	-11.515
ail	-11.5156
bibiti	-11.5156
▁Kiyat	-11.5161
▁Pepel	-11.5168
ute	-11.5173
▁Minit	-11.5182
▁Miyakasi	-11.5182
mbali	-11.5185
alingo	-11.5192
▁goma	-11.5194
▁Pagato	-11.5196
osiyat	-11.5206
▁pagosar	-11.5212
totok	-11.5215
▁Pekaeli	-11.5226
▁Pekil	-11.523
uilt	-11.5235
nganop	-11.5242
saed	-11.5246
osor	-11.5249
okae	-11.5257
▁Mip	-11.5265
tract	-11.5276
rani	-11.528
oy	-11.5284
ngiran	-11.5285
iped	-11.529
ngkala	-11.5291
endo	-11.5295
songkor	-11.5298
nggob	-11.53
babayai	-11.5314
agenseksek	-11.5316
▁Rem	-11.5317
atakn	-11.532
tious	-11.5324
asong	-11.5326
▁dist	-11.5327
lingo	-11.5331
▁Mapa	-11.5333
▁Lab	-11.5333
der	-11.5336
tito	-11.5339
tid	-11.5342
antak	-11.5349
▁Mos	-11.5351
ttle	-11.5367
lempe	-11.5368
bot	-11.5372
kodep	-11.5382
dai	-11.5387
▁Som	-11.54
▁Inda	-11.5406
▁Pekael	-11.5411
ending	-11.5413
most	-11.5414
embar	-11.5426
▁num	-11.5428
ikan	-11.5431
asbas	-11.5434
▁Tiyag	-11.5435
▁Inira	-11.5438
▁Inipat	-11.547
yap	-11.5479
taeg	-11.5489
▁En	-11.5493
▁Kila	-11.5494
doi	-11.5497
▁totong	-11.5498
▁Lil	-11.5509
▁baong	-11.5512
ampay	-11.5515
▁peki	-11.5529
omba	-11.5535
▁crie	-11.5536
saebot	-11.5544
ipas	-11.5546
kasong	-11.5551
▁sup	-11.5552
▁cons	-11.5552
▁Perin	-11.5564
▁plann	-11.5564
ndaon	-11.5567
▁trampl	-11.5572
ilis	-11.5593
ongi	-11.5606
▁Pala	-11.5611
ndora	-11.5614
▁sna	-11.5616
paya	-11.5617
bisa	-11.5627
▁mu	-11.563
▁Mapi	-11.563
▁kapel	-11.5645
kekae	-11.5655
gue	-11.5657
akar	-11.5662
▁kom	-11.5665
pedi	-11.5666
▁pekit	-11.5673
thing	-11.5676
evil	-11.5677
▁pres	-11.5685
taeid	-11.5687
nsult	-11.5711
ngginawai	-11.5712
edot	-11.5716
▁Miyaban	-11.5722
ampi	-11.5727
dalad	-11.5741
yam	-11.5757
▁Ye	-11.576
▁kowaa	-11.5761
atileng	-11.5761
▁squ	-11.577
▁Tomi	-11.5773
aints	-11.5775
▁kati	-11.5776
▁Pesaela	-11.5779
ambel	-11.5781
boo	-11.5786
▁Paegaw	-11.5789
opping	-11.5798
▁Pekek	-11.5804
▁Light	-11.5804
pita	-11.581
eeze	-11.5813
▁praise	-11.5814
debak	-11.5819
aninimo	-11.5833
arried	-11.5845
labag	-11.5848
▁taey	-11.5855
kasogok	-11.586
geneb	-11.5862
nner	-11.5866
ida	-11.5872
▁Miyara	-11.5877
▁Kiyak	-11.588
lat	-11.5888
ndiyong	-11.59
▁lives	-11.5901
ric	-11.5906
reti	-11.591
tali	-11.592
baden	-11.5925
▁madal	-11.5934
▁Pise	-11.5937
rary	-11.5939
▁kaesa	-11.594
▁Nd	-11.5941
keren	-11.5942
▁magay	-11.5945
▁bor	-11.5946
roni	-11.5949
ngosiyat	-11.596
mbayoka	-11.5961
otol	-11.5969
▁preach	-11.5971
▁persons	-11.5974
▁sag	-11.5976
▁ngi	-11.5979
awang	-11.598
toman	-11.5981
apar	-11.5986
▁koti	-11.5988
langat	-11.6008
▁seb	-11.6019
▁Miniyo	-11.6021
itero	-11.6024
lamba	-11.6037
adal	-11.6043
▁Pangil	-11.6064
▁Mapasa	-11.6068
alip	-11.6072
tana	-11.6073
urned	-11.6074
rapar	-11.6076
iyapa	-11.6077
▁Malin	-11.6077
ster	-11.6083
▁Mipe	-11.6084
▁Ininda	-11.6087
▁Mani	-11.6088
▁Sun	-11.611
▁Marin	-11.6116
layan	-11.6122
mbaelay	-11.6133
▁paekase	-11.6133
▁Piyano	-11.6135
▁Kali	-11.6138
ambayang	-11.6139
▁Land	-11.6147
lant	-11.6161
angeni	-11.6175
garig	-11.6187
arden	-11.6188
pati	-11.6192
akoy	-11.6196
▁Madak	-11.6197
takota	-11.6208
▁leb	-11.6209
kalowag	-11.6216
▁Peri	-11.6225
ighted	-11.6236
▁dove	-11.6238
anekaew	-11.6246
akap	-11.6251
▁pepen	-11.626
ress	-11.6266
geng	-11.6268
kambaloy	-11.6278
aeloba	-11.628
▁Pekok	-11.6309
omor	-11.6314
keneg	-11.6321
oga	-11.6325
▁Pembaer	-11.633
▁kiyata	-11.6333
iday	-11.6337
ebesa	-11.6347
apepen	-11.6348
arinaw	-11.6355
▁cha	-11.6359
atot	-11.6364
barat	-11.6375
▁mira	-11.638
▁Mimb	-11.6388
ropi	-11.639
arsae	-11.6394
anta	-11.6405
▁Taer	-11.6406
▁Marim	-11.6409
inged	-11.6414
▁Miyasi	-11.6424
▁Heav	-11.6428
▁Miyakaso	-11.6431
idasan	-11.6442
insane	-11.6442
▁pabo	-11.6443
▁pani	-11.6445
goay	-11.6452
ao	-11.6459
▁kabe	-11.6459
ekae	-11.647
▁Miyaben	-11.6481
talang	-11.6481
▁totod	-11.6503
▁Day	-11.6505
kod	-11.6508
▁soci	-11.6513
akakaempet	-11.6515
lambit	-11.6518
▁prec	-11.6523
▁tru	-11.6546
ars	-11.6564
iti	-11.657
▁sink	-11.657
enaba	-11.6573
layag	-11.658
▁Mitata	-11.6584
agodas	-11.6588
popo	-11.6596
▁Saere	-11.6607
▁Onto	-11.6609
▁Miyakal	-11.6613
inggir	-11.6614
tow	-11.6616
bowan	-11.6616
▁Pekita	-11.6619
apaka	-11.6623
▁lea	-11.6633
garing	-11.6638
af	-11.6639
hy	-11.6646
nate	-11.6646
latan	-11.6649
noti	-11.6655
eporon	-11.6657
ampat	-11.6657
mbalow	-11.6678
look	-11.6681
engingis	-11.6681
▁Mel	-11.6683
datan	-11.6687
▁Kaebe	-11.669
▁Kowaa	-11.6694
▁Miyakala	-11.6698
alipa	-11.6703
aito	-11.6707
▁lin	-11.6716
ntola	-11.6721
▁Con	-11.673
▁kiyal	-11.6732
ided	-11.6755
▁Mbaeba	-11.6764
▁Tiyong	-11.6766
▁Kiyai	-11.677
dimat	-11.6772
▁suc	-11.6772
▁exc	-11.6776
takes	-11.6776
▁Giy	-11.6789
▁Wi	-11.6791
▁miyal	-11.6807
arangan	-11.6813
▁ipeke	-11.6814
▁maog	-11.6814
inawa	-11.6825
sae	-11.6828
agampo	-11.684
▁piso	-11.6847
analonod	-11.6876
▁miyar	-11.6879
angadian	-11.6883
▁Beg	-11.6885
lian	-11.6895
▁Ram	-11.6896
ngaroma	-11.6905
pamasa	-11.6923
▁Makat	-11.6924
eta	-11.6924
▁Ar	-11.6933
▁irritat	-11.6938
saekob	-11.6946
raw	-11.6949
ack	-11.695
▁Sage	-11.6955
▁date	-11.6962
▁fac	-11.6965
ayaan	-11.6966
owed	-11.6981
taelagad	-11.6989
kikik	-11.6994
▁gata	-11.6994
sonsang	-11.6995
▁masemb	-11.6998
nggalebeken	-11.6999
tindeg	-11.7
dy	-11.7001
piten	-11.7006
say	-11.7022
alakaw	-11.7022
nkle	-11.7031
ational	-11.7046
▁unt	-11.7052
▁Mak	-11.7066
ntar	-11.7068
engaroma	-11.707
rangen	-11.707
▁paepa	-11.7071
▁Miyakaok	-11.7078
▁oni	-11.7092
▁Pendi	-11.7095
▁Ined	-11.7104
mala	-11.7105
▁Miyakata	-11.7108
▁mise	-11.7125
handed	-11.7129
custom	-11.7136
▁dale	-11.714
iyoso	-11.7149
▁kapaman	-11.7149
▁Miyakada	-11.7154
▁leng	-11.7161
joint	-11.7163
rder	-11.7173
▁Piyakaso	-11.7179
▁Tag	-11.7188
obi	-11.7194
▁gomi	-11.7206
ripen	-11.7207
▁Inag	-11.721
ayang	-11.7216
idaan	-11.7224
▁Gari	-11.7225
icult	-11.7257
spir	-11.7265
kob	-11.7267
▁kalab	-11.7268
kaeb	-11.7272
▁Balo	-11.7277
▁Sang	-11.7289
▁kamb	-11.729
sar	-11.7291
▁cl	-11.7307
ich	-11.7311
▁Paem	-11.7312
▁ditero	-11.7322
boriyawa	-11.7328
▁barre	-11.7334
▁practic	-11.7337
▁pepene	-11.7339
▁Pagk	-11.7341
agang	-11.735
▁mass	-11.7371
ndan	-11.738
▁acqu	-11.7388
esa	-11.7413
diyon	-11.7423
ngkira	-11.7439
owad	-11.7444
tern	-11.7451
▁Siyap	-11.7461
yed	-11.7468
lamit	-11.7474
▁Pengg	-11.7481
pemikir	-11.7482
yad	-11.749
taan	-11.7494
verse	-11.7497
▁kiyao	-11.7503
igra	-11.7505
▁tom	-11.7507
pel	-11.7509
▁Tamp	-11.7533
▁stopp	-11.7536
▁pete	-11.7543
▁kapepaeka	-11.7548
kab	-11.7554
▁spen	-11.7567
yaneg	-11.757
▁Sik	-11.758
▁mase	-11.7584
▁Miyao	-11.762
hop	-11.7624
peket	-11.7627
▁Ever	-11.7632
nggen	-11.7637
ntok	-11.7658
ekaoma	-11.7661
▁pekaed	-11.767
▁mimb	-11.767
gu	-11.7676
empang	-11.7683
ual	-11.7699
▁sew	-11.7705
mpis	-11.7706
akaten	-11.7714
libed	-11.7715
erti	-11.772
bitiyara	-11.7727
▁Paen	-11.7727
sidi	-11.7729
signs	-11.7731
▁bow	-11.7732
itonda	-11.7736
goray	-11.774
▁Pagemba	-11.7744
▁urge	-11.7749
ulated	-11.7777
tembang	-11.7779
akad	-11.7785
atao	-11.7798
gawa	-11.78
▁Kha	-11.78
▁sla	-11.7815
ngki	-11.7825
iyasong	-11.783
ision	-11.7835
rinti	-11.7845
▁bintan	-11.785
iliyo	-11.785
eater	-11.7852
esik	-11.787
saela	-11.7889
pani	-11.7898
omit	-11.7911
laka	-11.7914
▁Kiyatar	-11.793
langkeb	-11.7934
ongko	-11.7946
▁Miyakapi	-11.7964
ja	-11.7972
rangan	-11.798
nser	-11.7982
▁alam	-11.7988
asam	-11.7991
aero	-11.8001
abaebaw	-11.8021
▁sow	-11.8021
▁Pango	-11.8026
lice	-11.8026
▁Sorat	-11.8035
▁wis	-11.8076
eared	-11.8083
▁Minig	-11.8087
▁Isn	-11.8088
▁Magen	-11.8096
▁comp	-11.8106
▁siy	-11.8107
▁Piri	-11.8114
gadi	-11.8114
amat	-11.8116
rangko	-11.8118
▁Ker	-11.8131
gonaronar	-11.8131
▁Ne	-11.8145
▁tampa	-11.8166
ntod	-11.8167
▁Pakata	-11.817
ndato	-11.8177
gopi	-11.8179
amp	-11.818
▁Apa	-11.818
lal	-11.8182
pelek	-11.8185
apet	-11.8192
embog	-11.8195
roo	-11.8199
▁event	-11.82
inilay	-11.8203
etaed	-11.8207
▁sebo	-11.8215
▁tan	-11.8221
tiyag	-11.8224
olili	-11.8238
gayon	-11.8243
paekada	-11.8247
rum	-11.8247
▁rangka	-11.8251
▁Pekit	-11.8252
▁aot	-11.8257
▁St	-11.8258
lowing	-11.8258
gongatongat	-11.8259
▁Somi	-11.8263
teri	-11.8269
rasag	-11.8272
▁laki	-11.8276
ntir	-11.8288
▁dawa	-11.8309
▁forc	-11.8319
▁Miyaga	-11.8326
net	-11.8327
▁Ip	-11.8332
▁taela	-11.8333
aeli	-11.8337
abala	-11.8339
orm	-11.8342
▁ipemb	-11.8344
ngas	-11.8346
yaon	-11.8348
eger	-11.8348
semb	-11.8353
atitimo	-11.8363
angor	-11.8367
▁activ	-11.837
pengi	-11.8376
▁Diyo	-11.8391
ali	-11.8398
▁Saesa	-11.8419
▁miyama	-11.8425
wid	-11.8426
▁chip	-11.8433
inted	-11.8433
▁pepaeg	-11.8437
akabalaga	-11.8438
etengen	-11.8442
loba	-11.8444
siyar	-11.8447
diyar	-11.846
▁panic	-11.8461
alobay	-11.8468
▁resid	-11.8473
▁Bro	-11.8475
ayaon	-11.8478
eli	-11.8481
ipes	-11.8487
orog	-11.8492
pri	-11.8498
urn	-11.8498
▁Pepaer	-11.8498
▁mbaeba	-11.8513
▁Inaw	-11.853
▁cy	-11.8532
elalolalong	-11.8535
▁kiyaram	-11.856
▁kaba	-11.8564
olod	-11.8569
▁makapam	-11.858
antar	-11.8592
▁Belo	-11.8599
itate	-11.8599
up	-11.8618
▁sell	-11.8628
emaan	-11.8629
▁lolon	-11.8634
rust	-11.8639
ndarpa	-11.8668
▁spro	-11.8678
▁miyakata	-11.8682
▁bel	-11.8685
tant	-11.8687
ete	-11.8692
tigate	-11.8693
▁Bay	-11.8699
▁kaea	-11.8715
sphe	-11.8715
▁inikasa	-11.8725
ipenda	-11.8739
irits	-11.8739
▁honest	-11.8759
▁qu	-11.876
lama	-11.8765
sii	-11.8779
pris	-11.8779
tinati	-11.8784
him	-11.8788
▁custo	-11.8791
mbega	-11.8795
kitinda	-11.88
▁kaew	-11.8801
▁gru	-11.8802
▁miyab	-11.8811
▁paeng	-11.8821
▁flo	-11.8838
▁considerat	-11.8841
elieve	-11.8857
▁Matete	-11.8861
▁miyog	-11.8879
▁Tito	-11.8893
rcel	-11.891
▁pila	-11.8916
alambos	-11.8921
▁ipet	-11.8923
▁tome	-11.8928
bangkala	-11.8929
mbonget	-11.8939
bori	-11.8946
▁Kaele	-11.8968
▁ika	-11.8991
▁kem	-11.8999
ilai	-11.9
antawa	-11.9003
aros	-11.901
▁tomo	-11.9017
▁kiyamba	-11.9023
▁bas	-11.9026
iyal	-11.9029
gel	-11.9034
child	-11.9043
soled	-11.9053
▁rapa	-11.9058
awagi	-11.906
llow	-11.906
▁Malili	-11.9065
imbaeb	-11.907
▁Sansa	-11.9071
▁Tomiy	-11.9074
tive	-11.9077
ganda	-11.9082
kekem	-11.9082
▁ayata	-11.9097
vise	-11.9103
egeb	-11.9104
ekaew	-11.9107
▁paratiyayaa	-11.9118
▁doer	-11.9139
▁pipik	-11.9141
ataros	-11.9142
peso	-11.915
lili	-11.9153
ibaran	-11.916
▁Ling	-11.9168
▁sha	-11.9181
mai	-11.9187
key	-11.9189
met	-11.9202
oda	-11.9202
▁antaa	-11.9211
tted	-11.9216
▁maila	-11.922
ibon	-11.9228
mbet	-11.9234
erate	-11.9235
▁Inalo	-11.9252
ssion	-11.9258
▁miyakatae	-11.9259
rorad	-11.9291
tao	-11.9296
aadata	-11.9298
▁Baeb	-11.9308
▁kasae	-11.9309
ngans	-11.9318
▁Kiyaw	-11.9322
ssing	-11.9334
libog	-11.9336
salam	-11.9344
▁onota	-11.9346
▁totorog	-11.9348
tano	-11.9348
eroon	-11.935
ronggon	-11.935
aso	-11.9352
iyari	-11.9353
agad	-11.9372
giskwila	-11.9374
endag	-11.9383
▁Miyakape	-11.9392
▁kiyanegan	-11.9395
abasa	-11.9409
▁ret	-11.9411
ender	-11.9427
▁memor	-11.9438
nge	-11.9444
dara	-11.9454
going	-11.9461
pread	-11.9475
rerembo	-11.9475
▁sini	-11.9484
agop	-11.9487
mikira	-11.9488
begi	-11.949
▁Bor	-11.9504
ength	-11.9515
rombong	-11.9516
▁Paegal	-11.9518
▁pause	-11.9519
sokat	-11.9527
▁pul	-11.953
ontok	-11.9531
▁ben	-11.9536
▁Pesa	-11.9539
beng	-11.9551
adong	-11.9552
natch	-11.9555
▁pur	-11.956
miram	-11.9561
iyat	-11.9562
▁ir	-11.9564
▁Meri	-11.9576
▁ord	-11.9582
ngkas	-11.9588
▁abilit	-11.959
onasa	-11.9594
▁poron	-11.9598
abap	-11.9624
sam	-11.9649
▁sisi	-11.9652
amin	-11.9654
pata	-11.9656
▁Bara	-11.9659
aud	-11.9665
bakan	-11.9671
▁makapama	-11.9672
▁Pepe	-11.9688
▁Paekaa	-11.9689
apido	-11.9691
▁kapepa	-11.9713
ragir	-11.973
ipal	-11.9732
oba	-11.9752
ileba	-11.9761
▁Pemb	-11.9766
▁Or	-11.9772
vel	-11.9772
▁Pera	-11.9776
ngkeg	-11.9791
▁Miyagepe	-11.9792
▁Kapaka	-11.9797
ntri	-11.9802
waka	-11.9805
rovide	-11.981
▁matae	-11.9812
erang	-11.9814
place	-11.9817
akata	-11.9821
akowag	-11.9824
ompany	-11.9828
▁rela	-11.9836
▁tramp	-11.9838
▁Lat	-11.9839
▁Pangeni	-11.9842
agembaal	-11.9843
▁Peng	-11.9843
well	-11.9845
▁Pit	-11.9846
owing	-11.9856
itan	-11.9857
▁equip	-11.9877
beri	-11.9877
▁Piti	-11.9878
kontor	-11.9883
▁baeb	-11.9909
▁kolili	-11.9913
tib	-11.9915
▁ipeka	-11.9916
pangaroma	-11.9916
gibo	-11.9919
ekit	-11.9921
atagan	-11.9921
rce	-11.9928
▁Peter	-11.9929
ndowa	-11.9932
ministration	-11.9934
▁Tong	-11.9934
▁songko	-11.9935
emok	-11.9937
father	-11.9939
▁Inig	-11.9943
chief	-11.9959
alilimod	-11.996
kala	-11.9961
▁kaga	-11.9964
ndeg	-11.9965
▁pimb	-11.9969
friend	-11.9971
▁Bis	-11.9972
gka	-11.9982
kekeb	-11.9989
under	-12.0007
ngowa	-12.0007
amite	-12.0007
▁prote	-12.0009
orating	-12.0012
erot	-12.0019
rows	-12.002
llah	-12.0022
bagan	-12.0023
▁kapepaek	-12.0026
bogado	-12.0027
yok	-12.0029
▁typ	-12.003
trip	-12.0033
▁Totor	-12.0036
isae	-12.0046
▁mapa	-12.005
tage	-12.0056
▁Initae	-12.0059
kedot	-12.0059
porong	-12.006
▁kepi	-12.007
ginawai	-12.0081
parents	-12.0085
ospital	-12.0092
bu	-12.0092
bangk	-12.0093
piece	-12.0097
▁kambela	-12.0098
fruit	-12.0099
▁Inole	-12.0099
olay	-12.0102
▁irri	-12.0104
rab	-12.0108
corn	-12.011
fire	-12.0112
▁contra	-12.0118
etaek	-12.0121
▁plat	-12.0122
college	-12.0122
▁Miyakil	-12.0122
mamasaan	-12.0123
fortun	-12.0125
occup	-12.0126
nogo	-12.0134
gabon	-12.0135
gepa	-12.0138
eleg	-12.0138
▁gu	-12.0139
bindasen	-12.0142
ntai	-12.0145
shot	-12.0147
tembowan	-12.0152
paegariya	-12.0157
looking	-12.016
▁Mit	-12.0166
bage	-12.0167
▁kapepe	-12.0168
complete	-12.017
esed	-12.017
opa	-12.0171
form	-12.0175
happy	-12.0175
pproach	-12.0176
raise	-12.0179
ound	-12.0185
paekarag	-12.0186
gidaida	-12.0186
▁tek	-12.0188
mark	-12.0191
irak	-12.0191
▁Pagii	-12.0195
▁mista	-12.0197
yasa	-12.0198
board	-12.02
brain	-12.0204
emakineg	-12.0206
bject	-12.0211
cross	-12.0215
temowan	-12.0215
known	-12.0216
▁somare	-12.0218
semping	-12.0219
epelalagoy	-12.022
six	-12.0225
▁Maranta	-12.0226
▁Miyail	-12.0231
ipe	-12.0233
oyagoyag	-12.0234
covered	-12.0237
eturn	-12.0237
▁ira	-12.0237
▁miyad	-12.0238
▁pesi	-12.024
warm	-12.0241
ometime	-12.0241
▁tind	-12.0243
prin	-12.0245
iyaan	-12.0247
ambog	-12.0253
kapipita	-12.0254
erv	-12.0256
▁Ipaeg	-12.0257
rub	-12.0258
ume	-12.0262
galingan	-12.0263
▁Piyakat	-12.0265
▁kapama	-12.0266
laod	-12.0269
comfortable	-12.0278
▁pelala	-12.0278
owl	-12.0278
magaw	-12.0281
▁maninind	-12.0282
manok	-12.0282
▁alg	-12.0284
unted	-12.0286
tery	-12.0291
conc	-12.0292
asen	-12.0294
pick	-12.0295
consumed	-12.0297
nations	-12.03
peko	-12.0303
sosiyo	-12.0312
▁Sae	-12.0313
elolot	-12.0314
▁makao	-12.0314
agat	-12.0316
▁pagogo	-12.032
election	-12.0321
masaan	-12.0321
nship	-12.0329
kaeneg	-12.033
scend	-12.0331
arga	-12.0332
large	-12.0335
rough	-12.0335
isenga	-12.0339
arab	-12.0339
sipil	-12.0339
alinan	-12.0341
empas	-12.0344
nggolaolaa	-12.0345
▁Miyakare	-12.035
gree	-12.0351
▁kakep	-12.0364
line	-12.0366
ging	-12.0367
drop	-12.0371
▁drag	-12.0372
rag	-12.0373
▁kagagaw	-12.0377
bisay	-12.0381
koko	-12.0382
▁diimba	-12.0383
▁Poto	-12.039
▁Pekaeb	-12.039
▁Scr	-12.0391
understand	-12.0397
▁miyalep	-12.0397
alaboso	-12.0405
actory	-12.0408
gobirno	-12.0412
kaban	-12.0416
yagoyag	-12.0416
patient	-12.0417
▁cas	-12.0418
egro	-12.0419
ved	-12.042
continue	-12.0422
gilai	-12.0424
bid	-12.0424
repa	-12.0426
imanto	-12.0426
▁rememb	-12.0427
tru	-12.0431
pekarag	-12.0432
gola	-12.0434
▁Kiyam	-12.044
prove	-12.0444
▁paekal	-12.0444
▁kera	-12.0446
mbos	-12.0447
more	-12.045
▁aro	-12.0451
paratiyayaa	-12.0451
▁talent	-12.0451
paparatiya	-12.0451
▁chick	-12.0453
lentak	-12.0455
emia	-12.0458
belang	-12.0459
miyakap	-12.0459
▁keke	-12.046
▁Tiyambo	-12.046
sosorat	-12.046
mode	-12.0461
▁mawa	-12.0462
baa	-12.0463
pagogopa	-12.0464
warto	-12.0465
▁partic	-12.0469
imapolo	-12.0473
ngalab	-12.0474
▁Kapipit	-12.0475
tadiy	-12.0476
alk	-12.0477
ikidi	-12.0479
cour	-12.0481
rorok	-12.0482
makapet	-12.0486
cation	-12.0487
course	-12.0487
bstruct	-12.0488
lage	-12.0488
▁def	-12.0488
▁expense	-12.049
arimaa	-12.049
▁vegetable	-12.0497
▁stalk	-12.0499
ub	-12.0502
maganta	-12.0507
▁sympath	-12.0508
▁sibling	-12.0509
▁finger	-12.051
ongo	-12.0511
year	-12.0513
▁invo	-12.0514
wagen	-12.0517
▁pamomol	-12.052
iyakapi	-12.0521
▁happ	-12.0522
▁disarra	-12.0527
que	-12.0529
begel	-12.0529
▁Somisi	-12.053
▁polic	-12.0531
▁addi	-12.0536
▁pesim	-12.054
▁Tampar	-12.0541
nigan	-12.0544
▁wrestl	-12.0544
▁sino	-12.0544
▁galinga	-12.0545
▁choos	-12.0545
ympathize	-12.0546
▁mosqu	-12.0547
timulate	-12.0548
embola	-12.0548
cle	-12.0548
rokon	-12.0549
▁filth	-12.0549
▁decrease	-12.0549
▁invit	-12.0553
ugarcane	-12.0553
▁toroga	-12.0554
uzz	-12.0557
▁gora	-12.0558
▁hamm	-12.0558
rouble	-12.056
▁pesae	-12.056
▁heav	-12.0561
galebeken	-12.0561
liboteng	-12.0561
ransport	-12.0563
barambarang	-12.0563
▁merc	-12.0564
▁impris	-12.0564
lahotaala	-12.0565
▁bobong	-12.0566
▁Account	-12.0566
roduce	-12.0567
pakaradiyaan	-12.0567
gibatibat	-12.0567
▁cert	-12.0568
▁simpl	-12.0568
ccount	-12.0568
bath	-12.0569
▁Pesemb	-12.057
mpiyo	-12.057
▁kapengg	-12.0571
estroy	-12.0573
bbing	-12.0573
q	-12.0574
nderstand	-12.0574
▁circu	-12.0574
asosolotani	-12.0574
ctly	-12.0575
▁pingga	-12.0575
inimbe	-12.0577
▁govern	-12.0578
iscipline	-12.0578
arvest	-12.0578
▁paegemb	-12.0578
omegenek	-12.0579
koranga	-12.0579
▁detect	-12.058
ntertain	-12.058
▁elect	-12.058
grav	-12.058
bantaya	-12.058
ndarainon	-12.0581
▁expla	-12.0581
▁treat	-12.0581
▁princ	-12.0581
employ	-12.0581
ival	-12.0581
crac	-12.0581
▁magisk	-12.0581
▁cigar	-12.0581
▁conv	-12.0581
▁pakaradi	-12.0582
▁measur	-12.0582
▁Alaho	-12.0582
▁mbida	-12.0583
scri	-12.0583
▁intention	-12.0583
▁Pepaegonga	-12.0583
nditar	-12.0584
▁Pananag	-12.0584
ayawan	-12.0584
ipila	-12.0584
cript	-12.0585
vation	-12.0585
stitute	-12.0585
isregard	-12.0586
aegada	-12.0586
uffer	-12.0587
▁subs	-12.0587
▁kowart	-12.0587
dvise	-12.0588
▁maro	-12.0589
▁Gang	-12.0589
pesaemb	-12.0591
ginding	-12.0592
▁contain	-12.0592
riction	-12.0592
elatives	-12.0592
vas	-12.0592
roud	-12.0593
iyagar	-12.0593
niwang	-12.0593
ambolan	-12.0594
▁fool	-12.0594
▁solota	-12.0595
▁pelalaka	-12.0595
▁lep	-12.0595
awaraw	-12.0596
ibili	-12.0597
▁adult	-12.0598
▁crop	-12.0598
tige	-12.0599
▁coff	-12.0599
mitted	-12.0599
seye	-12.0599
▁Ine	-12.0601
undle	-12.0601
▁exer	-12.0601
limod	-12.0602
erior	-12.0603
cogni	-12.0603
▁fau	-12.0604
lected	-12.0605
atadem	-12.0605
▁Pepeng	-12.0605
▁Pagene	-12.0606
▁Japan	-12.0608
▁progr	-12.0608
▁pleas	-12.0608
ikowa	-12.0609
▁roller	-12.0609
▁fric	-12.061
▁pinggo	-12.0612
▁slee	-12.0612
lanati	-12.0612
▁Mingga	-12.0613
ev	-12.0614
iyowi	-12.0616
rophe	-12.0616
itowa	-12.0617
▁ayona	-12.0618
pepelalagoy	-12.0618
egepa	-12.062
itiyar	-12.062
oliti	-12.062
erimber	-12.0621
nggara	-12.0621
ifica	-12.0621
▁kararan	-12.0622
osol	-12.0625
baloy	-12.0627
akir	-12.0627
enggale	-12.0627
adil	-12.0628
▁confuse	-12.0628
erminal	-12.063
▁ilai	-12.063
▁moral	-12.0631
▁paego	-12.0632
koden	-12.0636
apoti	-12.0636
sapol	-12.0638
ncle	-12.064
lter	-12.064
▁mipae	-12.0643
▁matibo	-12.0644
aeben	-12.0647
▁miyalo	-12.0647
adaten	-12.0649
▁kasaemb	-12.0651
▁kin	-12.0651
▁blu	-12.0651
▁eff	-12.0653
ncil	-12.0654
▁swor	-12.0655
angbaal	-12.0655
atters	-12.0655
awiyagan	-12.0656
poyan	-12.066
kamad	-12.0664
ional	-12.0666
pakadada	-12.0669
▁apin	-12.067
agit	-12.0672
▁Pagiba	-12.0673
▁scho	-12.0674
▁Sub	-12.0681
fty	-12.0691
▁diff	-12.0691
▁Tete	-12.0694
nglis	-12.0695
▁tembo	-12.0696
atives	-12.0698
▁kapelolo	-12.0702
▁kapaeka	-12.0706
uate	-12.0706
eaves	-12.0707
▁kasow	-12.0709
fur	-12.0709
▁See	-12.071
▁Pembe	-12.0711
tional	-12.0712
merak	-12.0715
betaeng	-12.0716
▁lalaka	-12.0716
▁Ipag	-12.0717
▁pesowa	-12.072
▁fortun	-12.072
taegan	-12.0721
alilang	-12.0721
▁medicin	-12.0722
gedaa	-12.0722
arry	-12.0722
▁makas	-12.0727
penet	-12.0727
dang	-12.0732
▁Miniso	-12.0733
▁fel	-12.0733
peges	-12.0736
▁convers	-12.0744
ften	-12.0745
awiyag	-12.0745
▁Chin	-12.0747
▁baebo	-12.0747
inish	-12.0748
▁ref	-12.0749
uard	-12.0749
akaeb	-12.0751
ilth	-12.0753
▁disapp	-12.0755
rush	-12.0757
iece	-12.0758
pangaromaa	-12.0759
lillah	-12.0762
erenda	-12.0768
complic	-12.0768
▁Male	-12.0769
iyaw	-12.0769
pegilay	-12.0773
esambay	-12.0773
saeng	-12.0773
sokob	-12.0775
arorok	-12.078
▁Most	-12.078
▁kage	-12.0781
tim	-12.0782
seek	-12.0782
ater	-12.0783
rapas	-12.0784
factory	-12.0786
stop	-12.0791
alagoy	-12.0793
▁Ipaga	-12.0794
peten	-12.0794
▁sabar	-12.0801
▁Taro	-12.0804
▁pic	-12.0805
seho	-12.0807
agosara	-12.0809
▁kababa	-12.081
oubt	-12.0811
akina	-12.0812
akapasad	-12.0816
▁kiyasa	-12.0816
amikir	-12.0819
cket	-12.0819
generat	-12.082
▁piyakat	-12.0822
lebeng	-12.0825
▁marat	-12.0825
▁mareg	-12.0829
dition	-12.083
▁Nda	-12.0832
▁kanggita	-12.0834
pangka	-12.0834
ainengka	-12.0835
ikori	-12.084
▁bolaw	-12.0841
ekael	-12.0842
orogan	-12.0843
ix	-12.0843
embaw	-12.0847
▁sec	-12.0852
walay	-12.0853
▁kedi	-12.0858
▁kapangal	-12.086
didit	-12.0861
agatos	-12.0863
▁confus	-12.0867
refu	-12.0868
umped	-12.087
aleng	-12.087
▁gri	-12.0871
duct	-12.0874
tin	-12.0877
onganay	-12.0879
alon	-12.0883
▁bisay	-12.0884
kisa	-12.0886
▁Minipi	-12.0887
manding	-12.0887
▁Pepaengad	-12.0887
nggay	-12.0888
ndega	-12.0889
ndamanaya	-12.0891
▁Pili	-12.0895
ties	-12.0896
▁swell	-12.0896
▁pekapa	-12.0896
▁Tib	-12.0899
nock	-12.0899
solot	-12.0904
goma	-12.0906
▁Maaa	-12.091
▁tire	-12.091
ahala	-12.0912
klas	-12.0913
▁miyakapi	-12.0918
kadakela	-12.092
rimba	-12.0921
▁stren	-12.0929
▁kiyambi	-12.0929
totoge	-12.093
▁ngkaino	-12.0933
▁bul	-12.0933
ross	-12.0937
▁Paki	-12.0939
cent	-12.0946
malaw	-12.0949
koba	-12.0954
ancy	-12.0958
▁kiyalo	-12.0958
▁approach	-12.0959
mbegay	-12.0965
pik	-12.0971
deman	-12.0972
apatay	-12.0982
kita	-12.0984
▁inj	-12.0986
▁sapot	-12.0988
octo	-12.0993
titir	-12.0996
▁pekeb	-12.0997
▁judg	-12.0998
ubject	-12.0998
ntie	-12.1011
▁antawa	-12.1012
omong	-12.1013
▁sapad	-12.1015
▁pret	-12.1016
▁yes	-12.1017
dministration	-12.1017
mulated	-12.1028
mission	-12.1034
raya	-12.1036
▁Kiyapang	-12.1037
▁hur	-12.1038
hes	-12.1041
▁piko	-12.1043
ris	-12.1045
ensive	-12.1046
arain	-12.1052
▁timo	-12.1053
ranon	-12.1056
goi	-12.106
▁Ora	-12.1065
benen	-12.1068
▁bott	-12.1068
▁Pakaka	-12.1071
▁paegona	-12.1073
ivide	-12.1073
▁Miyakage	-12.1074
▁Pami	-12.1076
boro	-12.1077
feren	-12.1078
▁danda	-12.1084
okasa	-12.1086
▁Tap	-12.1087
embi	-12.1088
yond	-12.1094
ebag	-12.1095
▁lala	-12.1097
asokat	-12.1098
ntist	-12.1115
eleka	-12.1115
ngosi	-12.113
vent	-12.113
eilay	-12.113
oint	-12.1135
▁Pakaw	-12.1139
kaya	-12.1142
ponge	-12.1144
ame	-12.1147
bol	-12.1152
▁ipela	-12.1159
ngat	-12.1161
▁somini	-12.1164
▁Saer	-12.1166
ght	-12.117
▁Pita	-12.117
akataroro	-12.1171
fle	-12.1177
bad	-12.1181
emember	-12.1182
amamasaan	-12.1183
rks	-12.1189
▁Sowa	-12.1192
heir	-12.1193
engang	-12.1193
talentak	-12.1195
labor	-12.1197
imol	-12.1198
▁alim	-12.1199
lalag	-12.12
sola	-12.12
▁Piyakata	-12.1207
▁Rinay	-12.1208
serve	-12.1209
▁appr	-12.1209
▁Mil	-12.1209
bund	-12.1211
rimber	-12.1224
oko	-12.1226
did	-12.1235
ortable	-12.1239
▁Ant	-12.1243
ntotan	-12.1245
tro	-12.1251
▁stri	-12.1255
seles	-12.1262
far	-12.1271
petero	-12.128
eseg	-12.1284
agabdas	-12.1289
▁Lalam	-12.1291
▁pakada	-12.13
indasen	-12.1304
yabaya	-12.1306
ababan	-12.1309
▁pom	-12.1312
kid	-12.1313
▁kaebe	-12.1316
▁Amer	-12.1322
▁makaga	-12.1331
▁Marik	-12.1338
urance	-12.134
▁surr	-12.134
▁pik	-12.1347
dote	-12.1348
▁masak	-12.1348
▁lal	-12.1352
▁compl	-12.1352
egem	-12.1353
mapo	-12.1356
akontor	-12.1356
▁hour	-12.1356
alog	-12.1358
▁Sc	-12.1359
▁Inidak	-12.1361
gidi	-12.1368
elit	-12.137
cho	-12.1372
iben	-12.1375
meti	-12.1377
▁sana	-12.138
aegiseg	-12.1381
▁kapagi	-12.1382
▁Bit	-12.1386
totan	-12.139
▁kasam	-12.14
▁teka	-12.1401
▁miyali	-12.1401
depen	-12.141
lina	-12.1423
▁ganda	-12.1423
orning	-12.1426
▁pagi	-12.143
▁tirm	-12.1432
ipant	-12.1432
itong	-12.1433
pisi	-12.1434
▁pagon	-12.1436
▁sens	-12.1436
onsan	-12.1443
▁Imbe	-12.1452
▁mango	-12.1452
epaeka	-12.1457
▁Paegil	-12.1458
kataw	-12.1459
▁Pesen	-12.1462
kara	-12.1466
oway	-12.1471
▁bito	-12.1477
iyangen	-12.1481
akala	-12.1489
ogaw	-12.1491
lind	-12.1492
righten	-12.1494
sipeg	-12.1495
▁paent	-12.1499
vered	-12.1499
seng	-12.1504
cked	-12.1512
▁Pange	-12.1514
arent	-12.1517
▁andam	-12.153
gem	-12.1535
▁Magang	-12.1536
lebo	-12.1539
▁tap	-12.1541
aegon	-12.1542
gonong	-12.1547
oyag	-12.1548
oraw	-12.1558
dim	-12.1563
dise	-12.1568
posan	-12.1574
kalen	-12.1576
lock	-12.1577
atang	-12.1582
impit	-12.1597
saa	-12.1607
enem	-12.1608
▁Toton	-12.1616
▁sekan	-12.1618
owat	-12.1627
iskwilaan	-12.1641
▁belong	-12.1657
irst	-12.1657
egasa	-12.1658
qui	-12.1659
▁Maoo	-12.1662
▁both	-12.1666
eri	-12.1672
omalida	-12.1673
oubled	-12.1674
▁bob	-12.1686
▁Kiyasa	-12.1693
rempang	-12.1693
rad	-12.1699
cano	-12.17
mama	-12.17
boni	-12.1701
▁Pekaen	-12.1702
▁Apo	-12.1712
▁Minil	-12.1716
ngkit	-12.1717
heart	-12.1719
oken	-12.172
▁Miyabi	-12.172
rew	-12.1721
dow	-12.1724
linta	-12.173
ndama	-12.1736
alasan	-12.1736
▁residen	-12.174
opper	-12.1754
▁ham	-12.1759
mem	-12.1773
▁attacke	-12.1773
nggal	-12.1775
titib	-12.1785
▁laga	-12.1786
▁tala	-12.1787
▁matt	-12.1791
ndara	-12.1798
now	-12.1798
▁relati	-12.1802
inimo	-12.1806
rowang	-12.1825
▁darin	-12.1834
nic	-12.1843
oring	-12.1844
mono	-12.1847
eragon	-12.1857
lapen	-12.1862
opong	-12.1867
▁mone	-12.187
▁popo	-12.1873
omething	-12.1877
aint	-12.1878
resident	-12.1883
sendad	-12.1884
▁tho	-12.1899
inisa	-12.1909
▁imp	-12.1914
adat	-12.1918
engkaan	-12.1919
dalan	-12.1928
▁gana	-12.1931
▁penda	-12.1935
iraw	-12.1935
▁butt	-12.1938
ininto	-12.1939
pass	-12.1943
▁runn	-12.1949
katoka	-12.1962
itive	-12.1962
▁Inip	-12.1972
kepi	-12.1976
▁Marina	-12.1978
▁miyason	-12.1986
▁memori	-12.1989
alf	-12.1997
▁coll	-12.2003
▁pepi	-12.2006
nggos	-12.2015
eeds	-12.2019
▁kapango	-12.2024
rakan	-12.2025
▁pelo	-12.2036
▁leve	-12.2043
▁sail	-12.2044
gagak	-12.2048
stra	-12.2052
vora	-12.2054
kagaga	-12.2057
▁disc	-12.2059
abat	-12.2061
dip	-12.2081
mata	-12.2083
mok	-12.2088
sekan	-12.2093
ort	-12.2097
sinta	-12.2101
▁fur	-12.2103
ie	-12.2103
kaeromai	-12.2108
lengin	-12.213
▁kiba	-12.2134
▁dayo	-12.2139
kapan	-12.2146
▁karab	-12.2146
▁opak	-12.2157
mu	-12.2166
cust	-12.2166
hook	-12.2185
▁kaean	-12.2187
▁Mbi	-12.2214
▁destr	-12.2214
osan	-12.2216
▁kan	-12.2219
▁colo	-12.2226
maran	-12.2232
ayat	-12.2243
irect	-12.2247
▁kam	-12.2248
cooked	-12.2254
diin	-12.2255
papa	-12.2264
▁bodi	-12.2266
saega	-12.2271
wak	-12.2271
aakol	-12.2271
unc	-12.2272
▁Kir	-12.2273
owasowa	-12.2273
eet	-12.2283
▁Pekes	-12.2284
▁kaeba	-12.2285
ipay	-12.2285
kataepeg	-12.2307
ilin	-12.2328
aught	-12.2335
plate	-12.234
roj	-12.2341
obog	-12.2346
tegeb	-12.2346
sted	-12.2348
atep	-12.2386
regi	-12.2414
▁dise	-12.2435
ataero	-12.2436
banan	-12.2437
▁cam	-12.2445
stic	-12.2451
kaokit	-12.2456
▁masok	-12.2459
terp	-12.247
▁Acc	-12.248
pic	-12.248
ntoga	-12.2494
▁sanda	-12.2506
▁compli	-12.2508
aesik	-12.2515
▁swer	-12.252
lf	-12.2522
sontok	-12.2527
▁nga	-12.2537
ngenda	-12.2548
areg	-12.2558
inda	-12.2563
dig	-12.2567
gian	-12.2567
▁Panan	-12.2593
ues	-12.261
keben	-12.2619
▁rangk	-12.2637
▁kelo	-12.2647
lata	-12.2651
ampiri	-12.2657
honesty	-12.2661
▁sae	-12.2667
lk	-12.2672
lep	-12.2678
yage	-12.2683
naten	-12.2683
ansang	-12.2684
▁paenge	-12.2686
laos	-12.269
etaey	-12.269
renda	-12.2699
▁ngar	-12.2706
ilayn	-12.2713
otiya	-12.2714
ason	-12.2715
▁tolad	-12.272
als	-12.272
ananagotok	-12.2732
▁bene	-12.2742
▁makapan	-12.2744
aebag	-12.275
▁pemi	-12.2753
▁Magaa	-12.2754
engi	-12.2766
▁Iniyam	-12.2771
aparatiyaya	-12.2777
etel	-12.2783
cussion	-12.2791
akowa	-12.2796
wela	-12.2811
▁pati	-12.2824
began	-12.2828
▁Tabl	-12.2829
ailay	-12.2842
onday	-12.2852
▁sl	-12.2856
dir	-12.2868
eteda	-12.2872
ayadan	-12.2874
mig	-12.2875
pal	-12.2878
▁expen	-12.2883
sab	-12.2902
▁sik	-12.2903
kaey	-12.2915
epaemakineg	-12.2916
imbega	-12.292
▁Paenan	-12.2923
pegos	-12.2923
gne	-12.2929
▁kataw	-12.2936
sions	-12.2947
▁roads	-12.2952
okawa	-12.2969
mangosiyat	-12.2971
ndaman	-12.2978
dawat	-12.298
▁deed	-12.2982
▁Piyanga	-12.2984
▁owe	-12.2984
smi	-12.3002
bles	-12.3008
nes	-12.3013
iance	-12.3015
▁rea	-12.3017
salo	-12.3025
quest	-12.3028
ekeben	-12.3046
▁Miyakasa	-12.3068
abagi	-12.3071
▁cho	-12.3104
kasakit	-12.3118
gor	-12.3132
▁inten	-12.3139
▁reg	-12.3142
▁paan	-12.3152
kaniyan	-12.3153
babaya	-12.3165
ago	-12.3167
▁socia	-12.3176
akan	-12.318
toba	-12.3188
lity	-12.3189
amar	-12.3194
atter	-12.3197
▁Beng	-12.3212
kolili	-12.323
eal	-12.3259
pagod	-12.3262
▁Pepaengo	-12.3291
tot	-12.3295
▁magor	-12.3298
rongg	-12.3303
agilaya	-12.3308
kaet	-12.3311
tell	-12.3313
▁timb	-12.333
▁saeb	-12.3332
eros	-12.3335
▁commu	-12.3357
▁Oon	-12.3362
▁keg	-12.3364
ls	-12.3369
over	-12.3372
inaan	-12.3374
▁kiyaba	-12.3375
▁qua	-12.3385
simp	-12.3396
mis	-12.3396
▁tu	-12.3399
▁paganta	-12.3399
awati	-12.3405
ens	-12.3409
basa	-12.3411
kokom	-12.3418
▁Ineb	-12.3428
▁malin	-12.3434
▁mabala	-12.3438
▁Dow	-12.3441
▁joi	-12.3457
mad	-12.3479
▁nggo	-12.3481
mly	-12.3484
longa	-12.3485
pain	-12.3496
▁Peran	-12.35
ogon	-12.35
▁agaw	-12.3501
▁kaeke	-12.3518
▁Rin	-12.352
▁earl	-12.3545
aeden	-12.3551
▁Sel	-12.3554
apay	-12.3561
▁Kow	-12.3563
▁Mad	-12.3572
iin	-12.3588
▁miyapa	-12.359
yati	-12.3592
oki	-12.3611
sangka	-12.3616
rested	-12.3618
▁Kar	-12.3624
lagen	-12.3635
▁Pelang	-12.3638
▁Kala	-12.3647
▁kasasa	-12.3653
▁ku	-12.3654
ekaokit	-12.3669
abay	-12.3669
▁Acco	-12.3678
▁Samp	-12.3681
▁paegon	-12.3683
▁Mapapar	-12.3695
ranch	-12.3699
ible	-12.3701
siz	-12.3703
otor	-12.3708
ayo	-12.3718
lent	-12.3719
paras	-12.3745
totong	-12.3747
baebaw	-12.3749
ations	-12.3752
tagak	-12.3761
lame	-12.3767
▁Siyal	-12.3781
mbeg	-12.3782
ews	-12.3783
irin	-12.3786
▁consi	-12.3796
magay	-12.3832
▁probl	-12.3839
▁Baba	-12.3844
iful	-12.385
▁mor	-12.3863
▁Lep	-12.3874
kop	-12.3896
leleng	-12.3901
▁peri	-12.3928
pikir	-12.3941
▁kalil	-12.3944
also	-12.395
we	-12.3953
ser	-12.3974
tengka	-12.3983
ataan	-12.3987
tengga	-12.3987
▁alm	-12.3995
▁miti	-12.4001
eto	-12.4007
tataro	-12.4013
aetangk	-12.4034
other	-12.4034
tonganay	-12.4037
irem	-12.4038
epend	-12.4047
arempang	-12.4052
apinan	-12.4056
pang	-12.4064
akaliyo	-12.4066
▁mol	-12.4068
run	-12.4071
▁Miyai	-12.4076
arasag	-12.4076
takna	-12.4086
nds	-12.4096
▁Aw	-12.41
gab	-12.4101
ect	-12.4117
alipatan	-12.4128
kabalaga	-12.4138
hon	-12.4146
pekebabayaan	-12.4152
songow	-12.4159
tu	-12.4174
etai	-12.4191
lve	-12.4195
momo	-12.4196
onte	-12.4202
aratiyaya	-12.4253
▁swa	-12.4274
▁pus	-12.4279
pportion	-12.4283
apen	-12.43
▁Lak	-12.4314
imbeg	-12.4316
its	-12.4318
sagi	-12.432
▁gand	-12.4325
▁Ak	-12.4356
tidaw	-12.4377
riga	-12.4385
▁kiko	-12.4398
▁dang	-12.4404
▁raran	-12.4407
fe	-12.441
adarong	-12.4419
nang	-12.4422
▁regi	-12.445
tanding	-12.4466
▁paena	-12.4487
nging	-12.4512
▁Comm	-12.4521
▁od	-12.4525
▁perpe	-12.454
gilaya	-12.454
engki	-12.455
▁Miyakaga	-12.4552
sarba	-12.4557
mer	-12.4564
▁Peg	-12.4569
▁Bur	-12.4571
nggo	-12.4572
▁bam	-12.4596
rika	-12.4597
▁mip	-12.4627
▁panala	-12.4628
tarint	-12.4633
kiyapa	-12.4635
▁pepe	-12.4647
hen	-12.465
isasam	-12.4652
ataya	-12.4664
▁pep	-12.4688
pakaoma	-12.4692
katokawa	-12.4692
▁Anto	-12.4693
▁pagil	-12.4705
tanog	-12.4716
ipo	-12.472
ggalebek	-12.4728
clude	-12.4734
▁Bin	-12.4739
▁domi	-12.4743
▁Mage	-12.4744
tement	-12.4745
oren	-12.4751
▁ndai	-12.476
todo	-12.4761
napa	-12.4762
▁grandm	-12.477
▁Pepaena	-12.4788
▁meta	-12.4792
orik	-12.4793
dawali	-12.4803
▁Sasab	-12.4816
stling	-12.4841
katokaw	-12.4851
mmed	-12.4864
ndoro	-12.4864
periri	-12.4873
▁Miyakaka	-12.4878
owar	-12.488
saolan	-12.4914
roa	-12.4916
▁rago	-12.4918
tep	-12.495
▁Tiyang	-12.4962
▁Tampa	-12.4964
gayong	-12.497
▁Taetan	-12.497
apasan	-12.4973
aepasa	-12.4979
▁stil	-12.4979
iyoto	-12.4986
part	-12.4987
sol	-12.4991
▁male	-12.5005
nap	-12.5008
▁magid	-12.5015
yaga	-12.5022
▁kel	-12.5031
gawi	-12.5037
angkaan	-12.5045
mbot	-12.506
siyo	-12.5062
▁bano	-12.5115
apid	-12.5135
▁Pakato	-12.5142
beten	-12.515
aboriyawa	-12.5165
mbe	-12.5182
▁Tor	-12.5184
▁kar	-12.522
asar	-12.5221
pera	-12.5229
mal	-12.5231
▁stoppe	-12.5233
rit	-12.524
adian	-12.5253
idab	-12.5272
▁miso	-12.5275
▁countr	-12.5276
▁minik	-12.5279
▁seve	-12.5318
ark	-12.5326
▁koli	-12.5327
▁Kiyaga	-12.5337
obs	-12.5362
▁Imba	-12.5371
▁peko	-12.5375
amisita	-12.5378
dness	-12.5395
aig	-12.5398
rpris	-12.5401
iyogi	-12.5402
▁pipi	-12.5404
giketiyar	-12.5424
live	-12.5427
▁dad	-12.5432
▁galeb	-12.5435
dandan	-12.5435
katao	-12.5454
ailed	-12.5465
▁inisa	-12.5468
ems	-12.547
eke	-12.5477
bout	-12.5508
iyakit	-12.5526
adin	-12.5528
olawan	-12.5529
▁bebe	-12.553
▁Repe	-12.5534
ach	-12.5541
ense	-12.5553
▁kaep	-12.5587
culate	-12.5587
akipen	-12.5595
▁sing	-12.5598
dagan	-12.5605
wag	-12.5616
orat	-12.5616
▁komi	-12.5617
rila	-12.5618
▁kaesan	-12.5619
▁Mai	-12.5645
getan	-12.5651
▁Ni	-12.5661
sampen	-12.5661
ranao	-12.5671
cut	-12.5677
mbag	-12.568
nala	-12.5683
▁sim	-12.5689
▁u	-12.5734
tegra	-12.5753
ladan	-12.5779
ipata	-12.579
▁Pemas	-12.58
▁kama	-12.5818
▁dag	-12.5821
ekes	-12.5885
▁kakay	-12.5934
▁dest	-12.5941
▁pembe	-12.5983
counted	-12.6017
mbayang	-12.6025
impis	-12.6045
mbay	-12.6078
▁vis	-12.6079
▁Miyakapo	-12.6112
bantayan	-12.6113
ngkal	-12.6115
roken	-12.6129
▁Mamb	-12.6141
nalonod	-12.6145
▁hom	-12.6157
eat	-12.6186
▁Rim	-12.6207
▁panao	-12.6211
mamasa	-12.6218
pakasong	-12.6219
akikilala	-12.6226
▁Miyad	-12.6272
tindaan	-12.6279
▁kapes	-12.6283
onay	-12.6288
inti	-12.6291
▁plea	-12.6295
▁Panga	-12.6328
nor	-12.633
▁Ha	-12.6336
▁exce	-12.6345
iyadiyon	-12.6374
▁lam	-12.6379
darong	-12.6415
rass	-12.6423
▁don	-12.6432
aegen	-12.6435
yata	-12.6438
▁Bata	-12.6438
gandawa	-12.6439
lakawan	-12.647
ariga	-12.6489
tes	-12.6496
▁ita	-12.65
renga	-12.6509
▁Pepengo	-12.6513
mpay	-12.6525
omol	-12.6533
▁Y	-12.6535
take	-12.6555
opl	-12.6572
arandiya	-12.658
ibowa	-12.658
aesar	-12.6599
peteng	-12.6652
stion	-12.6707
▁Pepaego	-12.6715
▁lib	-12.6724
amasaan	-12.6724
lag	-12.6739
▁Kiyase	-12.6742
int	-12.6757
intas	-12.678
▁wai	-12.6785
lowin	-12.6796
▁Ipes	-12.68
ingki	-12.681
▁y	-12.6841
rely	-12.6868
abota	-12.6873
inas	-12.6902
sak	-12.6904
ingaga	-12.6919
sembay	-12.6932
alous	-12.6937
▁ext	-12.6942
▁Misa	-12.6952
rar	-12.6967
radiyaan	-12.6989
▁minit	-12.6989
▁kila	-12.6995
▁sw	-12.7023
saken	-12.7025
▁sonda	-12.7029
hines	-12.7037
eme	-12.7079
poro	-12.7085
nish	-12.7088
taon	-12.7089
abo	-12.7092
▁pita	-12.7102
ory	-12.7114
▁pekal	-12.7133
bebaya	-12.7136
oyan	-12.7139
▁opposi	-12.7185
times	-12.7228
tilad	-12.7258
▁teng	-12.7275
kang	-12.7288
▁pana	-12.7307
abl	-12.7326
egembaal	-12.7343
▁ap	-12.7354
peke	-12.7416
▁tab	-12.742
▁Pelao	-12.7448
mper	-12.7451
rsada	-12.7457
mberi	-12.7482
cula	-12.7501
▁Mimbo	-12.7511
sk	-12.7562
tos	-12.7566
▁Pembol	-12.7583
▁asse	-12.7583
▁Minis	-12.7588
katolak	-12.7592
apad	-12.7639
▁kaot	-12.7648
ota	-12.7673
aps	-12.7688
▁Inibe	-12.769
ondog	-12.7695
▁Miniri	-12.7717
eriri	-12.7729
iet	-12.774
▁Alo	-12.7741
lepo	-12.7757
owagen	-12.7767
▁kand	-12.777
▁dus	-12.7793
▁pangar	-12.7805
eped	-12.7809
pakar	-12.7818
ilt	-12.7822
lebe	-12.7823
▁tee	-12.7857
abebaya	-12.7859
▁makako	-12.7876
▁Ting	-12.7889
odol	-12.7895
lowi	-12.7898
▁tapa	-12.7917
dada	-12.7945
kongan	-12.7982
▁hor	-12.7993
▁conte	-12.7999
jo	-12.8003
log	-12.8023
ato	-12.8033
aro	-12.8037
▁Thro	-12.8056
har	-12.8065
▁maya	-12.8112
▁Pesi	-12.8117
rget	-12.8122
sabar	-12.8156
▁direct	-12.8178
audi	-12.8181
elab	-12.8186
▁accu	-12.8187
▁Ab	-12.8191
ns	-12.8217
nsi	-12.8221
▁Miyaa	-12.823
▁Landa	-12.8235
▁Iniyo	-12.8238
etoon	-12.8258
▁Poka	-12.8262
rack	-12.8283
penggalebek	-12.8285
eless	-12.8296
rown	-12.8314
ug	-12.8324
▁Malina	-12.8332
▁pans	-12.8346
▁Sala	-12.835
orce	-12.8366
akaw	-12.8376
sence	-12.8381
qua	-12.8394
▁kamp	-12.841
▁Somasan	-12.8414
▁mode	-12.8415
▁paekara	-12.8422
lando	-12.8422
mani	-12.8424
▁Minisa	-12.8426
asog	-12.8443
hand	-12.8445
angi	-12.8447
▁Malan	-12.8473
alinding	-12.8479
lala	-12.8504
▁Bad	-12.8508
▁pakamb	-12.8528
▁ce	-12.8559
onen	-12.8592
alang	-12.8599
ininda	-12.8618
▁Pagat	-12.8622
imate	-12.8623
tap	-12.8669
ift	-12.8678
▁kapepaenga	-12.8704
▁hav	-12.8705
emen	-12.8715
ale	-12.8728
amed	-12.8767
▁sira	-12.8798
ngkaya	-12.8821
aeng	-12.8842
rate	-12.8844
▁Miyang	-12.8859
▁gon	-12.8867
aeromai	-12.8883
▁kanda	-12.8923
▁ste	-12.8946
▁pekew	-12.8965
asaed	-12.8975
mpang	-12.8977
rime	-12.898
▁Inot	-12.8996
timate	-12.8998
▁Por	-12.9018
▁matit	-12.9038
tegas	-12.9039
rbed	-12.9039
▁balag	-12.905
ond	-12.9054
dat	-12.9059
mes	-12.9077
ena	-12.9078
lokalo	-12.9105
oket	-12.9112
▁mbara	-12.9167
itow	-12.9177
boten	-12.9195
dies	-12.9205
epen	-12.9279
inen	-12.9324
ightning	-12.9357
▁Isen	-12.9364
▁gre	-12.9389
He	-12.9399
▁sare	-12.94
ngadian	-12.9425
els	-12.9435
▁Taga	-12.9448
▁Mipa	-12.945
nana	-12.959
▁kaes	-12.959
▁katawa	-12.9599
anok	-12.9615
▁wel	-12.9618
▁Pesaen	-12.962
inker	-12.9632
aoto	-12.9665
of	-12.9672
▁dy	-12.9679
▁Ika	-12.9681
right	-12.9685
atan	-12.9688
atotok	-12.9704
apakasong	-12.9717
ide	-12.9758
ayag	-12.9766
laden	-12.9846
▁Ex	-12.9855
itab	-12.9898
maw	-12.9912
▁Lilim	-12.9916
▁Miyaos	-12.9918
sp	-12.995
owi	-12.9955
▁Inisa	-12.9977
▁Miyato	-12.998
▁gat	-13.0045
edong	-13.0046
rk	-13.0086
▁presen	-13.0094
▁Dade	-13.011
emin	-13.0127
ole	-13.0133
▁sengk	-13.0143
▁ik	-13.0154
aresik	-13.0159
kawi	-13.016
▁kaer	-13.0187
▁Miyama	-13.0228
nggit	-13.0234
dayaw	-13.0236
oat	-13.0253
nos	-13.0279
sm	-13.0342
▁bala	-13.0391
open	-13.0418
▁aske	-13.0423
adiyong	-13.0453
▁supp	-13.0461
ono	-13.0461
str	-13.0506
rried	-13.051
iyakapiyapiya	-13.0531
kasa	-13.0532
iyakas	-13.0534
▁piyaka	-13.0535
▁Minib	-13.0544
ipoonan	-13.0544
▁sepa	-13.0546
sebang	-13.0568
ire	-13.0569
amu	-13.0577
▁Miyapas	-13.0594
genseksek	-13.0602
tongkas	-13.0608
▁shoo	-13.0608
ets	-13.0617
asoso	-13.0674
okay	-13.0693
▁bang	-13.0748
▁Soron	-13.0805
▁bap	-13.0864
▁Babal	-13.0865
ndod	-13.0872
tat	-13.0877
aled	-13.0938
ants	-13.0961
ilmo	-13.0972
▁Miyarangk	-13.0991
▁Pak	-13.0991
ambo	-13.1054
esaeg	-13.1072
▁Pagin	-13.1103
▁kapek	-13.1103
nything	-13.1104
▁beng	-13.1125
sem	-13.1143
little	-13.1144
▁roa	-13.1149
▁Ho	-13.1186
abibiti	-13.1212
▁maal	-13.1226
▁cou	-13.128
▁Masa	-13.1281
▁Maas	-13.1318
gai	-13.1333
ampar	-13.1348
▁kale	-13.1359
▁kapen	-13.136
mita	-13.137
agil	-13.1382
awasa	-13.1462
▁pak	-13.1483
amola	-13.1484
▁Tala	-13.1501
eloba	-13.1503
renggay	-13.1511
atago	-13.1512
▁sen	-13.1513
sasakit	-13.1544
ingat	-13.1546
▁bento	-13.1583
ivorce	-13.1583
ondoga	-13.1596
kapatay	-13.1605
got	-13.1645
niyog	-13.1671
omen	-13.1688
▁Miyakado	-13.1738
arang	-13.1755
rig	-13.1768
tepeng	-13.1777
▁Mab	-13.1796
leba	-13.1806
▁Komin	-13.1807
▁saola	-13.1812
▁sold	-13.1829
ngo	-13.1831
aniya	-13.1838
▁bast	-13.185
The	-13.1852
▁Somin	-13.1854
▁pelat	-13.1856
iy	-13.1864
sisi	-13.1871
dare	-13.1892
adad	-13.1893
kadorat	-13.1936
▁apar	-13.1943
▁ling	-13.1956
▁Piyag	-13.197
▁Miyaan	-13.199
sport	-13.199
arima	-13.2006
▁Tiy	-13.2038
karo	-13.2059
amba	-13.2147
arapa	-13.2167
yongka	-13.2223
tit	-13.2264
▁saga	-13.227
▁lami	-13.2288
arangit	-13.2299
ilip	-13.2323
▁pid	-13.2327
▁Pepaeno	-13.2328
asaa	-13.2351
irikan	-13.2355
gak	-13.2367
▁gui	-13.2377
▁Miyadiy	-13.2389
aning	-13.2418
atiger	-13.2422
▁wala	-13.2464
▁Gam	-13.2498
aranga	-13.2518
▁kot	-13.2584
ileg	-13.2588
▁ada	-13.2596
▁kira	-13.2625
kaan	-13.263
▁Tin	-13.2632
▁mimba	-13.2637
geben	-13.2666
▁giv	-13.269
onal	-13.2708
▁soko	-13.2717
▁wh	-13.2731
iyadi	-13.2747
amen	-13.2752
agaga	-13.2782
his	-13.2787
arisa	-13.2822
nek	-13.2826
nggena	-13.2827
ctive	-13.2838
oay	-13.2851
naa	-13.2891
▁devi	-13.2899
▁Kap	-13.29
▁Tem	-13.2928
▁Ame	-13.2933
oned	-13.2941
ex	-13.295
asogo	-13.2957
aa	-13.2994
ando	-13.3016
▁Mere	-13.3024
▁Wit	-13.3028
anek	-13.3062
▁Leba	-13.3093
nts	-13.3107
akataban	-13.3131
blem	-13.3138
attle	-13.315
ything	-13.3164
lintang	-13.3178
ention	-13.3188
ressed	-13.3262
raken	-13.329
amb	-13.3394
xi	-13.3417
iction	-13.3426
▁kip	-13.3456
baed	-13.3458
▁Pangila	-13.3466
▁Kiyap	-13.3479
pekelas	-13.3496
▁sam	-13.3517
gro	-13.3518
z	-13.4417
J	-13.4418
E	-13.4419
R	-13.442
C	-13.4421
N	-13.4422
G	-13.4423
L	-13.4424
Y	-13.4425
B	-13.4426
O	-13.4427
K	-13.4428
W	-13.4429
D	-13.443
A	-13.4431
v	-13.4432
I	-13.4433
M	-13.4434
H	-13.4435
T	-13.4436
