<unk>	0
<s>	0
</s>	0
▁a	-2.91877
.	-3.19943
▁the	-3.61599
▁ko	-3.80835
▁so	-3.81062
▁na	-3.85865
▁o	-4.0621
▁manga	-4.10617
▁and	-4.26844
▁of	-4.36767
▁sa	-4.39197
▁	-4.42041
▁to	-4.48689
▁ka	-4.61696
▁iyan	-4.66955
▁i	-4.74614
▁ago	-4.82526
▁you	-5.03064
▁in	-5.08588
▁I	-5.11173
▁iran	-5.12701
▁on	-5.18532
▁will	-5.32074
▁aken	-5.33397
s	-5.37786
▁is	-5.39629
▁niyan	-5.39973
an	-5.41875
▁Allah	-5.45402
▁sii	-5.47675
▁di	-5.50048
▁he	-5.54699
?	-5.54771
▁his	-5.60555
▁den	-5.60674
▁be	-5.61579
▁Lord	-5.62248
▁Na	-5.62398
▁ngka	-5.64379
▁si	-5.71641
▁for	-5.718
▁siran	-5.72216
a	-5.7292
▁with	-5.73268
▁your	-5.76792
▁not	-5.77613
i	-5.82191
▁that	-5.8287
▁So	-5.85387
▁him	-5.87097
▁who	-5.88433
▁The	-5.90527
▁taw	-5.95658
▁niyo	-5.95667
▁them	-5.95889
▁ba	-5.96452
▁it	-5.99715
▁from	-6.02123
▁they	-6.0225
▁langon	-6.03828
!	-6.06082
▁da	-6.07973
▁sekaniyan	-6.08115
▁was	-6.09677
▁me	-6.1154
▁pen	-6.13345
▁have	-6.13609
▁my	-6.14826
▁are	-6.15956
▁all	-6.16685
▁O	-6.2275
▁ako	-6.23135
▁God	-6.23217
ed	-6.23842
▁iyo	-6.2386
▁He	-6.2657
▁dii	-6.29467
▁wata	-6.29937
n	-6.31788
▁ma	-6.32777
t	-6.35786
▁aya	-6.38024
en	-6.39225
▁their	-6.39667
▁said	-6.39745
ing	-6.40338
gaid	-6.4153
▁ki	-6.42345
▁kiran	-6.42505
▁had	-6.42565
▁kano	-6.44354
▁Tohan	-6.47655
▁m	-6.48815
▁as	-6.49766
▁mama	-6.50744
▁roo	-6.53886
▁this	-6.55534
▁raken	-6.56515
▁pitero	-6.59423
▁Israil	-6.60321
▁rekano	-6.62464
▁out	-6.65736
▁has	-6.66069
▁dato	-6.69073
▁man	-6.6916
▁were	-6.70045
▁by	-6.72287
d	-6.76373
▁one	-6.76989
▁Ka	-6.77439
▁people	-6.7776
▁but	-6.79701
▁ped	-6.80274
▁what	-6.81157
▁bo	-6.81664
▁tano	-6.82061
▁do	-6.82997
▁Then	-6.83293
y	-6.83585
▁ron	-6.84298
▁reka	-6.86049
▁up	-6.86377
▁taman	-6.8829
▁tig	-6.90406
▁king	-6.91323
▁gawii	-6.92138
▁Di	-6.93491
▁Isa	-6.9494
cause	-6.95328
▁her	-6.95514
▁ai	-6.95607
▁or	-6.95636
▁go	-6.95796
▁son	-6.96419
▁isa	-6.98791
▁inged	-7.02446
o	-7.03056
▁ini	-7.03461
▁men	-7.03737
▁at	-7.03871
▁Israel	-7.04359
▁sabap	-7.04998
▁miya	-7.06676
▁They	-7.07025
▁Bu	-7.08147
▁there	-7.0849
▁ami	-7.10406
▁ginawa	-7.10896
▁kaan	-7.11451
▁we	-7.12274
▁S	-7.13547
▁us	-7.16916
▁no	-7.17106
▁land	-7.17185
▁aden	-7.18209
▁like	-7.19218
▁When	-7.19458
▁poon	-7.19618
▁when	-7.20345
▁Sii	-7.20487
▁And	-7.21943
▁t	-7.22921
▁datar	-7.23825
▁oto	-7.24218
▁did	-7.25282
on	-7.25334
▁mambo	-7.25513
▁mi	-7.25598
▁siti	-7.25733
f	-7.26681
ya	-7.26839
▁You	-7.27316
▁day	-7.2888
▁babay	-7.29631
▁into	-7.31308
to	-7.31309
▁Jesus	-7.31566
▁oman	-7.33408
▁went	-7.33657
▁come	-7.34688
▁P	-7.36114
▁dowa	-7.36197
▁lagid	-7.37717
▁down	-7.37835
▁came	-7.37835
▁lopa	-7.38842
▁A	-7.39212
▁Ba	-7.39994
▁pe	-7.40026
▁before	-7.40151
▁kena	-7.40665
▁M	-7.40869
▁our	-7.41094
▁over	-7.41331
▁again	-7.41634
oto	-7.42953
▁made	-7.43613
▁Da	-7.44916
giya	-7.45045
▁This	-7.48845
▁an	-7.51367
▁am	-7.51743
▁lima	-7.52553
▁sangkai	-7.52783
▁house	-7.52838
▁kami	-7.55605
▁put	-7.56608
▁baden	-7.56771
▁imanto	-7.57495
▁rekaniyan	-7.57549
▁its	-7.5832
▁may	-7.58916
▁give	-7.58966
▁s	-7.60938
▁For	-7.61019
▁mala	-7.61355
▁Do	-7.61595
▁ama	-7.63007
▁seka	-7.63267
▁Daod	-7.63632
▁In	-7.64376
▁make	-7.65213
st	-7.6546
▁doniya	-7.65587
▁Giya	-7.65686
▁know	-7.65815
▁imam	-7.66268
▁David	-7.66627
▁Mosa	-7.66925
▁hand	-7.67041
▁Yarosalim	-7.67429
▁she	-7.67686
▁tanto	-7.67858
▁walay	-7.6908
▁about	-7.69199
▁been	-7.6992
▁father	-7.71303
▁Moses	-7.71662
▁polo	-7.71689
▁sons	-7.72133
▁katero	-7.72769
ly	-7.73383
angkai	-7.74118
piya	-7.7431
▁madakel	-7.75095
▁Yodah	-7.76219
▁say	-7.76557
▁must	-7.76758
▁through	-7.77257
▁place	-7.77623
▁sondaro	-7.77878
▁time	-7.7794
hose	-7.78225
▁bring	-7.78389
▁antonaa	-7.78837
▁Judah	-7.79481
▁Timplo	-7.79934
m	-7.80169
▁Si	-7.8026
apiya	-7.80377
▁mapiya	-7.80427
▁Kadnan	-7.81152
▁can	-7.81611
▁among	-7.81693
▁ragon	-7.82423
▁darpa	-7.82784
▁these	-7.83269
▁Jerusalem	-7.83795
▁Aya	-7.84036
▁k	-7.84179
id	-7.85108
e	-7.85694
▁earth	-7.85983
▁away	-7.86045
▁brought	-7.86667
▁Al	-7.86855
▁good	-7.87076
▁other	-7.87601
▁also	-7.87851
▁take	-7.88157
▁says	-7.89627
▁kiya	-7.89844
▁It	-7.90236
▁name	-7.9076
▁let	-7.91343
▁see	-7.92631
▁nggolalan	-7.9317
▁great	-7.94878
▁nasiyon	-7.95314
▁What	-7.95519
▁galebek	-7.95708
▁sent	-7.96065
▁rek	-7.97084
▁which	-7.97274
▁gave	-7.97449
▁temple	-7.97561
▁Lebi	-7.97613
▁Now	-7.98019
l	-7.98598
▁Kagi	-7.98849
▁olowan	-7.99103
▁antawaa	-7.99166
▁would	-7.99618
▁back	-7.99976
▁sekano	-8.00042
▁rakes	-8.00189
▁way	-8.00333
▁pagtaw	-8.00727
▁city	-8.00921
▁where	-8.01078
▁now	-8.01088
▁Miya	-8.01171
▁T	-8.01391
▁own	-8.01857
▁then	-8.03439
▁saw	-8.03524
▁ig	-8.03816
▁dosa	-8.03943
gira	-8.04126
se	-8.04305
▁Misir	-8.04527
▁offering	-8.04547
▁poso	-8.04744
▁live	-8.04968
▁miyaka	-8.05932
▁two	-8.05935
▁days	-8.05987
▁kayo	-8.06449
▁masa	-8.07232
▁Israelites	-8.07356
▁heard	-8.07571
▁pagari	-8.07585
▁p	-8.07684
▁things	-8.0779
iya	-8.07814
▁does	-8.08769
▁Masih	-8.09486
kapantag	-8.09846
▁how	-8.09982
▁Egypt	-8.10942
▁karoma	-8.11406
▁set	-8.1163
▁bilibili	-8.1196
▁asked	-8.12085
▁any	-8.12769
▁life	-8.13012
▁marata	-8.13301
▁eat	-8.13386
▁water	-8.13545
▁every	-8.13702
▁heart	-8.15006
▁B	-8.15347
▁each	-8.1546
out	-8.15586
▁amay	-8.1583
▁Apiya	-8.15864
took	-8.16143
▁Christ	-8.16335
▁Ma	-8.16572
▁As	-8.16808
▁We	-8.17073
▁word	-8.17227
▁miyanga	-8.1794
▁left	-8.18194
▁oripen	-8.18294
▁done	-8.18461
if	-8.18565
▁pirak	-8.18646
▁some	-8.19217
▁more	-8.19868
▁nations	-8.20362
▁than	-8.2039
▁aparan	-8.20804
▁tell	-8.21015
▁She	-8.21384
▁hands	-8.21572
▁nabi	-8.21894
▁Oga	-8.22133
ose	-8.22241
▁rekami	-8.22316
▁His	-8.22929
▁eyes	-8.23277
▁mbatabataa	-8.2344
▁years	-8.23463
▁Aden	-8.23996
▁look	-8.24607
▁soti	-8.25218
▁love	-8.25396
▁katawan	-8.26449
▁many	-8.26668
▁Kitab	-8.26765
▁called	-8.2758
in	-8.27801
▁sangko	-8.2789
lebi	-8.28122
▁ridoay	-8.2834
▁sapi	-8.2842
▁K	-8.28737
▁telo	-8.28837
▁work	-8.29238
▁sogoan	-8.2953
▁priest	-8.29551
▁L	-8.2991
▁pito	-8.30425
▁Be	-8.311
▁off	-8.31215
▁right	-8.31556
▁th	-8.3174
▁somiyong	-8.31813
▁lalan	-8.31877
▁apo	-8.32082
▁ran	-8.32101
▁kings	-8.32625
▁maka	-8.33033
▁Kag	-8.33241
▁Pe	-8.33319
▁long	-8.33344
▁manosiya	-8.33789
ever	-8.3409
▁given	-8.3412
▁Yahodi	-8.34298
▁fire	-8.34609
▁evil	-8.34825
▁told	-8.34903
ainst	-8.35154
▁peman	-8.353
▁going	-8.35309
▁sin	-8.35665
apan	-8.35872
▁shall	-8.35885
▁only	-8.35976
▁giyoto	-8.36444
▁law	-8.36891
▁bolawan	-8.36958
▁brothers	-8.37184
▁children	-8.37511
r	-8.37716
▁even	-8.38125
▁ag	-8.3813
▁gold	-8.38135
▁servant	-8.3877
▁around	-8.39013
▁kabaya	-8.3906
▁Sa	-8.39373
▁replied	-8.40485
▁woman	-8.40773
▁rektano	-8.41047
▁heaven	-8.41193
▁lawas	-8.41375
▁saken	-8.41556
▁pat	-8.42062
▁benar	-8.42101
▁Ino	-8.42158
▁death	-8.42161
itero	-8.42316
▁Tig	-8.42488
▁pangenengken	-8.4273
▁himself	-8.43299
▁Let	-8.43686
ngkai	-8.43738
▁words	-8.43841
▁after	-8.43917
▁Antonaa	-8.4402
▁There	-8.44137
▁Jacob	-8.44153
▁Yakob	-8.4473
▁giya	-8.4474
▁Why	-8.4477
▁My	-8.44825
▁become	-8.44923
▁piya	-8.45064
abap	-8.45101
▁teroon	-8.45303
▁answered	-8.45392
g	-8.45503
▁priests	-8.45812
▁mbawataan	-8.45876
▁fathers	-8.4607
▁peroman	-8.46258
▁kape	-8.46784
▁together	-8.46887
p	-8.47113
▁Who	-8.47125
▁Go	-8.47463
▁Saolo	-8.47674
▁dalem	-8.4802
▁pamiliya	-8.48872
▁blood	-8.48994
▁kataw	-8.49078
▁All	-8.4958
▁seven	-8.49625
▁under	-8.49814
▁kapaar	-8.50139
▁well	-8.5029
▁brother	-8.50436
▁whole	-8.50492
▁How	-8.50695
▁wife	-8.51014
▁pinggolaola	-8.51035
▁here	-8.51112
▁sapolo	-8.51953
▁just	-8.5221
▁barahala	-8.52871
▁ta	-8.53894
ko	-8.54226
k	-8.54545
▁apoy	-8.54962
▁gimowa	-8.55091
▁first	-8.55143
▁sword	-8.55255
▁ator	-8.55262
▁kilid	-8.55689
▁Saul	-8.55733
▁burn	-8.55912
ng	-8.56193
▁rogo	-8.56423
▁timan	-8.5664
▁giyai	-8.56801
▁altar	-8.56964
▁olo	-8.5729
▁Babilon	-8.57294
▁keep	-8.57345
▁holy	-8.5806
▁Aron	-8.58399
▁malaikat	-8.58698
▁food	-8.5902
▁three	-8.59537
▁Aaron	-8.60026
▁inisogo	-8.60077
▁another	-8.60133
▁mailay	-8.60196
▁head	-8.60486
▁should	-8.61039
▁Roh	-8.61041
▁get	-8.61538
▁langit	-8.61734
▁soled	-8.61996
▁near	-8.62014
▁teroa	-8.6228
▁everything	-8.62487
▁along	-8.62583
▁Wata	-8.62777
▁Ama	-8.6295
▁ke	-8.63058
▁high	-8.63102
h	-8.63179
▁ngaran	-8.63181
▁song	-8.63674
▁para	-8.63807
▁anyone	-8.63929
▁nggibo	-8.64089
▁wicked	-8.64125
▁mata	-8.64495
▁On	-8.65142
na	-8.65264
▁sokbat	-8.65275
▁miy	-8.65287
▁iniise	-8.65365
▁found	-8.65448
▁kibabaling	-8.65588
▁unti	-8.65604
tero	-8.65962
▁Kena	-8.66145
▁face	-8.66467
▁rarata	-8.67038
▁hear	-8.67099
▁year	-8.67354
▁Oway	-8.67396
▁declares	-8.6742
▁siyogo	-8.67773
ngaran	-8.67955
▁pi	-8.68008
▁while	-8.68422
▁Spirit	-8.68466
▁living	-8.68481
poon	-8.68555
sisii	-8.69088
▁dead	-8.69249
▁night	-8.69565
▁turn	-8.69599
▁Hey	-8.69713
▁old	-8.69908
▁kokoman	-8.69998
▁gatos	-8.70076
▁upon	-8.70315
▁palaw	-8.70348
▁No	-8.70812
▁nditaren	-8.71123
very	-8.71332
den	-8.71889
▁King	-8.72113
▁silver	-8.72205
▁enter	-8.72207
▁cannot	-8.72229
palaya	-8.72377
▁show	-8.72754
▁Father	-8.72978
▁paratiyaya	-8.72992
▁niyawa	-8.73022
▁san	-8.73191
▁never	-8.7321
▁cut	-8.73495
▁After	-8.74126
er	-8.74462
▁nothing	-8.74542
▁Barombarong	-8.75697
▁offerings	-8.76147
▁ground	-8.7619
▁paras	-8.76224
▁hundred	-8.76467
▁Yosop	-8.76484
▁kadnan	-8.76489
▁ragat	-8.76572
▁Your	-8.76622
▁patot	-8.76627
▁nor	-8.77657
▁Tero	-8.77824
w	-8.78106
pantag	-8.78185
▁kingdom	-8.7849
▁Ibrahim	-8.78496
tito	-8.78545
▁angko	-8.78715
▁Almighty	-8.78903
▁piyapiya	-8.79009
▁drink	-8.79162
▁ndatoan	-8.79163
▁liyo	-8.7935
th	-8.7935
▁speak	-8.79586
▁young	-8.79622
▁Antawa	-8.79689
▁gowani	-8.79731
iyailay	-8.79788
▁comes	-8.79854
▁could	-8.80128
▁mini	-8.8036
▁Mata	-8.80523
▁Yes	-8.80655
▁Amay	-8.80715
▁still	-8.80849
▁too	-8.80867
▁side	-8.80997
hey	-8.81126
▁miyatay	-8.81411
▁bantogan	-8.81494
▁piyaka	-8.8182
agiya	-8.81978
▁Son	-8.81996
▁listen	-8.82395
▁Oriy	-8.82536
▁covenant	-8.82617
▁faith	-8.82637
▁find	-8.82693
▁sea	-8.8278
▁die	-8.82965
▁power	-8.83052
▁Abraham	-8.83059
ipoon	-8.83299
▁ina	-8.83307
▁peka	-8.83418
▁Joseph	-8.83483
▁Pi	-8.8387
▁glory	-8.8391
▁bread	-8.83985
▁At	-8.84149
▁send	-8.84186
▁lawasaig	-8.8435
▁world	-8.84735
urely	-8.84815
▁disciples	-8.84817
▁commanded	-8.84871
▁saying	-8.85365
▁miyanggolaola	-8.85681
▁same	-8.86493
▁Babylon	-8.86509
▁thousand	-8.86544
es	-8.86787
▁mother	-8.87022
▁W	-8.87375
▁end	-8.87445
came	-8.8775
▁child	-8.8783
▁nganin	-8.87857
▁lalayon	-8.87976
▁gods	-8.88016
▁country	-8.88342
nt	-8.88439
▁pakataman	-8.8874
▁descendants	-8.88794
ro	-8.88861
uch	-8.88887
sa	-8.89171
▁miyamatay	-8.89198
ibegay	-8.89217
▁katidawa	-8.89272
▁imbegay	-8.89308
▁taken	-8.89445
iyadi	-8.89545
▁matatago	-8.89651
▁Mand	-8.89917
▁anger	-8.90011
▁paan	-8.90028
▁Lords	-8.90262
▁sins	-8.90486
▁mouth	-8.90601
▁body	-8.90765
▁Solaiman	-8.91011
yadi	-8.91498
▁Solomon	-8.91934
▁alongan	-8.92073
▁Saken	-8.92539
▁kaoyagoyag	-8.92711
▁desert	-8.92723
▁righteous	-8.92838
at	-8.93308
▁feet	-8.93335
▁arak	-8.93468
▁servants	-8.93754
▁Is	-8.94232
▁Mandi	-8.94276
▁Paolo	-8.94281
▁Mamaapaar	-8.94284
▁kasorgaan	-8.94284
▁died	-8.94596
▁sanasanaan	-8.9476
▁Maporo	-8.94761
▁pamikiran	-8.94768
▁pedang	-8.94886
▁much	-8.94914
▁rest	-8.94942
▁light	-8.95338
▁Mapiya	-8.95484
refore	-8.95652
▁nggolaolaan	-8.95862
▁fear	-8.96209
al	-8.96254
▁coming	-8.96261
▁lived	-8.96587
▁poro	-8.9665
▁yet	-8.96714
▁torogan	-8.96733
omala	-8.96878
▁Soti	-8.96995
▁pa	-8.97047
▁both	-8.97078
▁Oriya	-8.97132
▁Libitiyo	-8.97664
▁grain	-8.97682
▁stand	-8.98117
▁morning	-8.98155
▁tree	-8.98263
▁follow	-8.99473
▁binatang	-8.99649
▁help	-8.99732
▁pekebabayaan	-8.9984
▁talasogoay	-9.00154
▁far	-9.0017
▁Levites	-9.00203
or	-9.00227
▁ayam	-9.00336
▁Mi	-9.00405
▁Pharaoh	-9.00767
▁truth	-9.0081
▁though	-9.00855
ah	-9.0091
mimbag	-9.0114
▁written	-9.01163
▁Pilistiyo	-9.01169
▁paganay	-9.01171
ilay	-9.01225
dan	-9.01252
▁wine	-9.01371
▁turned	-9.01398
▁mataan	-9.0151
▁un	-9.0151
ion	-9.01696
▁towns	-9.01991
▁army	-9.02027
▁To	-9.02109
▁themselves	-9.02189
▁Dato	-9.02492
▁bobongan	-9.02709
▁maito	-9.02857
▁field	-9.02868
▁R	-9.03126
▁afraid	-9.03227
▁kandadato	-9.03302
▁salakaw	-9.03341
▁want	-9.03623
▁prophet	-9.03857
▁maneg	-9.04054
▁voice	-9.04261
so	-9.04721
▁kapasadan	-9.04801
▁peace	-9.04836
rarangit	-9.05108
▁daughter	-9.05263
▁enemies	-9.05319
▁Sama	-9.05417
▁destroy	-9.05836
▁officials	-9.05901
▁month	-9.05978
ka	-9.06004
▁serve	-9.0602
▁ark	-9.06142
▁full	-9.06259
▁forever	-9.06455
▁Ilaya	-9.06569
▁tohan	-9.06648
▁kill	-9.06697
▁Saba	-9.06879
▁Yosowa	-9.06923
▁b	-9.06977
▁home	-9.06993
▁according	-9.07121
▁began	-9.07334
▁katohanan	-9.07466
▁lana	-9.07635
▁Come	-9.08007
▁praise	-9.08012
▁peke	-9.08244
▁seen	-9.08285
▁pereperan	-9.09104
the	-9.09125
▁Jews	-9.09187
▁bager	-9.09366
▁between	-9.09692
▁maporo	-9.09701
▁anything	-9.098
▁Anda	-9.09884
▁four	-9.10189
▁inheritance	-9.10214
▁righteousness	-9.1022
▁Tanto	-9.10221
▁cubits	-9.1029
▁prophets	-9.10647
▁strong	-9.1072
▁stood	-9.10858
▁destroyed	-9.10924
▁miyakaoma	-9.11363
▁kapekebabaya	-9.11721
▁petero	-9.11826
▁Paul	-9.11893
▁money	-9.11896
▁Yahiya	-9.1191
▁unclean	-9.11935
▁tamok	-9.12131
▁makaoma	-9.12132
▁ever	-9.1214
▁might	-9.12395
▁inowit	-9.12522
▁Absalom	-9.13036
▁oil	-9.13135
▁ika	-9.13392
▁toward	-9.13703
sapolo	-9.13766
▁penga	-9.14077
▁mitros	-9.14188
▁women	-9.14191
▁ngari	-9.1478
▁maontol	-9.14797
▁bago	-9.14806
▁angel	-9.15351
▁spirit	-9.15372
owan	-9.15428
▁gone	-9.15432
▁ten	-9.15551
▁joy	-9.15653
▁sapo	-9.15735
▁today	-9.15885
▁Joshua	-9.15941
▁yourselves	-9.15946
▁koda	-9.1597
▁Baal	-9.16094
▁F	-9.16524
▁Pidro	-9.16532
▁Yordan	-9.16533
▁daughters	-9.16601
▁hold	-9.16773
▁Kataw	-9.16955
▁return	-9.16986
▁doing	-9.17266
▁call	-9.17283
▁killed	-9.17287
▁why	-9.17367
▁Ke	-9.17402
▁maana	-9.17404
▁hearts	-9.17685
▁wisdom	-9.17728
il	-9.1774
▁pamemegayan	-9.17746
▁One	-9.17977
▁piyaki	-9.18194
▁rowang	-9.18383
▁kagagawii	-9.18397
▁miskin	-9.18419
▁Where	-9.18505
▁crowd	-9.18665
isako	-9.18869
▁fall	-9.18931
▁ways	-9.1911
da	-9.1937
baloy	-9.19454
▁since	-9.1946
▁Take	-9.19531
▁wise	-9.19552
▁ipesepaat	-9.19591
▁Kaban	-9.19636
▁Manga	-9.20001
▁fell	-9.2016
▁Philistines	-9.20266
▁poor	-9.20267
▁sheep	-9.20398
▁ask	-9.20511
▁miyaneg	-9.20827
▁Gods	-9.21232
▁clothes	-9.21509
▁pepanga	-9.21693
▁kampo	-9.21848
▁Ahab	-9.22024
▁yourself	-9.2203
ma	-9.22122
▁sebangan	-9.22208
▁Peter	-9.22589
ok	-9.22693
▁camp	-9.22723
▁stone	-9.22746
▁pipiya	-9.22915
▁inisembag	-9.22924
▁built	-9.23316
▁little	-9.2332
▁town	-9.23661
▁Their	-9.23724
▁person	-9.23835
▁battle	-9.23859
▁pangeleban	-9.23927
▁third	-9.24022
▁five	-9.24186
▁kinowa	-9.24571
▁tonganay	-9.24574
▁elders	-9.24582
▁nem	-9.24599
▁fruit	-9.24696
▁lay	-9.2473
▁mountain	-9.24899
▁nggolaola	-9.24913
▁limo	-9.24921
▁May	-9.25166
▁pagotaraan	-9.2521
▁magaan	-9.25327
▁pepeka	-9.25377
▁ipe	-9.25445
▁east	-9.25746
▁wall	-9.25838
▁pintoan	-9.25878
▁kamarataan	-9.25897
▁longer	-9.25904
as	-9.26145
▁new	-9.26171
▁ala	-9.26319
▁spoke	-9.26489
▁presence	-9.26514
▁Ya	-9.26521
▁disirto	-9.26526
▁mabager	-9.26534
▁ndo	-9.26565
▁isepaat	-9.26591
▁kaontol	-9.26714
▁bes	-9.26998
▁tribe	-9.27105
▁command	-9.27106
▁pelokelokesen	-9.27172
▁marani	-9.27206
▁somiyogo	-9.27233
▁anda	-9.27287
▁Miyaka	-9.27343
▁palace	-9.27401
ipantag	-9.27669
▁leave	-9.27682
▁being	-9.27783
▁Hol	-9.27911
▁times	-9.28398
▁kambing	-9.28508
▁ikatelo	-9.28563
▁ikadowa	-9.28587
▁That	-9.28695
▁l	-9.28768
▁lives	-9.29088
▁ontol	-9.29142
▁misosorat	-9.29189
▁lamalama	-9.2921
▁obas	-9.29356
▁chief	-9.29446
ir	-9.29492
▁Piraon	-9.29872
▁petotongen	-9.29895
▁pour	-9.29915
▁katao	-9.30006
▁kiyababa	-9.30051
▁E	-9.30087
▁Gawii	-9.30525
ill	-9.30538
▁kawanan	-9.30585
▁penggolaolaan	-9.30709
▁Seka	-9.30792
it	-9.31197
▁throne	-9.31243
▁re	-9.31487
▁Oman	-9.31676
▁pangangayamen	-9.31923
▁karo	-9.32034
▁hope	-9.3213
▁oras	-9.32329
▁strength	-9.32405
▁Jordan	-9.32592
▁mighty	-9.32872
vereign	-9.32977
▁others	-9.3304
aid	-9.33293
▁matey	-9.33317
▁returned	-9.33462
▁heavens	-9.33621
less	-9.33693
▁ongangen	-9.33741
▁wrath	-9.33994
▁Yaramiyas	-9.33998
▁kimar	-9.34004
▁tombaga	-9.34007
▁large	-9.34008
▁carried	-9.34027
▁kept	-9.34043
▁okit	-9.34112
▁John	-9.34721
▁kadakel	-9.34808
▁Totol	-9.34838
▁gagaw	-9.34984
▁kapatay	-9.35033
us	-9.35373
▁bronze	-9.35419
▁temanaan	-9.35421
▁tom	-9.35593
▁got	-9.35735
▁idad	-9.36065
▁dis	-9.36103
▁waters	-9.36162
▁kaposan	-9.36177
el	-9.36337
▁siki	-9.36797
▁open	-9.36822
▁spread	-9.3685
▁family	-9.36862
▁next	-9.36868
▁wood	-9.36938
▁idols	-9.36979
▁sound	-9.37008
▁n	-9.37343
▁mapetero	-9.37618
▁Simon	-9.37626
▁N	-9.3765
▁Ephraim	-9.37798
ga	-9.37801
kataw	-9.38151
▁Imisiren	-9.38329
▁sanctuary	-9.3833
▁pagabagatan	-9.38331
▁moriyataw	-9.38334
ar	-9.38375
▁lord	-9.38392
▁big	-9.38569
▁commands	-9.38802
▁Baniyamin	-9.39074
▁piyakamemesa	-9.39075
▁front	-9.39079
▁second	-9.39136
▁sorat	-9.39146
▁blessed	-9.39165
▁filled	-9.3917
▁war	-9.39313
manto	-9.39409
▁kaden	-9.39435
▁mountains	-9.39455
re	-9.39531
▁Man	-9.39664
▁oyagoyag	-9.39695
▁fellow	-9.39822
▁gabon	-9.39854
▁born	-9.3987
ther	-9.39897
▁everyone	-9.39902
▁bow	-9.40158
▁oriyan	-9.40418
aden	-9.40551
▁tero	-9.40566
▁cry	-9.40596
▁Og	-9.40704
▁twenty	-9.4071
▁olan	-9.40804
▁meet	-9.40921
▁kapeke	-9.40997
▁Giyan	-9.41169
▁Giyangka	-9.41308
▁honor	-9.41507
▁olaola	-9.41825
▁pepa	-9.42002
▁Abram	-9.42086
▁papanok	-9.42092
▁believe	-9.42235
▁anan	-9.42474
▁Iskak	-9.42855
▁Palaw	-9.42866
▁order	-9.43115
▁sun	-9.43188
▁hill	-9.43314
▁north	-9.43363
▁walk	-9.43369
▁wind	-9.43415
iah	-9.43478
▁worship	-9.43549
▁Yowab	-9.4363
▁darkness	-9.43659
and	-9.43719
▁sacrifice	-9.43871
▁D	-9.43929
▁standing	-9.44047
▁sangk	-9.44237
▁obey	-9.44302
▁mawatan	-9.44472
▁kalilintad	-9.44669
▁peoples	-9.44771
▁See	-9.44969
▁Pa	-9.44992
▁neighbor	-9.45202
▁Isaac	-9.45206
▁kakawasaan	-9.45243
▁answer	-9.45301
▁h	-9.45326
▁saitan	-9.45449
▁pay	-9.45511
▁burned	-9.45548
▁doka	-9.45704
▁free	-9.45887
▁myself	-9.45998
la	-9.46055
▁knowledge	-9.46069
▁spoken	-9.46341
▁thing	-9.46413
▁fine	-9.4662
▁angk	-9.46965
▁known	-9.4706
▁With	-9.4707
▁whatever	-9.47124
▁piy	-9.47209
▁nati	-9.47362
▁six	-9.47469
▁Moab	-9.47719
▁heads	-9.47821
▁kebaloy	-9.47876
▁mind	-9.47911
▁reign	-9.47937
▁Ago	-9.47989
is	-9.48071
▁nation	-9.48146
▁charge	-9.48229
ekaniyan	-9.48283
▁Gad	-9.48469
▁lalong	-9.48505
▁solotan	-9.48517
▁sight	-9.48544
▁lokes	-9.48559
ll	-9.48601
▁broken	-9.48673
▁save	-9.48766
▁korsi	-9.48813
▁kamamasa	-9.48992
▁drive	-9.49343
▁birth	-9.49386
▁ndodoo	-9.49463
▁oontol	-9.49557
▁master	-9.49678
▁Th	-9.49904
▁Tent	-9.49942
▁maliboteng	-9.50081
▁Idedeke	-9.50084
imbaal	-9.50095
▁Pamakineg	-9.5019
▁gathered	-9.502
▁bali	-9.50385
▁Ye	-9.50814
nan	-9.50815
▁miyalamba	-9.50899
▁Look	-9.5093
▁G	-9.50989
rom	-9.51073
▁evening	-9.51296
▁gate	-9.51355
▁present	-9.51512
▁sister	-9.51616
▁clean	-9.51629
▁Are	-9.51723
▁sala	-9.51911
▁animals	-9.51995
▁build	-9.51998
▁trouble	-9.52035
▁Song	-9.52145
▁understand	-9.52463
▁Samowil	-9.52581
▁assembly	-9.5259
▁half	-9.52647
▁initopa	-9.52661
▁appointed	-9.52689
iklas	-9.52711
▁entrance	-9.52749
▁offer	-9.52868
▁tent	-9.53042
▁bear	-9.5318
▁stones	-9.53206
▁peki	-9.53346
ran	-9.53364
kan	-9.53395
▁Joab	-9.53431
▁gees	-9.53435
▁giyan	-9.53445
▁Laban	-9.53448
▁bebet	-9.53449
▁arimaw	-9.5347
▁outside	-9.53527
▁male	-9.53699
▁number	-9.53753
▁pekatalingoma	-9.53766
▁somong	-9.5385
▁kalek	-9.53971
nggolaola	-9.54081
▁makape	-9.54138
▁break	-9.54241
▁kaka	-9.54567
▁onga	-9.54633
ampar	-9.54675
▁Jeremiah	-9.55167
▁Asiriya	-9.55182
▁maginged	-9.55197
▁maaped	-9.55201
sampay	-9.5537
go	-9.55385
▁dont	-9.5546
▁guard	-9.55658
▁Samuel	-9.56043
▁magariyari	-9.56045
▁okitokit	-9.56048
▁judge	-9.56378
ot	-9.5676
▁lie	-9.56786
▁Manasih	-9.56928
▁mangoda	-9.56958
▁keilay	-9.57336
▁judgment	-9.574
▁used	-9.57809
▁cities	-9.5782
ta	-9.58048
▁followed	-9.58078
▁Iliyas	-9.58254
▁laid	-9.58421
ai	-9.58514
▁Hezekiah	-9.58722
▁taritib	-9.58725
▁better	-9.58743
▁komiyasoy	-9.58752
▁always	-9.58781
▁something	-9.58783
▁door	-9.58869
▁bagian	-9.59148
▁husband	-9.59211
▁kobal	-9.59305
man	-9.5931
▁wealth	-9.59477
▁fat	-9.59632
▁kabatowa	-9.59633
▁sowara	-9.59665
▁raga	-9.59668
▁nggolaolaa	-9.59726
▁received	-9.59749
▁seda	-9.5982
iyan	-9.59911
▁matay	-9.60009
▁Sabbath	-9.60114
▁once	-9.60157
▁solo	-9.60173
▁lead	-9.60343
▁seek	-9.60349
▁soul	-9.60371
▁able	-9.60407
▁mans	-9.60528
▁sacred	-9.60547
▁Balaam	-9.60548
▁Meeting	-9.6055
▁matanog	-9.60554
▁Ndatoan	-9.60565
▁justice	-9.60586
▁giving	-9.60698
▁polaos	-9.60952
▁ro	-9.60962
▁kala	-9.60985
ap	-9.61238
▁matag	-9.61257
om	-9.61427
▁gordiya	-9.61501
▁mababaling	-9.61518
▁above	-9.61571
▁nanao	-9.61658
▁maot	-9.6171
▁sedepan	-9.61834
▁Sekan	-9.6188
▁Ini	-9.61883
▁inibega	-9.62098
▁oath	-9.62132
▁places	-9.62261
ba	-9.62378
▁Giliyad	-9.62408
▁struck	-9.62409
▁tangila	-9.62413
▁piyakalekelek	-9.62413
▁siringan	-9.62419
pedi	-9.62522
kaan	-9.62888
▁Siyon	-9.62988
wa	-9.631
▁fight	-9.63197
▁trees	-9.63204
teroon	-9.63241
begay	-9.63329
▁mitataog	-9.63357
▁kapipita	-9.63359
▁concern	-9.63389
▁harvest	-9.63416
▁Pengni	-9.63487
mataan	-9.63516
▁horses	-9.63563
▁kepakay	-9.63667
▁lalag	-9.6369
me	-9.63945
▁pray	-9.64029
▁wait	-9.64029
▁ingaran	-9.64114
▁true	-9.64335
▁incense	-9.64368
ken	-9.6437
▁kind	-9.6455
oma	-9.64764
▁magatos	-9.64853
▁carry	-9.65138
▁Hisikiyas	-9.65267
▁firstborn	-9.65269
▁Benjamin	-9.65269
▁Manasseh	-9.65384
▁totongen	-9.65521
▁ketokaw	-9.65595
satiman	-9.65643
▁household	-9.65792
▁Eve	-9.65842
▁Assyria	-9.6593
▁cover	-9.65983
▁Ipraim	-9.66235
▁lips	-9.66245
▁olibi	-9.66247
▁mapenggolaola	-9.66266
▁promised	-9.66308
▁chosen	-9.66323
▁Have	-9.66419
beta	-9.66456
▁Mount	-9.66526
aw	-9.66624
▁care	-9.6674
▁inimbawata	-9.66783
▁gather	-9.67005
embaalan	-9.67033
▁Im	-9.67132
▁stay	-9.67135
▁share	-9.67199
▁flesh	-9.67214
▁angry	-9.67225
▁miyater	-9.67406
▁deep	-9.67459
obay	-9.67525
▁C	-9.67578
▁sacrifices	-9.67743
▁grace	-9.67777
adapan	-9.67844
▁last	-9.68178
▁Every	-9.68188
▁Samariya	-9.6821
▁already	-9.68259
▁kapelalakaw	-9.68293
▁arga	-9.68429
▁sarta	-9.68455
▁r	-9.68467
insarat	-9.68775
▁led	-9.68811
▁south	-9.68923
▁favor	-9.69053
pepasod	-9.69099
▁belong	-9.69168
▁korban	-9.69197
▁Give	-9.69208
▁baradosa	-9.6927
▁consider	-9.69292
▁wide	-9.69368
▁kebabad	-9.69373
▁ino	-9.69791
▁rich	-9.70147
▁Iblis	-9.70219
▁alone	-9.70246
▁kimon	-9.70275
▁Miy	-9.7058
▁teach	-9.70781
▁road	-9.70873
▁attack	-9.71021
▁mercy	-9.71237
▁mananangga	-9.71242
▁talon	-9.71325
yan	-9.71552
▁Asa	-9.71575
▁opened	-9.7159
▁Gilead	-9.7169
▁prayer	-9.71875
▁Mala	-9.71945
▁beside	-9.71974
▁walo	-9.72101
ur	-9.72171
▁message	-9.72267
▁maongangen	-9.72314
▁kapal	-9.72336
▁seventh	-9.72368
▁kawali	-9.72689
▁petoman	-9.72714
▁paniyakit	-9.7331
▁asinda	-9.7336
▁pakinega	-9.73374
▁tarotop	-9.73404
▁reached	-9.73414
▁hair	-9.7344
▁sapak	-9.7358
▁kobor	-9.73653
▁Beth	-9.73673
pen	-9.73763
▁kilo	-9.74163
▁tabernacle	-9.74363
▁kapalawan	-9.74367
▁fish	-9.74403
▁understanding	-9.74548
▁Some	-9.74549
▁kekan	-9.7474
di	-9.74776
▁matero	-9.75062
▁matao	-9.75142
▁Sir	-9.75186
▁tiya	-9.75219
till	-9.75373
▁piyakasisingay	-9.75432
▁mapita	-9.75453
▁pass	-9.75466
▁raised	-9.75536
▁petay	-9.75563
▁chariots	-9.75701
▁wrong	-9.75902
▁trust	-9.75905
ong	-9.76068
▁Ill	-9.76165
▁soasoat	-9.76233
oyagoyag	-9.7626
▁forty	-9.76267
▁remember	-9.76381
▁ya	-9.76469
▁Parisi	-9.76499
▁curtain	-9.765
▁olanolan	-9.76503
▁pangingilain	-9.76504
▁someone	-9.76608
▁kababantogan	-9.76666
▁tenga	-9.76757
▁poporo	-9.76854
▁Isaw	-9.7707
ay	-9.77163
▁pengni	-9.77374
lowin	-9.77537
▁Listen	-9.77586
▁pimbaalan	-9.77601
▁behind	-9.77623
▁dinis	-9.77625
▁ken	-9.77625
▁happened	-9.77668
▁totol	-9.77706
▁leaders	-9.77899
ilaya	-9.77973
▁kipantag	-9.7824
▁friend	-9.78334
▁pekeilay	-9.78369
▁Idomiya	-9.78463
▁bitowan	-9.7852
either	-9.78586
▁think	-9.78667
▁Samaria	-9.78708
▁Ilisas	-9.78715
▁mbalabala	-9.78728
▁pesimbaan	-9.78814
▁covered	-9.78901
▁hard	-9.78936
▁remain	-9.79098
▁melili	-9.79123
▁som	-9.79145
▁Bit	-9.79217
▁akal	-9.79243
▁Aram	-9.79502
▁otan	-9.79669
▁Esau	-9.79793
▁pangomaan	-9.79799
▁appeared	-9.7991
▁tolan	-9.79922
▁tagoa	-9.80337
b	-9.80369
▁rock	-9.80513
▁basa	-9.80517
▁sign	-9.80571
▁commander	-9.80586
▁buried	-9.80921
▁salvation	-9.80936
▁finished	-9.80996
▁kangodaan	-9.81054
▁pematay	-9.81213
▁linen	-9.81273
▁bad	-9.81302
▁kebayaan	-9.81355
▁lies	-9.81536
led	-9.81555
▁bagi	-9.81706
le	-9.81999
▁Mowab	-9.82035
senggay	-9.82044
▁gospel	-9.82055
▁Elijah	-9.82055
▁komandir	-9.82057
▁ikapito	-9.82104
▁kros	-9.82114
▁dayon	-9.82548
▁rejoice	-9.82628
▁part	-9.82751
▁report	-9.82798
ance	-9.82892
▁proclaim	-9.83066
▁Ay	-9.83132
▁enough	-9.83208
▁Nibokadnisar	-9.83208
▁Elisha	-9.83326
▁sabala	-9.83372
ut	-9.83454
▁ginawai	-9.83519
able	-9.83542
▁Make	-9.83572
▁goes	-9.83693
▁obay	-9.83833
overeign	-9.83879
ting	-9.83973
▁kebaya	-9.83974
▁cloud	-9.8399
▁kaom	-9.84025
▁ahead	-9.84142
▁Jeroboam	-9.84369
▁lomiyalakaw	-9.84373
▁most	-9.84385
▁tabang	-9.84396
▁forefathers	-9.84408
▁surround	-9.84408
▁stopped	-9.84415
▁pure	-9.84478
▁sake	-9.84519
ring	-9.84652
▁speaking	-9.84733
▁god	-9.84868
▁Roo	-9.85037
during	-9.85063
▁gates	-9.85079
ag	-9.8511
▁flock	-9.85131
▁table	-9.85195
ang	-9.85283
▁detestable	-9.85548
▁potaw	-9.85564
▁arrived	-9.85569
▁mbonoon	-9.85635
▁twelve	-9.85657
▁relatives	-9.85667
▁miyaona	-9.85741
▁keleb	-9.85754
▁gagawii	-9.85939
▁saved	-9.85961
▁giyangka	-9.86012
▁Miyakaisa	-9.86048
▁shame	-9.86279
▁tribes	-9.86285
▁nggalebek	-9.8636
▁se	-9.86389
▁Piya	-9.86402
▁taros	-9.86453
▁gift	-9.86553
▁guilt	-9.8658
▁thirty	-9.86632
awasaig	-9.86684
▁modol	-9.86732
▁Yarobowam	-9.86736
▁pekorbanen	-9.86762
▁room	-9.86788
▁dust	-9.86817
▁andamanaya	-9.86832
▁decrees	-9.86961
▁accept	-9.8718
▁kitab	-9.87229
▁Dan	-9.87287
▁kapaka	-9.8738
▁angels	-9.87559
iyo	-9.87668
am	-9.87819
▁book	-9.87837
▁enemy	-9.87937
▁messenger	-9.87941
▁kamapiyaan	-9.87942
▁barombarong	-9.87948
▁within	-9.87962
▁Kanaan	-9.8799
▁wild	-9.88011
▁bones	-9.88031
▁deeds	-9.88037
lilibet	-9.88045
onayan	-9.88073
▁Egyptians	-9.8809
▁mariga	-9.88178
▁birds	-9.88192
▁pek	-9.8833
▁receive	-9.88568
▁distress	-9.88953
nga	-9.88995
▁lominiyo	-9.89162
▁fled	-9.89225
▁wives	-9.89285
▁watch	-9.89311
▁thought	-9.89417
▁gani	-9.89443
▁small	-9.89503
▁bok	-9.89538
▁flocks	-9.89586
▁friends	-9.89615
yal	-9.89782
▁taga	-9.89785
▁katokawi	-9.89839
▁goro	-9.89886
▁kiyanega	-9.89937
med	-9.89948
wan	-9.90003
▁Israelite	-9.90028
▁kake	-9.90052
▁fields	-9.9018
▁An	-9.90242
▁blind	-9.90387
▁Agama	-9.90393
▁authority	-9.90394
▁disaster	-9.90394
▁kalopaan	-9.90395
▁kasangkapan	-9.90395
▁mine	-9.90402
▁piyalad	-9.90403
▁Samson	-9.90403
▁Sarah	-9.90404
▁pamomolan	-9.90406
▁labor	-9.90414
▁gobirnador	-9.90467
▁rait	-9.90471
▁foot	-9.90489
▁river	-9.90592
▁gain	-9.90691
▁Here	-9.90903
▁walls	-9.91123
▁kiyatokaw	-9.91145
▁pipikir	-9.91325
ve	-9.91481
ful	-9.91488
▁karomasayan	-9.91649
▁Balintad	-9.9165
▁bogiyong	-9.9167
▁atonement	-9.91701
▁knows	-9.91806
▁Kapedi	-9.91817
▁inside	-9.9183
▁pieces	-9.91899
rakes	-9.91986
▁pamakinega	-9.92037
▁bull	-9.92273
▁rain	-9.92664
▁Yonatan	-9.92909
▁lakongan	-9.92913
▁grow	-9.92927
▁Pharisees	-9.92956
▁tiyago	-9.93016
▁Haman	-9.93131
wit	-9.93149
▁kapetoman	-9.9323
os	-9.93249
began	-9.93296
▁laws	-9.93302
▁Just	-9.93453
▁liyawa	-9.93457
pa	-9.93486
▁possession	-9.93794
▁kapedi	-9.94094
od	-9.94136
▁wickedness	-9.94205
▁rice	-9.94216
▁peparatiyaya	-9.94231
▁kiyapatay	-9.94233
▁devour	-9.94278
▁except	-9.94339
▁cast	-9.94359
▁none	-9.94454
▁top	-9.94571
▁nggagaan	-9.94725
▁famine	-9.95005
▁skin	-9.95123
▁rebuke	-9.95241
ites	-9.95322
▁meat	-9.95356
▁kota	-9.95404
▁podi	-9.95517
▁isaisa	-9.95577
nce	-9.95889
▁panga	-9.95969
▁kapepaginetaw	-9.95982
alley	-9.9621
▁kap	-9.96281
▁pekebabaya	-9.96447
▁bless	-9.96508
▁tiyan	-9.96556
▁teaching	-9.96556
▁Ah	-9.96592
inisepa	-9.96688
▁ribro	-9.96804
▁lamisaan	-9.96805
▁Kapasadan	-9.96806
▁community	-9.96809
▁Andamanaya	-9.96811
▁Mabager	-9.96813
▁Amoniyo	-9.96814
▁takes	-9.96865
▁pembaloy	-9.96903
▁paliyogat	-9.97044
▁kowaan	-9.97087
▁babaling	-9.97087
kiilay	-9.97165
▁katas	-9.97224
▁flee	-9.97275
▁houses	-9.9755
▁hide	-9.97708
▁piyak	-9.97839
▁plant	-9.97945
▁plunder	-9.97987
▁cattle	-9.98136
▁bayanek	-9.98137
▁Woe	-9.98138
▁kadostaan	-9.98139
▁livestock	-9.98139
▁families	-9.98139
▁Nebuchadnezzar	-9.98141
▁committed	-9.98144
▁certain	-9.98175
▁Gentiles	-9.98198
▁Pite	-9.9823
▁ready	-9.98366
▁reigned	-9.9837
▁Lot	-9.98391
▁close	-9.98464
▁Liyo	-9.98484
one	-9.9861
▁pekelek	-9.98645
▁Her	-9.98681
▁tomo	-9.98785
itindeg	-9.9883
▁succeed	-9.9897
▁broke	-9.99056
▁use	-9.99068
▁court	-9.99072
▁loved	-9.99158
▁slave	-9.99173
▁ones	-9.99184
▁clan	-9.99276
▁Like	-9.99394
▁entire	-9.99487
▁paridi	-9.99488
▁Darpa	-9.9949
▁Manosiya	-9.9949
▁kailangan	-9.99536
▁pelata	-9.9954
▁Giyoto	-9.99606
▁wash	-9.99706
▁didalem	-9.99841
▁clans	-9.9987
▁mbinasaan	-9.99892
▁Edom	-10.0004
keyaw	-10.0009
▁need	-10.0022
▁curse	-10.0029
agak	-10.0037
▁else	-10.0039
▁pursue	-10.0042
▁west	-10.0048
▁loves	-10.0049
▁beca	-10.0063
▁account	-10.0072
▁alive	-10.0073
yas	-10.0079
▁ate	-10.0081
▁careful	-10.0083
▁Robin	-10.0086
▁branches	-10.0087
▁Canaan	-10.0089
▁miyatoon	-10.0089
▁fifty	-10.009
▁draw	-10.0093
▁soldiers	-10.0095
agid	-10.0097
▁prepared	-10.0107
▁offered	-10.0113
raise	-10.0134
▁kinds	-10.0144
imbawata	-10.0146
▁dream	-10.0154
▁held	-10.0157
▁fool	-10.0166
▁Fr	-10.0168
▁pagowit	-10.017
▁animal	-10.0181
ry	-10.0182
▁kapa	-10.0183
▁tongue	-10.0183
▁search	-10.0193
▁sleep	-10.0196
▁Podi	-10.0198
▁beautiful	-10.0225
▁Sidon	-10.0226
▁baebay	-10.0226
pan	-10.0227
▁oniin	-10.0236
anan	-10.0246
▁pekaoma	-10.0251
▁perish	-10.0259
▁daway	-10.0265
▁katawi	-10.0275
▁commanders	-10.0276
▁Law	-10.0292
▁miyaila	-10.0294
▁tali	-10.0296
▁generation	-10.0324
▁case	-10.0325
▁exile	-10.0326
ship	-10.0327
▁ruler	-10.0329
▁Hear	-10.0356
▁ram	-10.0356
▁Libi	-10.0357
▁suffer	-10.0358
▁false	-10.0362
▁cried	-10.0366
▁Jonathan	-10.0366
▁Passover	-10.0366
▁attention	-10.0366
▁taginepen	-10.0366
▁knew	-10.0366
▁Sodom	-10.0367
▁cross	-10.0367
▁seed	-10.0368
▁completely	-10.0372
okit	-10.0372
▁iron	-10.0372
▁buy	-10.0374
▁Ammonites	-10.0377
▁stayed	-10.0385
▁Sea	-10.0388
▁sit	-10.0403
▁kabenar	-10.0411
▁join	-10.0425
▁pangni	-10.0429
▁ikidia	-10.0433
neg	-10.0434
▁test	-10.0448
▁ndao	-10.0454
▁please	-10.0464
▁paka	-10.0471
▁bangsa	-10.0508
▁beginning	-10.0509
▁pangongokom	-10.0509
▁piyanotol	-10.0509
▁kiyararangitan	-10.0513
▁mamot	-10.0514
▁scattered	-10.0516
pak	-10.0518
▁sotra	-10.0524
▁passed	-10.0528
▁ears	-10.0538
▁bed	-10.0543
▁omor	-10.0543
adakel	-10.0545
▁iila	-10.0549
▁pekakan	-10.0563
▁somiyo	-10.0574
sii	-10.0595
▁dwell	-10.0597
▁deliver	-10.0607
nat	-10.0617
▁leader	-10.0619
▁kaolad	-10.0627
▁kanggolaola	-10.0638
▁eye	-10.0638
▁Amoriyo	-10.0653
▁Galili	-10.0653
▁Daniyal	-10.0653
▁courtyard	-10.0653
▁piyamono	-10.0654
▁ikasosoat	-10.0656
▁ndatar	-10.0659
▁kalangolangon	-10.0659
▁maregen	-10.066
gan	-10.0663
▁bowalan	-10.0664
▁lying	-10.0667
▁morala	-10.0668
▁threw	-10.0673
▁pekasong	-10.0674
im	-10.0686
▁siyaw	-10.0686
▁making	-10.0689
ought	-10.0697
ikibir	-10.0704
▁w	-10.0713
▁awang	-10.0715
▁white	-10.0721
▁rule	-10.0735
▁names	-10.0741
he	-10.0754
▁measure	-10.0757
tar	-10.0767
▁read	-10.0773
▁cloth	-10.0782
ch	-10.0787
▁paki	-10.0788
▁kini	-10.0797
▁Or	-10.0799
▁Daniel	-10.08
▁sidro	-10.0801
▁bitoon	-10.0801
▁panginginomen	-10.0801
▁Telabokan	-10.0801
▁moontod	-10.0803
▁balintad	-10.0803
▁Diho	-10.0803
▁tapay	-10.0804
▁bangkay	-10.0806
pipikir	-10.0806
▁miyakapoon	-10.0812
▁Poon	-10.0814
▁inner	-10.0814
▁greater	-10.0817
▁endure	-10.0824
▁ordered	-10.0833
si	-10.0836
▁ipembegay	-10.0842
▁inikidi	-10.0866
▁includ	-10.0873
ness	-10.0878
▁preach	-10.0892
▁talk	-10.0905
▁Lango	-10.0929
ment	-10.0937
▁lion	-10.0942
▁eternal	-10.095
▁probinsiya	-10.095
▁miyakowa	-10.0954
▁tominindeg	-10.0955
▁miyakailay	-10.0957
▁kelong	-10.0957
▁sitting	-10.0959
▁officers	-10.0965
▁inisorat	-10.0965
▁thrown	-10.0974
▁donkeys	-10.0988
▁balo	-10.0996
▁gifts	-10.1001
▁sanggibo	-10.1004
ous	-10.1006
▁looking	-10.1032
▁goat	-10.1039
▁news	-10.1043
▁rise	-10.1063
▁move	-10.1065
ach	-10.1073
▁mourn	-10.1081
▁Siba	-10.1082
▁church	-10.1098
uickly	-10.1098
▁Gilgal	-10.1101
▁territory	-10.1102
▁Paska	-10.1102
▁komakaden	-10.1102
▁tomana	-10.1109
▁therefore	-10.1125
▁Get	-10.1147
nggolalan	-10.1149
ira	-10.1152
▁aside	-10.1152
angan	-10.1152
▁pepe	-10.1181
▁grave	-10.1208
▁mothers	-10.1248
▁cherubim	-10.1255
▁Ragat	-10.1255
▁destruction	-10.1256
▁write	-10.1266
▁pagelet	-10.1273
▁sing	-10.1284
▁desire	-10.1299
▁rulers	-10.13
rata	-10.1312
▁signs	-10.1312
poonan	-10.1316
yag	-10.1323
▁dila	-10.1324
ad	-10.1335
▁giyana	-10.1355
▁ruin	-10.1356
▁service	-10.1363
▁delight	-10.1369
▁vineyard	-10.137
▁d	-10.1386
▁harm	-10.1386
▁refuge	-10.1407
▁testimony	-10.1411
▁Hirod	-10.1412
▁hidden	-10.1412
▁regard	-10.1413
▁grass	-10.1413
▁Jehu	-10.1413
▁kapakipetidawa	-10.1415
lombos	-10.1417
▁bangkaw	-10.1418
▁mapasad	-10.1418
▁katey	-10.1428
▁sibo	-10.144
▁Oh	-10.1444
▁fallen	-10.1452
▁generations	-10.1457
▁dry	-10.1475
▁paratiyayaa	-10.1477
▁cause	-10.1512
▁Dis	-10.1521
▁donkey	-10.1528
dakel	-10.1529
▁run	-10.1532
▁journey	-10.157
▁ikapat	-10.1571
▁sky	-10.1572
▁sinned	-10.1573
▁Iliyasar	-10.1573
awaan	-10.1575
▁kirek	-10.1576
▁sapaat	-10.1578
▁healed	-10.1581
▁guilty	-10.1589
▁arm	-10.1594
▁garments	-10.1599
▁pleased	-10.1601
▁waga	-10.1609
▁sogo	-10.1653
▁Most	-10.1654
u	-10.1664
▁fast	-10.1705
▁Ayob	-10.1731
▁Lebanon	-10.1731
▁nipay	-10.1731
▁faithful	-10.1732
▁kiyapakaoma	-10.1732
▁kegaga	-10.1732
▁tagayan	-10.1733
▁biyono	-10.1733
▁Pilato	-10.1734
▁kelamba	-10.1737
▁Sangko	-10.1739
▁creatures	-10.1752
▁Put	-10.1762
▁korbanen	-10.177
men	-10.1782
▁whe	-10.1785
dadalem	-10.1802
▁Antona	-10.181
▁biyalo	-10.1838
▁Say	-10.1839
▁la	-10.184
▁kiyatero	-10.1858
rowar	-10.1864
og	-10.1869
▁forgive	-10.188
lah	-10.1885
tay	-10.189
▁shout	-10.1892
▁desolate	-10.1895
▁Mariyam	-10.1895
▁lomalakaw	-10.1895
▁really	-10.1896
▁Balak	-10.1896
▁purpose	-10.1897
▁pasad	-10.1897
aan	-10.1898
▁few	-10.1898
▁omoy	-10.1899
▁continue	-10.19
▁kekowa	-10.1901
▁Tiro	-10.1901
▁throw	-10.1905
▁kandaneg	-10.1908
▁Name	-10.1915
▁pekasoled	-10.1915
▁fighting	-10.1917
▁kesoy	-10.1918
▁kiyapaka	-10.192
▁punish	-10.1923
▁greatly	-10.1926
▁matito	-10.1927
▁somiy	-10.1932
▁piyangni	-10.1938
▁Eli	-10.194
ti	-10.1955
yo	-10.1981
iran	-10.1986
▁boy	-10.1988
▁kaaden	-10.1992
▁kiyada	-10.2009
▁princes	-10.2012
▁plague	-10.2018
▁girl	-10.202
▁piyakisogo	-10.2034
▁tego	-10.2039
▁matter	-10.2042
▁rescue	-10.2049
▁sako	-10.2054
▁compassion	-10.2061
▁Sidikiyas	-10.2062
▁katatago	-10.2064
▁cup	-10.2064
▁miyakandosa	-10.2065
▁Amorites	-10.2067
▁kanggiginawai	-10.2068
▁ndodon	-10.207
▁wings	-10.2074
▁kipe	-10.2075
kapipiya	-10.2075
▁goats	-10.208
tan	-10.208
▁continued	-10.2082
▁kiyapa	-10.2084
▁moved	-10.2084
▁kabas	-10.2088
▁Bless	-10.2097
▁married	-10.2098
▁manggolaola	-10.211
ak	-10.2116
okawan	-10.2121
▁Kemor	-10.213
▁alien	-10.2133
▁hills	-10.2149
alayon	-10.2165
▁bota	-10.2173
▁hate	-10.2192
ver	-10.2213
▁slaughter	-10.2219
▁garden	-10.2228
▁grew	-10.2231
▁property	-10.2231
▁troops	-10.2231
▁Bitil	-10.2235
▁kalasan	-10.2239
▁fourth	-10.224
▁Kiya	-10.224
▁articles	-10.2246
▁believed	-10.2265
▁lifted	-10.2266
▁f	-10.2269
▁miyada	-10.2271
▁slaves	-10.2288
▁Mini	-10.2292
▁line	-10.2314
▁sold	-10.234
▁Again	-10.2342
▁eating	-10.2345
▁works	-10.2348
▁Has	-10.2353
▁staff	-10.2359
▁eaten	-10.2361
mala	-10.2364
▁spring	-10.2368
▁sabot	-10.2371
▁lift	-10.2398
▁kasalaan	-10.2405
▁fill	-10.2408
▁summoned	-10.2409
▁defiled	-10.2411
▁teken	-10.2413
▁anointed	-10.2425
▁thanks	-10.2427
though	-10.2427
▁prayed	-10.243
▁settled	-10.2431
adadalem	-10.2433
▁kawasa	-10.2433
▁lambs	-10.2442
awidan	-10.2481
alamat	-10.2496
▁kaporo	-10.2505
▁vision	-10.2544
▁somiyol	-10.2546
▁commit	-10.2547
san	-10.2567
▁glad	-10.2575
▁lamb	-10.2575
edekiah	-10.2575
▁Bethel	-10.258
▁maresik	-10.2586
▁kewit	-10.2586
▁lo	-10.2588
▁lost	-10.2588
▁kambonoa	-10.2588
▁removed	-10.2589
▁Midiyan	-10.2589
▁rejected	-10.2592
▁sapadan	-10.2593
▁teachers	-10.2605
▁pelalakaw	-10.2633
▁prison	-10.2634
▁pag	-10.2638
oman	-10.2642
▁burning	-10.2645
abaloy	-10.2652
▁pull	-10.2656
ling	-10.2668
▁boat	-10.2699
▁pit	-10.2705
▁sowaan	-10.2707
▁floor	-10.2713
▁li	-10.2722
having	-10.2725
▁blessing	-10.2733
nyone	-10.2739
kasoy	-10.2742
▁mbala	-10.2755
▁Tyre	-10.2757
▁Libanon	-10.2757
▁Eleazar	-10.2757
▁Gidiyon	-10.2757
▁yeast	-10.2757
▁montiya	-10.2757
▁mapekewali	-10.2758
ala	-10.2759
▁waged	-10.276
▁later	-10.2761
ito	-10.2761
▁swore	-10.2763
▁miyatey	-10.2765
▁captured	-10.2765
▁miyaling	-10.2768
▁best	-10.2775
▁pegosar	-10.278
▁H	-10.2812
▁ipekegowad	-10.2815
▁Ika	-10.2827
aoto	-10.2831
▁kom	-10.2863
papaliyogat	-10.2867
ell	-10.2876
▁weak	-10.2877
▁trumpet	-10.2898
▁building	-10.2924
▁flour	-10.2938
▁caught	-10.2939
▁sinagoga	-10.2939
▁defect	-10.294
▁Tamar	-10.294
▁provide	-10.294
▁galebo	-10.2942
▁kiyailaya	-10.2945
▁Jehoshaphat	-10.2945
▁panday	-10.2946
kepos	-10.2948
▁poles	-10.295
drew	-10.2954
▁Isayas	-10.2956
▁reason	-10.2961
▁touched	-10.2963
▁Ana	-10.2965
▁inisapaat	-10.2968
▁planted	-10.2969
▁worshiped	-10.2974
▁kapesimba	-10.2983
▁altars	-10.2985
▁Giyana	-10.2993
ra	-10.3006
▁peso	-10.3013
▁Ili	-10.3017
▁Piyaki	-10.3023
▁tenth	-10.3043
▁waste	-10.305
▁Not	-10.3051
▁breath	-10.3076
▁cedar	-10.3082
▁widow	-10.3083
▁horse	-10.3085
▁strike	-10.3085
▁Pharaohs	-10.3089
onotan	-10.3096
▁beast	-10.3097
▁stop	-10.3106
▁yoke	-10.3111
▁accord	-10.3111
▁keda	-10.3113
▁increase	-10.3114
▁papan	-10.3122
do	-10.3122
▁Amnon	-10.3124
▁Hibron	-10.3124
▁scroll	-10.3124
▁Katii	-10.3124
▁pride	-10.3124
▁Damascus	-10.3124
▁saints	-10.3124
▁pageemaan	-10.3124
▁Ramah	-10.3125
▁Sikim	-10.3125
▁revealed	-10.3127
▁miyakatelo	-10.3128
▁Noah	-10.3132
▁papak	-10.3134
▁loud	-10.3138
▁bought	-10.3138
▁forget	-10.3139
▁shekels	-10.3143
▁ipekebabaya	-10.3148
▁gasa	-10.315
▁Nok	-10.315
▁means	-10.3163
▁pleas	-10.3165
not	-10.3171
no	-10.3198
▁Ho	-10.3201
▁possess	-10.3202
▁mba	-10.3208
▁awid	-10.3268
▁terror	-10.327
▁mada	-10.3277
▁escape	-10.3301
▁sure	-10.3305
▁prepare	-10.3307
▁Barnabas	-10.3313
▁bayambayanan	-10.3313
▁splendor	-10.3313
▁offspring	-10.3315
▁Rakila	-10.3316
▁pasin	-10.3318
▁mapasang	-10.3318
▁daondaw	-10.3321
▁obarobar	-10.3326
▁kakesabet	-10.3327
▁babager	-10.3329
▁arina	-10.333
▁fulfilled	-10.3331
▁liyang	-10.3333
▁remained	-10.3338
▁bowis	-10.3344
▁tomanen	-10.3347
▁Mbaal	-10.3349
▁ends	-10.337
apoan	-10.3379
▁clouds	-10.338
▁gona	-10.3401
gen	-10.3405
tokawi	-10.3414
eg	-10.3427
lowan	-10.3431
▁kowaa	-10.3432
▁age	-10.3434
▁apostles	-10.345
▁upright	-10.3454
▁Lo	-10.3455
minowa	-10.3462
▁secret	-10.3464
yond	-10.3465
▁katokaw	-10.3472
▁ipenggolalan	-10.3482
▁baro	-10.3495
▁petego	-10.35
▁honey	-10.3505
▁Galilee	-10.3505
▁basket	-10.3505
▁Yahosapat	-10.3505
▁foolish	-10.3505
▁ear	-10.3505
▁Feast	-10.3505
▁lack	-10.3505
▁mandangan	-10.3506
▁value	-10.3508
▁maliwanag	-10.3508
▁taught	-10.3508
▁rantay	-10.3508
▁Naomi	-10.3512
▁sexual	-10.3512
▁matoon	-10.3513
▁migay	-10.3514
▁pan	-10.3523
▁sebenar	-10.353
mbaloy	-10.3534
▁apart	-10.3539
kesoy	-10.3539
▁kao	-10.3547
▁onaan	-10.3549
▁mapepen	-10.3564
est	-10.3565
et	-10.3574
▁Wh	-10.3589
▁koman	-10.3604
▁andang	-10.3607
▁happen	-10.3628
▁piyan	-10.3633
▁taon	-10.3634
▁ilaya	-10.3638
▁antap	-10.3643
▁neck	-10.3667
bagi	-10.367
▁portion	-10.368
▁witness	-10.3682
▁Can	-10.3684
▁poonan	-10.3691
▁wrote	-10.3701
▁miraculous	-10.3701
▁Istira	-10.3701
▁pananagikor	-10.3701
▁kamamanosiyai	-10.3701
▁bodies	-10.3702
▁apiy	-10.3702
▁kalalalongan	-10.3703
▁kindness	-10.3705
▁Solotan	-10.3706
▁crushed	-10.3709
▁established	-10.371
▁Satan	-10.3712
▁olive	-10.3712
mbaal	-10.3717
▁bobolos	-10.3717
▁maawid	-10.372
▁diwang	-10.3721
▁terimaan	-10.3736
▁Levi	-10.3737
▁ininggolalan	-10.374
niise	-10.3771
ni	-10.3782
▁belongs	-10.3783
iyapili	-10.3796
kibir	-10.3803
▁likod	-10.3804
▁forth	-10.381
▁pana	-10.3816
ped	-10.3826
▁kadato	-10.3845
▁met	-10.3861
▁piece	-10.3867
inggolaola	-10.3874
▁giyangk	-10.3878
ies	-10.3879
▁Sab	-10.3882
▁Peka	-10.3898
▁innocent	-10.3901
▁Mordikay	-10.3901
▁Hebron	-10.3902
▁streets	-10.3918
▁stars	-10.3919
▁Siriya	-10.392
▁delivered	-10.3921
▁wonders	-10.3926
ri	-10.3929
▁nggobat	-10.3931
▁Nggolalan	-10.3931
likodan	-10.3939
▁sacrificed	-10.3943
pepaginetaw	-10.3956
ipos	-10.397
pepangangarapan	-10.3973
agaw	-10.3978
▁nakoda	-10.3992
▁mak	-10.4032
emember	-10.4036
▁miyamang	-10.4037
▁promise	-10.4048
▁bound	-10.4063
▁sat	-10.4093
▁anoint	-10.4093
▁petotong	-10.4094
▁Bin	-10.4097
▁cloak	-10.4105
▁heavy	-10.4105
▁baraniyawa	-10.4105
▁Daughter	-10.4106
▁Hitiyo	-10.4106
▁Pilate	-10.4107
▁Hadad	-10.4107
▁marry	-10.411
▁miyakatalingoma	-10.411
▁ketoon	-10.4111
▁wh	-10.4112
▁swear	-10.4116
▁rod	-10.4117
▁refused	-10.4119
▁shouted	-10.4122
▁onta	-10.4128
▁sinful	-10.4128
▁nobles	-10.4132
▁attacked	-10.4134
▁horns	-10.4144
▁raise	-10.4144
served	-10.4156
▁boast	-10.4161
ek	-10.4165
ite	-10.417
▁lalakaw	-10.4171
▁keoyag	-10.4187
▁decree	-10.4194
▁peg	-10.4195
▁yours	-10.4213
ngka	-10.4213
olog	-10.4213
▁Somiyo	-10.4216
▁inise	-10.4227
▁ikalim	-10.4236
▁ra	-10.4249
▁miyama	-10.4263
aipos	-10.4269
▁region	-10.427
▁sogoon	-10.4271
▁pain	-10.4281
▁soon	-10.4286
▁reward	-10.4304
▁fortified	-10.4314
▁timplo	-10.4314
▁ngipen	-10.4315
onot	-10.4315
▁bore	-10.4318
▁piyam	-10.432
▁blue	-10.432
▁ranaw	-10.4324
▁Canaanites	-10.4326
▁kababaan	-10.4328
lalakaw	-10.4337
▁gomiya	-10.4358
▁robe	-10.4362
▁willing	-10.4364
▁pesong	-10.4375
▁rooms	-10.4388
inili	-10.4392
▁Rek	-10.4397
▁pekedeg	-10.4398
▁oona	-10.4406
▁judges	-10.4412
▁act	-10.4427
pegilaya	-10.4453
ather	-10.4471
▁force	-10.448
▁miyamaka	-10.4488
▁crown	-10.4495
▁kebinasa	-10.4495
echariah	-10.4523
▁ephod	-10.4526
▁Jericho	-10.4526
▁Abimilik	-10.4526
▁Rehoboam	-10.4526
▁Rihobowam	-10.4526
▁Yosiyas	-10.4527
▁silent	-10.4528
▁speaks	-10.4528
▁Yowas	-10.4529
▁makapal	-10.4529
▁makipetidawa	-10.4531
red	-10.4532
▁tomorrow	-10.4532
▁Sihon	-10.4533
▁abandon	-10.4533
ueen	-10.4533
▁kapapantagan	-10.4536
▁streams	-10.4536
▁lompok	-10.4538
naw	-10.4539
▁makitidawa	-10.4539
▁learned	-10.4539
▁taking	-10.4539
li	-10.454
▁Mary	-10.454
▁deal	-10.4546
▁Goro	-10.4551
▁mababa	-10.4552
talondog	-10.4561
▁herds	-10.4567
▁Does	-10.457
▁bote	-10.4582
▁wanted	-10.4583
▁koden	-10.4587
▁early	-10.4591
use	-10.4591
owa	-10.4595
▁lalaw	-10.4599
▁thoughts	-10.46
▁oongangen	-10.4614
▁kasoy	-10.4632
iniraot	-10.4646
kat	-10.4652
▁Korah	-10.4661
uire	-10.4677
▁seventy	-10.4694
▁subject	-10.47
▁choose	-10.4702
▁shield	-10.4702
▁border	-10.4705
▁pepanalagad	-10.4717
▁suffering	-10.4726
▁dwelling	-10.4727
▁disgrace	-10.4728
▁prophesy	-10.4731
▁advice	-10.4743
pekeneg	-10.4744
▁lampstand	-10.4744
▁testify	-10.4745
▁faithfulness	-10.4746
▁magiinged	-10.4746
▁saksi	-10.4746
▁miyamemesa	-10.4746
▁slain	-10.4748
▁perimon	-10.4749
▁circumcised	-10.4749
▁biro	-10.4754
▁Never	-10.4756
arakmatan	-10.4758
▁talking	-10.4759
▁clothing	-10.476
▁consecrated	-10.476
▁divided	-10.4761
▁crossed	-10.4767
▁youth	-10.4774
▁path	-10.4777
▁caused	-10.478
▁divisions	-10.4783
▁walked	-10.4784
▁ribat	-10.4784
▁Kowa	-10.4787
▁torn	-10.4788
▁forgiven	-10.4788
▁gomaan	-10.4789
iisaisa	-10.4815
▁ilaw	-10.482
▁prisoner	-10.4822
lay	-10.4839
▁ndiditar	-10.4849
gaw	-10.4864
cross	-10.4868
lalayon	-10.4873
▁kasong	-10.4877
▁Did	-10.4878
▁wave	-10.4888
anda	-10.4894
▁appear	-10.4895
▁tear	-10.4902
▁visit	-10.4904
ile	-10.4904
▁examine	-10.4909
▁comfort	-10.4911
▁Damasko	-10.4921
▁vine	-10.4923
▁valley	-10.4924
▁kalilimod	-10.4925
▁Big	-10.4935
▁seem	-10.4936
two	-10.4939
▁refuse	-10.4963
▁womb	-10.4965
▁Ismail	-10.4966
▁City	-10.4966
▁Shechem	-10.4966
▁proud	-10.4966
▁blameless	-10.4966
▁Adam	-10.4967
▁powerful	-10.4968
▁miyangangarapan	-10.4969
▁Benar	-10.4969
▁piyayag	-10.4969
▁Pira	-10.4972
▁prostitute	-10.4974
▁Tomo	-10.4974
▁dressed	-10.4976
▁forward	-10.4977
uired	-10.4978
▁parents	-10.498
▁ongos	-10.4987
▁realize	-10.4988
▁Yasay	-10.4991
▁practices	-10.4999
▁faces	-10.4999
▁diso	-10.5004
rarata	-10.5008
▁moon	-10.5012
▁presented	-10.5013
ked	-10.5015
▁Herod	-10.5016
▁trumpets	-10.5017
oyag	-10.5019
▁sasarigan	-10.5021
▁sangan	-10.5027
▁tomb	-10.503
▁tatago	-10.5045
▁talikodi	-10.5047
herefore	-10.5051
▁low	-10.5058
▁initoro	-10.5075
▁masters	-10.5078
▁ndato	-10.5084
dasan	-10.5098
▁fail	-10.5102
▁e	-10.5105
takdir	-10.5107
▁kanggolaolaa	-10.5113
▁Don	-10.5119
ers	-10.514
king	-10.5141
titindeg	-10.5149
▁image	-10.5154
▁bird	-10.5154
▁spear	-10.5174
▁fulfill	-10.5178
▁thousands	-10.5179
▁Reuben	-10.5192
▁Abnir	-10.5193
▁hungry	-10.5193
▁Yariko	-10.5193
▁Jehoiada	-10.5193
▁milk	-10.5193
▁Kinowa	-10.5193
▁Sakariyas	-10.5194
▁everlasting	-10.5194
▁itself	-10.5195
▁kingdoms	-10.5196
▁kapetero	-10.5199
▁siyo	-10.5199
▁camels	-10.52
▁mixed	-10.5202
▁Sinay	-10.5203
▁seized	-10.5204
▁Babylonians	-10.5205
▁pepakalangkap	-10.5207
▁shut	-10.5209
aya	-10.521
▁fifth	-10.521
▁slaughtered	-10.5213
▁spend	-10.5216
miyakimbitiyarai	-10.5217
▁lig	-10.5225
▁observe	-10.5232
▁penggoraok	-10.5236
▁camped	-10.5247
▁mataid	-10.5249
▁thresh	-10.5251
▁ruins	-10.5253
▁ox	-10.5255
▁sembag	-10.5262
▁sondal	-10.5263
▁bulls	-10.5268
▁pali	-10.5285
nggolalanen	-10.5299
▁tents	-10.5304
tataros	-10.5306
▁inisengga	-10.5306
sesenggay	-10.5306
▁hearing	-10.5307
▁sprinkle	-10.5309
▁tomiy	-10.5314
day	-10.5326
▁begi	-10.5329
▁pronounce	-10.5332
basa	-10.5336
▁Ishmael	-10.5343
oled	-10.5369
▁months	-10.5369
▁feast	-10.5371
songowan	-10.5383
▁shepherd	-10.5384
▁malo	-10.5388
ook	-10.5406
▁touch	-10.5407
liliyo	-10.5413
▁restore	-10.5417
uiet	-10.5419
▁Josiah	-10.5425
▁scarlet	-10.5425
▁Bethlehem	-10.5426
▁flood	-10.5426
▁terrified	-10.5426
▁middle	-10.5426
▁distance	-10.5426
▁Pista	-10.5428
▁bantad	-10.5428
▁kapantaran	-10.5428
▁weep	-10.5428
▁created	-10.5429
▁human	-10.5429
▁pemonoon	-10.5429
▁pesowaan	-10.5431
▁sick	-10.5434
▁talents	-10.5438
▁kapengokom	-10.5447
▁riches	-10.5451
atay	-10.5458
te	-10.5459
▁Amen	-10.5463
▁villages	-10.5466
▁kalaboso	-10.5467
iyabaloy	-10.5469
oon	-10.5473
▁shepherds	-10.5474
▁beasts	-10.5478
▁desires	-10.5486
▁Re	-10.5487
▁Mika	-10.5499
▁listened	-10.5505
▁La	-10.5509
ibibilang	-10.5546
▁separate	-10.5552
ught	-10.5554
▁rido	-10.5561
▁Bar	-10.5575
▁mat	-10.5585
▁Yoda	-10.56
▁chariot	-10.5602
▁wants	-10.5608
▁village	-10.5622
▁Sela	-10.5625
▁tanor	-10.5633
▁march	-10.5633
▁hour	-10.5635
▁learn	-10.5636
▁rakmat	-10.5649
rose	-10.5649
▁reach	-10.5653
pembegay	-10.5655
▁ephah	-10.5663
▁teeth	-10.5663
▁unfaithful	-10.5663
▁Hibriyo	-10.5663
▁remnant	-10.5663
▁Yopratis	-10.5664
▁Bashan	-10.5664
▁boundary	-10.5664
▁Amasiyas	-10.5664
▁pepamaratiyaya	-10.5664
▁marriage	-10.5664
▁punishment	-10.5664
▁Yodiya	-10.5665
▁miyontod	-10.5666
▁pekapiya	-10.5666
▁Hagar	-10.5667
▁mapoti	-10.5669
▁ketatap	-10.5669
▁dark	-10.567
▁makapito	-10.5674
▁ashamed	-10.5675
▁Gate	-10.5677
▁flowing	-10.5679
epakay	-10.5679
▁stretch	-10.568
▁pista	-10.5682
▁g	-10.5683
▁ari	-10.5684
▁preached	-10.5685
▁Sayan	-10.5686
▁carrying	-10.5696
▁Naaman	-10.5698
mi	-10.5699
▁itagon	-10.5699
▁Piyaka	-10.5704
ten	-10.5716
▁kaongangen	-10.5724
▁Jew	-10.5726
▁ceremonial	-10.5728
iyas	-10.5732
▁miyono	-10.574
▁Rib	-10.5777
▁sell	-10.5779
tiyagar	-10.5797
▁acknowledge	-10.5805
▁inam	-10.5807
▁piti	-10.5809
▁sindaw	-10.5811
▁igaan	-10.5812
▁spirits	-10.5834
▁maoona	-10.5842
▁palad	-10.5858
▁wear	-10.5862
▁Philistine	-10.5866
▁garment	-10.5866
▁pepaka	-10.5868
▁division	-10.5868
handed	-10.5869
▁celebrate	-10.5875
lo	-10.5884
▁Rachel	-10.5901
▁Whi	-10.5901
▁maila	-10.5903
▁edge	-10.5906
▁enjoy	-10.5907
▁High	-10.5907
▁higos	-10.5907
▁malilimod	-10.5907
▁lomilintad	-10.5908
▁rebelled	-10.5908
▁pledge	-10.5908
▁gerab	-10.5908
▁ladiya	-10.5908
▁miyakasambi	-10.5908
▁komasoy	-10.5908
▁reban	-10.5911
▁siege	-10.5912
▁defeated	-10.5912
▁wawaraw	-10.5913
▁kokoong	-10.5913
▁exalted	-10.5913
▁mbarambarang	-10.5914
▁ketago	-10.5914
▁Hiram	-10.5915
▁kanggobat	-10.5921
ngan	-10.5921
▁demons	-10.5921
▁lake	-10.5921
ginetaw	-10.5922
▁Men	-10.5924
▁mourning	-10.5925
▁kawang	-10.5931
▁madalem	-10.5931
▁sides	-10.5959
▁point	-10.5971
▁kowa	-10.5989
▁Wit	-10.5993
▁keden	-10.5996
special	-10.6003
▁lot	-10.6008
▁pot	-10.6026
▁formed	-10.6038
▁orders	-10.6043
▁Pleas	-10.6054
▁kapita	-10.6055
▁J	-10.6059
▁antona	-10.6067
walo	-10.6075
laden	-10.6091
▁miyawa	-10.6102
▁Amasa	-10.612
▁letter	-10.6122
▁pepaman	-10.6132
▁forest	-10.6134
▁pegowit	-10.6136
tag	-10.6137
▁Tel	-10.6138
▁rid	-10.614
▁stands	-10.6142
▁discipline	-10.6151
▁regular	-10.6154
▁Pilipi	-10.6157
▁Job	-10.6157
▁marapatik	-10.6157
▁Ikanaanen	-10.6157
▁sackcloth	-10.6157
▁Amon	-10.6158
▁Place	-10.6158
▁Simeon	-10.6158
▁miyamaratiyaya	-10.6158
▁support	-10.6158
▁herself	-10.6158
▁sowasowai	-10.6158
▁mimbowat	-10.616
▁sudden	-10.616
▁Mowabiyo	-10.6161
▁tinimo	-10.6162
▁pangkatan	-10.6165
▁course	-10.6166
▁oppressed	-10.6168
▁Haran	-10.617
▁Kowaa	-10.6172
▁sinners	-10.6173
▁assign	-10.6175
win	-10.6177
▁needy	-10.6183
taros	-10.6191
▁rams	-10.6219
▁kesabet	-10.6225
▁pepama	-10.6228
nd	-10.626
▁Paka	-10.6266
limod	-10.6281
▁le	-10.6285
▁idol	-10.6291
▁miyak	-10.63
▁worked	-10.6305
▁wept	-10.6325
▁disease	-10.6355
▁synagogue	-10.6372
▁jar	-10.6372
▁ilo	-10.6373
▁bobon	-10.6377
▁pillar	-10.638
▁Yahowa	-10.6383
▁shed	-10.6385
▁oppose	-10.6389
▁remove	-10.6401
▁sees	-10.6402
▁change	-10.6408
▁Ahaz	-10.6413
▁Should	-10.6414
▁River	-10.6414
▁Bitlihim	-10.6414
▁firm	-10.6414
▁pekabinasa	-10.6416
▁kaiimami	-10.6416
apaat	-10.6418
▁music	-10.642
▁carefully	-10.642
▁Azariah	-10.6422
▁assembled	-10.6423
▁chains	-10.6425
▁ngongoda	-10.6425
▁declared	-10.6427
▁adultery	-10.6427
▁kapenggoraok	-10.6427
ter	-10.643
▁weeping	-10.643
▁Se	-10.643
▁witnesses	-10.6434
all	-10.6434
▁cave	-10.6438
▁Basan	-10.6438
aken	-10.6439
▁raben	-10.6441
elondog	-10.6448
▁remembered	-10.6448
▁talikodan	-10.6452
▁covering	-10.6454
rowarowang	-10.6454
▁walking	-10.6456
▁spreading	-10.646
▁obeyed	-10.6462
▁pity	-10.6465
▁tears	-10.6465
▁vineyards	-10.6482
▁lions	-10.6486
▁courts	-10.6493
pagiinged	-10.6494
▁kaporoan	-10.6495
ce	-10.6517
▁siy	-10.6522
▁tampa	-10.6529
taan	-10.6533
nisembag	-10.6535
▁plot	-10.6548
awa	-10.6555
per	-10.6557
▁kakorban	-10.6566
▁otang	-10.6575
▁urge	-10.658
anah	-10.6585
siyowa	-10.6597
▁Ar	-10.6612
▁prince	-10.6625
▁Gideon	-10.6625
ikempo	-10.6627
▁language	-10.6632
kibantog	-10.6644
lawan	-10.6644
▁pick	-10.6657
▁clear	-10.6659
un	-10.666
▁store	-10.6662
anga	-10.667
▁respect	-10.667
▁drank	-10.6676
▁fierce	-10.6677
▁precious	-10.6677
▁Mizpah	-10.6677
▁responsible	-10.6677
▁Simiyon	-10.6677
▁sandil	-10.6677
▁lightning	-10.6677
▁kebalingan	-10.6678
▁Jesse	-10.6678
▁Asirah	-10.6678
▁maaleken	-10.6679
▁piyakatindeg	-10.6679
▁bibiyag	-10.6679
▁Nahor	-10.6681
▁miyakadowa	-10.6681
▁vow	-10.6681
▁miyakapat	-10.6682
▁invited	-10.6684
▁worthy	-10.6688
▁baogan	-10.669
▁Arameans	-10.6693
▁pepamakineg	-10.6697
▁ruined	-10.6701
▁purp	-10.6704
▁horn	-10.6706
▁hadas	-10.671
▁inawa	-10.6712
▁talondog	-10.6713
▁seat	-10.6715
▁plans	-10.6717
▁kasiksaan	-10.6718
be	-10.673
▁kiyambaal	-10.6731
soled	-10.6735
▁Piy	-10.674
▁net	-10.6743
giyoto	-10.6748
tarotop	-10.6757
ragon	-10.6761
baya	-10.677
▁tatap	-10.6772
▁Ra	-10.6773
▁parts	-10.6775
▁mosawir	-10.6777
oth	-10.6782
▁approach	-10.6792
nem	-10.6803
▁Te	-10.6823
gi	-10.6828
▁Judea	-10.6835
rings	-10.6859
▁kapiya	-10.6859
▁aroma	-10.687
▁wander	-10.6873
▁practice	-10.6875
▁kan	-10.6877
gay	-10.6878
▁Ki	-10.6894
rak	-10.6896
▁Ha	-10.6896
baad	-10.6897
▁straight	-10.6899
song	-10.6899
uestion	-10.6903
▁foundation	-10.6907
▁Desert	-10.6928
adok	-10.6941
▁utter	-10.6942
▁bitter	-10.6944
▁rareb	-10.6947
▁numerous	-10.6947
▁Bilibili	-10.6947
▁Santiyago	-10.6947
▁running	-10.6947
▁astray	-10.6949
▁behalf	-10.695
▁baptized	-10.6952
▁tried	-10.6955
▁Silas	-10.6956
▁lamba	-10.6958
▁kakepapas	-10.6959
▁wheat	-10.6961
▁perakmatan	-10.6961
▁counted	-10.6961
▁mapipiya	-10.6962
▁mood	-10.6965
▁treasures	-10.6972
▁posts	-10.6974
ki	-10.6975
▁Inowit	-10.6975
▁ti	-10.6976
▁repay	-10.6976
▁Ahas	-10.6979
kowa	-10.698
aon	-10.6981
▁past	-10.6996
▁makipe	-10.6998
ogat	-10.701
▁Gat	-10.7024
▁rested	-10.7034
▁play	-10.7039
▁Pepa	-10.7045
▁measur	-10.7053
ual	-10.7099
▁governor	-10.7119
▁fac	-10.7122
pama	-10.713
▁roof	-10.713
placed	-10.714
ipageepeda	-10.7154
▁kitoman	-10.7157
▁scatter	-10.7162
lokes	-10.7168
▁deceive	-10.7173
▁minister	-10.7175
▁Sheba	-10.7183
▁makan	-10.7186
▁teacher	-10.719
hap	-10.7197
bat	-10.7201
▁penggolaola	-10.721
▁redeem	-10.7211
▁miyakasela	-10.7215
▁settle	-10.722
ough	-10.722
iyawag	-10.7222
▁Midian	-10.7224
▁Arnon	-10.7225
▁Ribikah	-10.7225
▁drove	-10.7225
▁glorious	-10.7225
▁padian	-10.7225
▁Nadab	-10.7225
▁Teacher	-10.7225
▁Liyah	-10.7225
▁snare	-10.7225
▁Ahaziah	-10.7226
riah	-10.7226
▁kotiyapi	-10.7226
▁pepangoyag	-10.7227
▁kadaondaw	-10.7229
▁ikesoat	-10.7229
▁tablets	-10.723
▁miyakaliyo	-10.723
▁kebono	-10.7231
▁saliko	-10.7232
▁sodiin	-10.7233
▁pepanamar	-10.7236
▁Makir	-10.7237
ned	-10.7238
▁Ham	-10.7239
▁crops	-10.7244
ation	-10.7257
apipikir	-10.726
▁proclaimed	-10.726
▁komiyaden	-10.7277
▁shields	-10.7278
▁count	-10.7285
nstead	-10.7293
▁instead	-10.7303
▁salt	-10.7309
▁tongues	-10.7309
▁somasang	-10.7311
▁tied	-10.7311
▁Wil	-10.7326
▁kababaya	-10.7338
▁Send	-10.7345
▁tindo	-10.7347
▁kiyap	-10.7351
awid	-10.7352
▁oran	-10.7353
▁overtake	-10.736
▁songowan	-10.7361
rangan	-10.7375
ago	-10.7378
▁piyakasong	-10.7386
▁warn	-10.7399
▁falls	-10.742
baling	-10.7423
pas	-10.7424
ik	-10.744
obat	-10.7441
▁produce	-10.7455
mamasaan	-10.746
▁pepangangarapan	-10.7465
▁province	-10.747
▁pegawid	-10.7476
ally	-10.7483
▁Awa	-10.7498
pah	-10.7499
adan	-10.7503
▁speech	-10.7506
▁foreign	-10.7508
▁Ramot	-10.7508
sowasowa	-10.751
▁Gimowa	-10.751
▁James	-10.751
▁Mordecai	-10.751
▁violence	-10.751
▁Amaziah	-10.751
▁Naphtali	-10.751
▁Gibiyon	-10.751
▁Peace	-10.7511
▁Amalik	-10.7511
▁leaving	-10.7511
▁regulations	-10.7511
▁tarapan	-10.7511
▁writing	-10.7512
▁Pirsiya	-10.7512
▁kebelag	-10.7512
▁tiyotong	-10.7513
▁pikorban	-10.7513
▁Bowas	-10.7513
▁kalodan	-10.7513
▁pekakowa	-10.7514
▁makatitiyagar	-10.7515
▁perfect	-10.7517
▁pepodin	-10.7518
▁malebod	-10.7518
▁Tatap	-10.7518
▁mbabasokan	-10.7518
▁events	-10.7519
▁stumble	-10.7519
▁bangkala	-10.752
▁foes	-10.7521
ipekelek	-10.7527
▁komi	-10.7535
▁sekami	-10.7539
▁warriors	-10.7539
▁ourselves	-10.7539
▁thinking	-10.7543
▁plead	-10.7551
ako	-10.7566
po	-10.7567
▁pepekaoma	-10.757
▁kasasarigan	-10.7574
▁lands	-10.7574
▁kateroa	-10.7578
▁Nabi	-10.7579
▁burden	-10.7585
▁lose	-10.759
▁pekailay	-10.7595
▁sorrow	-10.7605
▁bibinasa	-10.7607
▁Juda	-10.7614
▁per	-10.7633
egan	-10.7643
▁biga	-10.7644
▁arms	-10.7646
▁looks	-10.7657
ampon	-10.7666
ether	-10.7669
▁air	-10.7676
▁swords	-10.7679
▁po	-10.7686
▁leaves	-10.7691
▁fully	-10.7711
▁perfume	-10.7724
▁te	-10.7737
ilebad	-10.7739
bay	-10.7743
▁form	-10.7747
▁piyama	-10.7748
▁mbaal	-10.7756
tindeg	-10.7769
▁tomiyaro	-10.7776
▁fig	-10.778
▁spare	-10.7793
▁Je	-10.7796
▁Wa	-10.7796
z	-10.7798
lagid	-10.78
▁kasasarig	-10.7801
▁humble	-10.7804
▁Joash	-10.7804
▁sets	-10.7804
▁Gibeah	-10.7804
▁Savior	-10.7804
▁female	-10.7804
▁Naptali	-10.7804
▁gracious	-10.7804
▁welcome	-10.7804
▁countries	-10.7805
▁masosowa	-10.7805
▁worthless	-10.7805
▁pegilain	-10.7805
▁relations	-10.7806
▁thorns	-10.7808
▁miracles	-10.781
▁miyasowasowa	-10.7811
▁maolad	-10.7814
▁satisfied	-10.7814
▁ketotong	-10.7814
▁feed	-10.7815
kapagidad	-10.7816
▁kiyaawa	-10.7816
▁performed	-10.7817
▁kapekaoma	-10.7818
pagise	-10.7819
▁Ta	-10.7821
▁corners	-10.7824
▁antangan	-10.7824
▁cows	-10.7824
▁makasong	-10.7825
▁arrows	-10.7826
▁Maga	-10.783
mong	-10.783
▁Hittites	-10.7831
▁wita	-10.7838
▁Hamath	-10.7841
▁nature	-10.7843
▁praying	-10.7844
▁makakasoy	-10.7846
▁paths	-10.7847
▁pendatoon	-10.785
▁Ndodo	-10.7855
▁Barak	-10.7857
▁giyaw	-10.7857
▁Gath	-10.7862
inisayan	-10.7865
▁pelinding	-10.7867
▁lompiyo	-10.7889
▁Lag	-10.7891
megay	-10.7901
▁Giy	-10.7905
▁tiyaban	-10.7907
lang	-10.7915
▁remains	-10.7917
rambit	-10.7918
▁bury	-10.7919
▁Pakineg	-10.7922
way	-10.7926
▁Paki	-10.7927
▁angka	-10.7936
iset	-10.7938
dosa	-10.7939
ompong	-10.7957
▁plan	-10.7963
miyareg	-10.7964
▁opposit	-10.7972
siksa	-10.7975
▁fact	-10.7977
▁ikeda	-10.7981
peak	-10.7997
▁pekapoon	-10.8006
▁thank	-10.8012
isaisa	-10.8013
opak	-10.8015
▁inherit	-10.8031
rying	-10.8033
▁Ro	-10.8036
asa	-10.804
▁mape	-10.8046
ern	-10.8047
▁tremble	-10.8049
▁dear	-10.805
binasaan	-10.8054
▁cubit	-10.8063
▁heal	-10.8066
ban	-10.8072
▁treat	-10.8084
▁Nathan	-10.8087
ron	-10.8088
kerata	-10.8089
▁counsel	-10.8091
▁despise	-10.8106
▁beauty	-10.8107
▁choice	-10.8107
▁yarn	-10.8107
▁different	-10.8107
▁Yahoyada	-10.8107
▁Testimony	-10.8107
▁panonorat	-10.8107
▁Itiyopiya	-10.8107
▁rebellious	-10.8107
▁Hibosiyo	-10.8108
▁Three	-10.8108
▁victory	-10.8108
▁devil	-10.8108
▁Mispah	-10.8108
▁riyakmatan	-10.8109
▁palm	-10.8112
▁tiyoman	-10.8113
▁wages	-10.8114
▁miyakapatay	-10.8114
▁pitiyagar	-10.8114
▁pagokitan	-10.8115
▁piyakiwit	-10.8117
▁kapetay	-10.8121
▁makimbitiyarai	-10.8122
kano	-10.8122
inibetad	-10.8126
▁restored	-10.8128
angon	-10.813
▁makowa	-10.8131
▁Sinai	-10.8136
▁storm	-10.8141
▁provided	-10.8143
sabap	-10.8143
▁sebeten	-10.8145
▁lamp	-10.8147
▁ombi	-10.8148
▁bekaw	-10.8157
▁thunder	-10.816
dowa	-10.8162
tong	-10.8167
▁teta	-10.8177
▁springs	-10.818
▁protect	-10.8181
ol	-10.8184
▁mapopos	-10.8184
▁asar	-10.8187
▁raon	-10.8196
▁praised	-10.8198
▁kabinasaan	-10.82
▁drinking	-10.8205
▁inawidan	-10.8214
itimotimo	-10.8232
▁winds	-10.8234
▁mbangon	-10.824
▁numbers	-10.8257
▁add	-10.8258
▁tho	-10.8267
▁unt	-10.829
▁Shall	-10.8292
▁matata	-10.8293
over	-10.8302
kawan	-10.8306
inamen	-10.8314
▁tomiya	-10.8322
▁pisoso	-10.8337
iyangon	-10.8356
▁shadow	-10.8377
▁pasture	-10.8382
▁pekan	-10.8386
▁mouths	-10.8387
▁wonder	-10.8387
▁Giyangk	-10.8392
▁eight	-10.8396
▁anguish	-10.8399
hile	-10.8399
▁forsake	-10.8401
▁mag	-10.8401
▁Mbowa	-10.8403
▁chose	-10.8403
has	-10.8411
▁Rebekah	-10.842
▁rebuilt	-10.842
▁Abimelech	-10.842
▁Gibiyah	-10.842
▁tirikan	-10.8421
▁bombol	-10.8421
▁Asherah	-10.8421
▁amazed	-10.8421
▁masosoti	-10.8421
▁piyakayaya	-10.8421
▁Asariyas	-10.8422
osar	-10.8426
▁grapes	-10.8428
▁Sadok	-10.8429
▁Tiyago	-10.8432
▁masakit	-10.8433
▁bagiyaw	-10.8433
▁pekabaling	-10.8435
▁steps	-10.8437
▁beat	-10.8437
▁former	-10.8438
kes	-10.8439
▁claim	-10.8441
▁tibal	-10.8442
▁Data	-10.8444
▁wearing	-10.8445
▁short	-10.8447
▁hid	-10.8449
▁mapapato	-10.845
ipapaar	-10.8453
▁kamoralaan	-10.8454
▁cursed	-10.8454
karani	-10.8455
▁younger	-10.8459
▁treated	-10.8459
▁below	-10.846
▁makasoled	-10.846
▁bases	-10.846
liyo	-10.8463
kebabaya	-10.847
▁pillars	-10.8471
pakawit	-10.8487
uarrel	-10.8489
▁widows	-10.849
▁rending	-10.8501
▁miyangon	-10.8503
▁fools	-10.8513
▁plants	-10.8517
niyan	-10.8522
▁Pekebabaya	-10.8528
▁kibegay	-10.8528
iyatero	-10.8546
▁min	-10.8554
▁panog	-10.8556
bap	-10.8557
▁ashes	-10.8557
▁ac	-10.8559
▁peteroa	-10.8566
▁kiy	-10.8595
▁pete	-10.8623
bir	-10.8624
▁Hor	-10.8629
▁Gibeon	-10.8648
▁minggaga	-10.8654
▁El	-10.866
ts	-10.8663
miyong	-10.8689
▁wound	-10.8696
▁captive	-10.8701
▁creature	-10.8701
▁harp	-10.8705
rakmatan	-10.8708
yat	-10.8723
ibilang	-10.8723
▁condemn	-10.8728
▁consecrate	-10.8729
inilebeng	-10.873
ebulun	-10.874
▁Philip	-10.8741
▁devote	-10.8742
▁Jezreel	-10.8742
▁Gedaliah	-10.8742
▁Esther	-10.8742
▁Beersheba	-10.8742
▁eager	-10.8742
▁rebellion	-10.8743
▁Siloh	-10.8743
▁pregnant	-10.8743
▁stripped	-10.8743
▁moment	-10.8743
▁majesty	-10.8743
▁swallow	-10.8744
▁kamaregenan	-10.8744
▁inhabitants	-10.8745
▁Today	-10.8745
▁korma	-10.8745
▁meaningless	-10.8745
▁mitataralo	-10.8746
▁Kaleb	-10.8746
▁miyabalo	-10.8748
kagemaw	-10.8748
▁Okay	-10.8748
▁saragon	-10.8749
▁mabinasa	-10.8751
▁smoke	-10.8751
▁lepo	-10.8752
▁Nothing	-10.8753
▁ndanegen	-10.8755
▁rarakmatan	-10.8757
▁mategas	-10.8757
▁redeemed	-10.8759
▁older	-10.876
▁heights	-10.876
▁traveled	-10.876
mbag	-10.8762
▁pagosar	-10.8763
▁condemned	-10.8764
▁Thank	-10.8764
▁kataero	-10.8767
▁consumed	-10.8768
tad	-10.8769
iyapayag	-10.8775
▁karam	-10.8775
▁catch	-10.8777
▁block	-10.8777
▁washed	-10.8782
▁kapepanalagad	-10.8788
▁bowls	-10.8789
▁kilakilat	-10.8792
▁thirsty	-10.8793
▁makap	-10.8793
▁Horon	-10.8794
pekorban	-10.8798
mbawata	-10.8805
▁acts	-10.8819
▁sangkad	-10.8819
▁girls	-10.8823
▁pema	-10.8826
▁seal	-10.8834
mbawataan	-10.8837
▁exiles	-10.8838
▁Telo	-10.884
▁visions	-10.8843
▁try	-10.8846
▁possessions	-10.8849
▁roron	-10.8854
▁encourage	-10.8854
▁mamara	-10.8857
tekaw	-10.8862
bo	-10.8864
omanoman	-10.8877
▁Natan	-10.8881
▁tanda	-10.8888
▁guards	-10.8896
▁okita	-10.89
▁pagariya	-10.8904
▁pekegowad	-10.8915
aiah	-10.8925
▁Osiya	-10.894
gembaal	-10.8949
▁kin	-10.8961
▁kakaden	-10.8965
▁flow	-10.8969
kerasay	-10.8976
▁kelek	-10.8999
▁oppress	-10.9008
pi	-10.9009
ili	-10.9016
▁declare	-10.9018
▁miyalek	-10.9027
▁kapepa	-10.9029
▁parable	-10.9036
▁Egyptian	-10.9038
▁pepamanimba	-10.9048
▁Begi	-10.9053
▁tago	-10.9065
▁owner	-10.9066
I	-10.9066
▁domada	-10.907
▁duty	-10.9074
▁spent	-10.9075
▁barley	-10.9075
▁Issachar	-10.9075
▁saladeng	-10.9076
▁tiyarima	-10.9076
▁gomagalebek	-10.9076
▁resurrection	-10.9076
▁Arabah	-10.9076
▁Sibolon	-10.9076
▁kasomba	-10.9076
▁Through	-10.9076
▁length	-10.9076
▁uncircumcised	-10.9077
▁kabokegan	-10.9077
▁gomiyoraok	-10.9077
▁entrusted	-10.9077
▁tekew	-10.9077
▁tax	-10.9077
▁confidence	-10.9077
▁dried	-10.9077
▁pekerarangitan	-10.9079
▁marayag	-10.9079
▁Seir	-10.908
▁miyaratiyaya	-10.9083
▁malilinding	-10.9083
▁pekakaden	-10.9083
▁miyaolaola	-10.9084
▁midada	-10.9087
▁karatas	-10.9095
▁fourteen	-10.9097
▁melalakaw	-10.9104
▁mababaya	-10.9108
wise	-10.9109
▁shine	-10.9114
▁kaliwanag	-10.9118
▁pekainom	-10.9118
▁lamps	-10.9118
▁watched	-10.9118
▁Am	-10.912
▁reap	-10.9125
iyabet	-10.9125
▁sasakit	-10.9125
▁foundations	-10.9128
▁leb	-10.913
▁minda	-10.9132
ted	-10.9132
▁forces	-10.9139
ig	-10.9142
▁Pag	-10.9143
▁salongan	-10.9149
nggalebek	-10.9182
rs	-10.9185
ke	-10.9187
sapaat	-10.9192
mataanan	-10.9194
▁tendan	-10.9206
fore	-10.922
▁pira	-10.9221
▁pagembaal	-10.9226
▁Nati	-10.9231
▁totolan	-10.9231
tro	-10.9237
wi	-10.9242
▁charges	-10.9246
▁minds	-10.9249
▁tarimaa	-10.9254
▁clothe	-10.9264
ilang	-10.9265
▁touche	-10.9266
▁pakipe	-10.9273
▁kiss	-10.9282
▁provoke	-10.9289
▁Brother	-10.9291
▁Sim	-10.93
kepalad	-10.9309
▁exchange	-10.9315
▁asks	-10.9322
mpar	-10.9327
▁pep	-10.9349
▁object	-10.935
bonoa	-10.936
▁arap	-10.9361
▁consume	-10.9364
▁faint	-10.9365
▁Leah	-10.9378
▁finger	-10.9379
▁Sing	-10.9385
▁alek	-10.939
▁heap	-10.9399
▁Maka	-10.9399
▁drunk	-10.9401
▁scorn	-10.9404
▁perform	-10.9406
▁explain	-10.9406
▁Jebusites	-10.9407
▁complete	-10.9413
▁reject	-10.9417
▁extend	-10.9418
▁calf	-10.9419
▁folly	-10.9419
▁Caesar	-10.942
▁oracle	-10.942
▁Shiloh	-10.942
▁Hilkiah	-10.942
▁kortina	-10.942
▁kapakamboboko	-10.942
▁lantawa	-10.9421
▁dug	-10.9421
▁Timotiyo	-10.9421
▁palapa	-10.9421
▁tipengan	-10.9422
▁twist	-10.9422
▁Piyanotol	-10.9422
▁Rota	-10.9422
▁consult	-10.9424
▁ragami	-10.9424
▁teneb	-10.9424
▁eighth	-10.9424
▁Simay	-10.9425
kategas	-10.9425
▁mapened	-10.9427
▁mabono	-10.9428
▁descend	-10.9429
▁makilala	-10.9429
▁nggagalebek	-10.943
▁dawn	-10.9431
▁weapons	-10.9436
▁mindato	-10.9437
▁meaning	-10.9439
▁instructed	-10.9439
▁seize	-10.944
▁Asir	-10.944
▁treaty	-10.9441
▁failed	-10.9442
▁changed	-10.9445
nega	-10.9448
inisorat	-10.9453
▁tomi	-10.9455
pelalis	-10.9458
▁accepted	-10.9463
initaog	-10.9465
▁bel	-10.9467
masa	-10.9467
▁forsaken	-10.9471
▁lekeb	-10.9471
▁thick	-10.9472
▁Keep	-10.9475
▁fruitful	-10.948
▁aloud	-10.9484
▁indaneg	-10.9485
▁robes	-10.9485
▁litag	-10.9489
▁pelad	-10.9505
▁pendato	-10.9507
▁pekalidas	-10.9508
▁pepangongonotan	-10.9512
▁sokay	-10.9512
▁leg	-10.9515
▁dies	-10.9515
▁advance	-10.9518
▁sowaa	-10.9522
▁feared	-10.9524
▁petegoa	-10.9528
▁mang	-10.9549
while	-10.9558
▁inaden	-10.9568
kekilala	-10.9574
▁mono	-10.9578
bal	-10.9586
pegantap	-10.959
kalangkap	-10.9602
ekan	-10.9606
yaw	-10.9611
▁lom	-10.962
▁giy	-10.9637
▁Jo	-10.9643
leading	-10.9645
mbagibagi	-10.9652
▁calls	-10.9669
taw	-10.9675
▁ship	-10.9698
ipesong	-10.97
▁Peke	-10.9707
pekapiya	-10.9707
▁pengaroma	-10.9711
uest	-10.9719
ity	-10.9728
ontod	-10.9731
▁bar	-10.9732
▁conscience	-10.9735
▁instruction	-10.9737
▁pleasure	-10.974
▁often	-10.9742
▁blow	-10.9747
▁Roma	-10.9756
▁rim	-10.9761
▁Per	-10.9762
▁divorce	-10.9763
▁kada	-10.9764
▁Kohat	-10.9768
▁grant	-10.9768
▁corrupt	-10.9772
▁empty	-10.9775
▁fortress	-10.9776
▁kemer	-10.9776
▁Birsiba	-10.9777
▁sobosobo	-10.9777
▁padagang	-10.9777
▁Alahotaala	-10.9778
▁pagingedingedan	-10.9778
▁vain	-10.9778
▁pagilain	-10.9778
▁Shaphan	-10.9778
▁Ahasiyas	-10.9778
▁horsemen	-10.9779
▁mapait	-10.9779
totong	-10.9779
▁Kataya	-10.978
▁Simayas	-10.9781
▁clay	-10.9782
▁hammer	-10.9782
▁Curse	-10.9783
▁defile	-10.9783
▁mitoman	-10.9784
▁pandoan	-10.9784
▁bokeg	-10.9784
▁lament	-10.9787
▁miyaoyag	-10.9789
▁akasiya	-10.979
▁Oriyas	-10.9791
▁masabet	-10.9792
▁Amin	-10.9795
▁despised	-10.9795
▁oodaren	-10.9795
▁fatherless	-10.9796
▁pemakinegen	-10.9797
▁makatalingoma	-10.9798
▁prophesying	-10.9799
▁foreigners	-10.9802
▁piyanga	-10.9803
▁shake	-10.9804
▁Ask	-10.9804
▁increased	-10.9806
▁testifie	-10.9806
▁kekadiyat	-10.9812
dayon	-10.9813
▁Other	-10.982
▁Tiya	-10.9822
▁Ti	-10.9823
▁indeed	-10.9829
▁malalagoy	-10.983
uet	-10.9835
▁roy	-10.9836
▁images	-10.9841
▁atep	-10.9849
danga	-10.9858
▁dog	-10.9858
▁strengthen	-10.9861
▁Nggolaolaa	-10.9864
▁kedaan	-10.9867
▁osto	-10.9874
▁de	-10.9875
▁adat	-10.9881
▁added	-10.9881
▁deserted	-10.989
▁katomana	-10.9898
▁overcome	-10.99
▁hire	-10.9901
▁Ab	-10.9907
▁roar	-10.9913
▁red	-10.9914
▁Any	-10.9914
kadiyat	-10.9914
▁penggolaolaa	-10.9915
ish	-10.9915
wata	-10.9935
pelalalis	-10.9939
▁crush	-10.9946
yon	-10.995
ate	-10.9954
▁sprinkl	-10.9963
▁hatin	-10.9969
▁simbaa	-10.997
▁Yo	-10.9973
▁betad	-10.9976
▁bibid	-10.9986
▁miyamano	-11.0018
▁rope	-11.0019
tano	-11.0025
imoon	-11.0034
▁Mat	-11.0057
ab	-11.006
▁takep	-11.0065
▁Gog	-11.0072
sisingayo	-11.008
caci	-11.0082
▁nggolalanen	-11.0091
tepengi	-11.0096
ep	-11.0105
▁kangoda	-11.0105
▁Hamat	-11.0112
▁trap	-11.0114
killed	-11.0128
▁mbabanog	-11.0142
▁Yasriil	-11.0146
▁detest	-11.0146
▁grief	-11.0146
▁porgada	-11.0146
▁Negev	-11.0146
▁Jehoiakim	-11.0146
▁Boaz	-11.0146
▁Jehoram	-11.0146
▁Would	-11.0146
▁Baasha	-11.0146
▁Joram	-11.0146
▁Jonah	-11.0146
▁purify	-11.0147
▁afflicted	-11.0148
▁Nile	-11.0149
▁depths	-11.015
▁company	-11.015
▁miyapasad	-11.0151
▁miyakitidawa	-11.0151
▁Isakar	-11.0152
▁sektano	-11.0152
▁secure	-11.0153
▁decided	-11.0153
▁ndadato	-11.0154
▁makapetero	-11.0154
▁New	-11.0154
▁cleansed	-11.0155
▁Amos	-11.0155
▁Han	-11.0157
▁salsila	-11.0158
▁trampled	-11.0158
▁matoman	-11.016
▁companions	-11.0169
▁wail	-11.017
▁price	-11.0171
▁oxen	-11.0173
▁dew	-11.0176
▁asleep	-11.0178
▁frames	-11.0183
isorat	-11.0189
▁ancient	-11.0189
pariksa	-11.0189
ongan	-11.019
▁Cut	-11.0196
▁oosog	-11.0201
▁overflow	-11.0203
will	-11.0207
▁amount	-11.0208
goraok	-11.0213
▁keneg	-11.0214
▁sayana	-11.0214
▁soil	-11.0234
tomanen	-11.0244
▁komiyan	-11.0251
▁piyakaliyo	-11.0257
▁pleases	-11.0265
▁kapamono	-11.0267
datar	-11.0271
▁parangay	-11.0281
▁spiritual	-11.0292
▁establish	-11.0295
▁baba	-11.0299
▁kapir	-11.0312
▁Penga	-11.0317
indeg	-11.0329
▁tiy	-11.0342
▁Miyane	-11.0349
ince	-11.0354
▁Ai	-11.0367
resikan	-11.037
▁gola	-11.0373
▁pekaliyo	-11.0383
▁piyang	-11.0384
▁sopak	-11.0385
lan	-11.0407
▁Peki	-11.041
ondas	-11.0418
▁mapapa	-11.0419
pepeno	-11.0425
▁kaooyago	-11.0454
ered	-11.0466
▁keona	-11.0467
▁prosper	-11.0467
▁stick	-11.0471
mah	-11.0471
masaan	-11.0481
lid	-11.0486
▁repent	-11.0489
▁miyaman	-11.0491
venge	-11.0493
▁pitiba	-11.0499
paginetaw	-11.0499
most	-11.05
▁finish	-11.0517
▁Mis	-11.0517
▁kambinasa	-11.052
▁gateway	-11.0522
ware	-11.0525
▁abundant	-11.0527
▁fragran	-11.053
▁deceit	-11.053
▁Heshbon	-11.0531
▁fifteen	-11.0531
▁furnace	-11.0531
▁kilomitro	-11.0531
▁mildew	-11.0531
▁portico	-11.0531
▁Hilkiyas	-11.0531
▁addition	-11.0531
▁annals	-11.0531
▁awesome	-11.0531
▁period	-11.0531
▁important	-11.0531
▁Lamb	-11.0531
▁ladiyawan	-11.0532
▁mimbabaling	-11.0532
▁secretary	-11.0532
▁coast	-11.0532
▁issue	-11.0533
▁sweet	-11.0533
▁simple	-11.0533
▁Micah	-11.0534
▁kaperimon	-11.0535
▁Amalekites	-11.0535
▁tomatagikor	-11.0535
▁prophesied	-11.0536
▁locusts	-11.0536
▁Mapasad	-11.0536
▁branch	-11.0537
▁kesowasowa	-11.0538
▁spices	-11.0538
▁dedicated	-11.0539
▁kelagid	-11.0539
▁ipelebad	-11.054
▁royod	-11.0541
▁school	-11.0542
▁samaya	-11.0543
▁conduct	-11.0543
▁granted	-11.0546
▁kiaawid	-11.0546
▁hiding	-11.0548
▁deceived	-11.0553
▁Of	-11.0553
▁kabarakat	-11.0555
ogop	-11.0559
▁shouting	-11.056
▁Prepar	-11.056
▁ipekidi	-11.056
S	-11.0563
▁shaken	-11.0568
▁kapaki	-11.0569
▁makakan	-11.0587
▁agreed	-11.0587
ketangan	-11.0592
tion	-11.0593
▁kapeg	-11.0594
▁lover	-11.0594
▁letters	-11.0595
▁troubled	-11.0601
▁safe	-11.0602
▁betray	-11.0605
▁pesepaat	-11.0613
erah	-11.0615
▁hates	-11.0621
▁tiyagar	-11.0621
▁kowan	-11.0624
▁laki	-11.0634
barangan	-11.0647
imbabawata	-11.0659
ily	-11.0669
▁kapakambebe	-11.067
bibida	-11.0674
▁kayaan	-11.068
▁start	-11.0682
iyaloy	-11.0689
▁pang	-11.0689
▁prayers	-11.069
papasang	-11.0696
▁pegokit	-11.0697
▁bare	-11.0698
▁pepaki	-11.0699
▁pili	-11.0701
mbegay	-11.0701
▁panene	-11.0703
▁Ben	-11.0706
raw	-11.0718
pet	-11.0733
mbabawata	-11.0747
▁pemaka	-11.0759
▁sabota	-11.0766
alikodan	-11.0775
iyaipos	-11.0779
▁pierce	-11.0785
▁lower	-11.0788
▁Me	-11.0788
▁pangangarapan	-11.0795
efore	-11.0796
▁handle	-11.08
koto	-11.0812
▁Sirah	-11.0813
▁mababas	-11.0818
▁slander	-11.083
aros	-11.083
dalem	-11.0854
laya	-11.0871
▁deserve	-11.0873
▁sakit	-11.0873
▁maki	-11.0878
▁relative	-11.0889
ipenggolalan	-11.0889
▁Levite	-11.089
▁shekel	-11.0891
▁officer	-11.0891
▁Was	-11.0891
▁kiyababaya	-11.0892
▁interpret	-11.0894
bilangen	-11.0901
▁pagaadat	-11.0902
▁hail	-11.0904
uare	-11.0908
▁difficult	-11.0915
▁Isiriyan	-11.0915
▁steal	-11.0917
▁stir	-11.0922
boniboniyan	-11.0926
▁patient	-11.0929
▁laugh	-11.0929
▁weigh	-11.093
▁Hibiyo	-11.0931
▁Sirksis	-11.0931
▁Twelve	-11.0931
▁abundance	-11.0931
▁firstfruits	-11.0931
▁salinggogopa	-11.0931
▁Jehoash	-11.0931
▁example	-11.0931
▁future	-11.0931
▁Niniba	-11.0931
▁Abner	-11.0931
▁karabaw	-11.0931
▁loaves	-11.0931
▁Caleb	-11.0931
▁prostitution	-11.0931
erxes	-11.0931
▁Omri	-11.0931
▁Watch	-11.0931
▁Abijah	-11.0931
▁pananaroon	-11.0931
▁appearance	-11.0932
▁piyangowit	-11.0932
▁masolen	-11.0932
▁Pagidaida	-11.0933
▁Alamat	-11.0933
▁kesala	-11.0933
▁poket	-11.0934
▁kikokoda	-11.0934
▁beneng	-11.0934
▁Ezra	-11.0935
▁Two	-11.0935
▁miyalalagoy	-11.0935
▁Micha	-11.0936
▁greatest	-11.0939
▁Great	-11.0939
▁Siyogo	-11.0939
▁kapista	-11.094
▁belonging	-11.094
▁lame	-11.0943
▁common	-11.0943
▁happy	-11.0944
▁Nail	-11.0944
▁magonot	-11.0945
▁kapekasoled	-11.0946
▁titito	-11.0946
▁double	-11.0946
▁Asher	-11.0947
▁Asaph	-11.0947
▁prey	-11.0948
▁pem	-11.0949
▁pekaokit	-11.0949
▁soroken	-11.0949
▁pananamar	-11.0956
ondagay	-11.0964
▁begel	-11.0966
▁instructions	-11.0978
zzi	-11.0982
▁idaida	-11.0984
▁badan	-11.0988
adena	-11.0989
▁season	-11.0992
▁waves	-11.0992
▁mamatay	-11.0993
▁trusted	-11.0994
▁More	-11.0995
lima	-11.1001
▁peseksi	-11.1003
▁appoint	-11.1009
▁Kaba	-11.101
sad	-11.1011
gor	-11.1014
▁kokomen	-11.1015
▁yield	-11.1016
hough	-11.102
▁accuse	-11.1023
▁control	-11.1031
▁boys	-11.1034
▁Earl	-11.1036
uake	-11.1039
how	-11.1045
alakaw	-11.1049
▁pekasabet	-11.1051
pekeilay	-11.1055
you	-11.1056
▁star	-11.1057
▁kiyasogo	-11.1063
▁manok	-11.1078
▁kaleken	-11.1084
pesong	-11.1096
▁Pala	-11.1102
▁mapaka	-11.1102
▁pakitokaw	-11.1105
▁ha	-11.1107
▁ibarat	-11.1108
▁songs	-11.1114
c	-11.1116
▁siya	-11.112
em	-11.1142
▁goods	-11.1146
parangay	-11.1153
leg	-11.1153
▁mark	-11.1158
▁miyam	-11.116
▁sesa	-11.1165
▁plow	-11.1166
▁gantang	-11.1166
▁tiyal	-11.1167
▁itoman	-11.1182
ger	-11.1212
▁hit	-11.1219
▁seeing	-11.1235
▁sarig	-11.1238
▁weight	-11.1239
▁Israels	-11.1239
▁homes	-11.1246
▁miyakapit	-11.1254
▁black	-11.1256
▁korang	-11.1261
manan	-11.127
▁Persia	-11.128
anodi	-11.1285
▁beg	-11.1292
▁Cush	-11.1298
▁crime	-11.1302
▁maidservant	-11.1305
▁Hebrew	-11.1305
▁disciple	-11.1305
▁base	-11.1306
▁Scripture	-11.1306
▁Dur	-11.1312
das	-11.1312
baw	-11.1316
▁murder	-11.133
▁wipe	-11.1331
race	-11.1334
▁somi	-11.1338
▁belt	-11.1344
▁heat	-11.1346
▁scepter	-11.1347
▁Yahoyakim	-11.1347
▁Ahikam	-11.1347
▁kadadaondaw	-11.1347
▁Nasarit	-11.1347
▁Masidoniya	-11.1347
▁Yahoram	-11.1347
▁lolobay	-11.1347
▁Greet	-11.1348
▁captain	-11.1348
▁result	-11.1348
▁divide	-11.1348
▁riyaot	-11.1348
▁barren	-11.1348
▁Abisay	-11.1348
▁Hisbon	-11.1348
▁tiyowang	-11.1348
▁kiyataksil	-11.1348
▁Yonas	-11.1349
▁slavery	-11.1349
▁Pepanabet	-11.1349
▁Hananiah	-11.1349
▁kapekerarangiti	-11.1349
▁confirm	-11.1349
▁profane	-11.135
▁shoot	-11.135
▁Barok	-11.1351
▁scales	-11.1352
▁Yabis	-11.1353
▁Girson	-11.1354
▁itado	-11.1355
▁panginam	-11.1355
▁Hivite	-11.1356
▁forgotten	-11.1356
▁tribute	-11.1358
belang	-11.1358
▁mapangaroma	-11.1358
▁tanganiyaya	-11.1358
▁miyababaya	-11.1359
▁wawatan	-11.136
▁makapendato	-11.1361
▁katii	-11.1362
▁pekasabot	-11.1362
▁kaolit	-11.1363
▁Pakaonot	-11.1363
▁sandals	-11.1365
▁tibabaa	-11.1365
▁timbangan	-11.1367
▁Maker	-11.137
▁humbled	-11.137
▁mapayag	-11.1371
▁collector	-11.1373
▁Baasa	-11.1373
▁Manila	-11.1376
▁workers	-11.1376
▁weary	-11.1376
▁Elam	-11.1384
kad	-11.1384
▁singing	-11.1386
▁sits	-11.1387
▁greed	-11.1387
▁kiyatoman	-11.1388
towan	-11.1388
▁Nabal	-11.1393
kep	-11.1395
▁mapapas	-11.1396
sindaw	-11.1398
▁wounds	-11.14
▁kanggalebek	-11.14
▁pepanalamat	-11.1401
▁staying	-11.1401
pe	-11.1403
▁immediately	-11.1408
▁Mean	-11.1408
▁plate	-11.141
▁inalaw	-11.1414
pit	-11.1416
▁malong	-11.1418
ademi	-11.1424
▁honored	-11.1431
▁sounded	-11.1432
▁bisa	-11.1441
▁depend	-11.1446
▁ooteng	-11.1446
tangked	-11.1448
▁wish	-11.1453
▁rises	-11.1467
▁aliens	-11.147
kokotaan	-11.1476
▁needs	-11.1479
▁pepekapo	-11.1484
▁lomiyo	-11.1488
▁either	-11.1492
▁bud	-11.1495
▁lag	-11.1498
▁mira	-11.1499
▁kandato	-11.1499
▁Dowa	-11.1502
▁hurl	-11.1502
▁taam	-11.1513
bayaw	-11.1513
daseg	-11.1517
▁makaliyo	-11.1523
▁maling	-11.1527
▁Pangni	-11.1529
popos	-11.153
sorat	-11.154
▁won	-11.1543
bi	-11.1557
▁aso	-11.157
▁mere	-11.1575
long	-11.1578
cted	-11.1583
yagen	-11.159
▁Fin	-11.1601
▁hot	-11.1602
▁lea	-11.1644
▁seksi	-11.1649
▁mamis	-11.1653
▁mount	-11.1655
▁area	-11.1657
▁kiyataban	-11.1671
five	-11.1671
korban	-11.168
▁pesimba	-11.1685
▁giyo	-11.1687
▁Sina	-11.169
sosoratan	-11.1694
sasarta	-11.1695
▁Macedonia	-11.1699
▁ban	-11.1709
mbelag	-11.171
▁toma	-11.1722
rang	-11.1724
▁sweep	-11.173
ipembawata	-11.1732
▁waist	-11.1734
dadag	-11.1737
▁festival	-11.1738
talingoma	-11.174
▁frame	-11.1741
▁Sar	-11.1741
▁kararangit	-11.1741
sowin	-11.1744
itiyagar	-11.1749
▁collect	-11.1749
▁kata	-11.1751
▁plain	-11.1754
▁ooyag	-11.1759
▁release	-11.1768
▁worth	-11.1771
▁keped	-11.1771
payag	-11.1774
▁melt	-11.1781
▁carabao	-11.1782
▁crucified	-11.1782
▁pagigimo	-11.1782
▁Jabesh	-11.1782
▁breastpiece	-11.1782
▁material	-11.1782
▁karsada	-11.1782
▁ministry	-11.1782
▁climb	-11.1782
▁creation	-11.1782
▁thanksgiving	-11.1782
▁somasabot	-11.1782
▁Carmel	-11.1782
▁prosperity	-11.1782
▁Darius	-11.1782
▁Maakah	-11.1782
▁gominek	-11.1782
▁Yoram	-11.1782
▁kipekeleken	-11.1783
▁Karmil	-11.1783
▁namog	-11.1783
▁violent	-11.1784
▁supply	-11.1784
▁miyamalagoy	-11.1784
▁calamity	-11.1784
▁Pagowit	-11.1784
▁highest	-11.1786
▁wasteland	-11.1787
▁inisapar	-11.1787
▁miyabinasa	-11.1787
▁Hamor	-11.1787
▁gatas	-11.1788
▁sakotika	-11.1788
▁kasosoti	-11.1788
▁countrymen	-11.1789
▁Kanaaniyo	-11.1789
▁hooks	-11.179
▁Abishai	-11.179
▁knees	-11.1795
▁kidaway	-11.1796
▁Abinadab	-11.1796
▁Shemaiah	-11.1796
▁tegoa	-11.1798
▁slow	-11.1802
▁completed	-11.1802
▁Obed	-11.1802
▁pamakineg	-11.1803
▁noise	-11.1803
▁pasturelands	-11.1805
empang	-11.1807
▁ikekamotan	-11.1815
▁breasts	-11.1817
▁fasting	-11.1817
▁Inisogo	-11.1821
▁rescued	-11.1821
▁healing	-11.1825
▁punished	-11.1826
▁defend	-11.1826
▁makatelo	-11.1827
▁Isras	-11.1828
▁doves	-11.1828
▁dogs	-11.183
▁pekaonot	-11.183
▁Ilam	-11.1831
▁Shimei	-11.1834
lasting	-11.1837
▁Bani	-11.184
▁peted	-11.1859
▁Il	-11.1864
▁Kiyat	-11.1865
▁valleys	-11.1865
▁Kain	-11.1877
▁loss	-11.1883
rimbang	-11.1886
▁mbeg	-11.1894
▁bank	-11.1896
llowed	-11.1898
timotimo	-11.1913
▁cost	-11.1914
that	-11.1923
etendo	-11.1923
▁bathe	-11.1934
iksa	-11.194
har	-11.1944
▁rocks	-11.1948
▁Shem	-11.1949
▁mbowat	-11.1949
wept	-11.195
▁inidal	-11.1961
▁opening	-11.1961
ren	-11.1969
▁Y	-11.1981
▁Turn	-11.1986
kanggolaola	-11.1987
lag	-11.1988
yaan	-11.1994
oven	-11.2003
▁Onot	-11.2006
▁Kis	-11.203
▁working	-11.2031
▁believes	-11.2032
▁bayad	-11.2034
kapasad	-11.2039
▁vari	-11.2039
▁approache	-11.2057
ripag	-11.2064
langkap	-11.2065
▁mbetow	-11.2072
ery	-11.2073
▁sogoa	-11.2078
▁ngkai	-11.208
▁treasure	-11.209
▁Sin	-11.2101
ngangampedian	-11.2103
▁binin	-11.2106
bangon	-11.2108
bad	-11.2124
alay	-11.2131
adap	-11.2133
▁Miyak	-11.2135
▁kapekorban	-11.2135
peigo	-11.2136
apapatot	-11.2139
sapeng	-11.2147
asarig	-11.2148
▁shelter	-11.2184
▁kaban	-11.2187
▁ordinance	-11.2191
▁Hittite	-11.2195
kabaling	-11.2201
▁dare	-11.2204
▁official	-11.2205
▁setting	-11.2216
▁feel	-11.2216
lon	-11.2217
▁jealous	-11.2222
▁rebuild	-11.2223
▁sang	-11.2223
▁summon	-11.2229
▁deceitful	-11.2233
▁public	-11.2233
▁shore	-11.2233
ompiyaan	-11.2236
▁contempt	-11.2237
▁stomach	-11.2237
erubbabel	-11.2237
▁Perizzites	-11.2237
▁captivity	-11.2237
▁kadodoniyai	-11.2237
▁magaagama	-11.2237
▁Abiyatar	-11.2237
▁BenHadad	-11.2237
eruiah	-11.2237
▁Could	-11.2237
▁tarakayo	-11.2237
▁exact	-11.2237
▁Lasaro	-11.2237
▁confess	-11.2237
▁Hananiyas	-11.2237
▁hurried	-11.2237
▁bride	-11.2238
▁chest	-11.2238
▁reply	-11.2238
▁fatherinlaw	-11.2238
▁lady	-11.2239
▁kaoyagan	-11.2239
▁pagakol	-11.2239
▁calves	-11.2239
▁minitopa	-11.224
▁Maontol	-11.224
▁kiyabinasaa	-11.2242
▁vast	-11.2242
▁vile	-11.2242
▁kipesepaat	-11.2242
▁exposed	-11.2243
▁burst	-11.2243
▁miyapamikir	-11.2243
▁olabong	-11.2243
▁inikasoat	-11.2244
▁mawaraw	-11.2244
▁tomiyakedeg	-11.2244
▁proper	-11.2245
▁thigh	-11.2245
▁survivors	-11.2245
▁serv	-11.2246
▁arrogant	-11.2247
▁ikebinasa	-11.2248
▁recognized	-11.2249
▁tinilas	-11.2249
▁banto	-11.2249
▁Timo	-11.225
▁makapegoyag	-11.225
▁wheels	-11.2251
▁pekesakit	-11.2252
▁attach	-11.2256
▁discharge	-11.2256
▁ketarima	-11.2257
▁Silah	-11.2259
▁matarima	-11.2259
▁kapakitidawa	-11.226
▁Naboth	-11.2263
▁Abil	-11.2264
▁weighed	-11.2267
▁keleken	-11.2269
▁sorok	-11.2269
▁escaped	-11.2274
▁pekaneg	-11.2274
▁mamakineg	-11.2279
mosawira	-11.2282
▁hated	-11.2282
▁rekta	-11.2288
tenth	-11.2292
▁pekakasoy	-11.2295
▁ships	-11.2297
▁ruled	-11.2297
sako	-11.2299
▁sailed	-11.2301
▁pakape	-11.2301
▁figs	-11.2304
▁lomiyangka	-11.2305
ipepangendao	-11.2307
▁Anta	-11.2312
▁kinitoman	-11.2313
sigay	-11.2317
▁guide	-11.2317
▁pepananalo	-11.232
▁root	-11.2329
▁alike	-11.233
▁dimanda	-11.2335
▁powasa	-11.2343
pakalangkap	-11.2343
▁pepangendao	-11.2365
▁pagonot	-11.2365
▁kakowa	-11.2367
▁pangol	-11.2372
▁dreams	-11.2376
▁entering	-11.2383
pesoled	-11.2387
▁kiyapoon	-11.2398
▁grown	-11.2399
▁possible	-11.2415
▁kalimoon	-11.2417
perakes	-11.2418
pepangalimbabaan	-11.2429
▁daan	-11.2442
▁cart	-11.2443
▁peginom	-11.2445
▁kambangon	-11.2446
▁sharp	-11.2447
▁genek	-11.2456
▁distan	-11.2458
▁kesarig	-11.2463
limoon	-11.2465
▁Pek	-11.2466
▁kebeg	-11.2473
op	-11.2476
miyaros	-11.2479
layog	-11.2482
▁mipe	-11.2489
▁perakes	-11.2493
▁sisi	-11.2496
▁boil	-11.2498
▁peken	-11.2499
pagoolowan	-11.2502
▁Sha	-11.2509
apolo	-11.2515
▁pakalangkap	-11.2516
alondog	-11.252
▁rush	-11.2525
▁kadakelan	-11.2542
▁con	-11.255
▁miyan	-11.2558
soasoat	-11.2564
▁Kababaya	-11.2565
akalangkap	-11.257
▁mao	-11.2575
yog	-11.2576
▁bonoa	-11.2578
keosar	-11.2588
eng	-11.2593
kapekorban	-11.2596
lalis	-11.2597
▁record	-11.26
▁Siro	-11.2604
▁aalek	-11.2606
▁Sam	-11.2611
sogoan	-11.2619
▁Ga	-11.2621
▁mov	-11.2629
dapoan	-11.2639
▁Siti	-11.2642
▁travel	-11.2643
▁meal	-11.2648
▁shape	-11.2648
karib	-11.265
initoron	-11.2651
▁kiyasong	-11.2651
son	-11.2656
▁Salam	-11.2657
onga	-11.2658
▁bridegroom	-11.2659
iyamili	-11.2662
▁bowl	-11.2667
▁napas	-11.2669
▁virgin	-11.2669
waan	-11.267
▁descendant	-11.267
▁snake	-11.2671
▁stronghold	-11.2671
▁group	-11.2673
▁miniga	-11.2676
▁Midiya	-11.2688
▁Hosiya	-11.2693
▁triumph	-11.2696
▁shoulder	-11.27
▁seas	-11.2706
▁swift	-11.2709
▁groan	-11.271
▁Abigail	-11.2713
▁Grisiya	-11.2713
▁Jehoiachin	-11.2713
▁magiinontolan	-11.2713
▁plenty	-11.2713
▁Dariyos	-11.2713
▁immorality	-11.2713
▁Rahab	-11.2713
▁safety	-11.2713
▁Perez	-11.2713
▁kanarakaan	-11.2713
▁Agrip	-11.2713
▁Yohanan	-11.2713
▁piyamogaw	-11.2714
▁astonished	-11.2714
▁cries	-11.2714
▁baboy	-11.2714
▁Binayas	-11.2714
▁bloodshed	-11.2714
▁misery	-11.2714
▁miyapamono	-11.2715
▁kaoonayan	-11.2715
▁Gerar	-11.2715
▁makapenggolalan	-11.2716
▁dishonest	-11.2716
▁Iktiyar	-11.2717
▁mbokaan	-11.2717
▁stirred	-11.2717
▁sominimba	-11.2717
▁conceived	-11.2717
▁Abel	-11.2718
▁single	-11.2718
▁gobirno	-11.2718
▁hordes	-11.272
▁Mirari	-11.2721
▁churches	-11.2721
▁miyaogat	-11.2722
▁kaketoman	-11.2722
imbonget	-11.2723
▁split	-11.2723
▁dread	-11.2724
▁attendants	-11.2724
▁pandi	-11.2725
▁view	-11.2727
▁directed	-11.2728
▁members	-11.273
▁Cain	-11.2732
itena	-11.2733
▁kapesepaat	-11.2733
▁gom	-11.2733
▁sack	-11.2734
▁Anah	-11.2735
▁Salamat	-11.2737
▁sambitan	-11.274
▁Call	-11.2741
▁telikodan	-11.2743
kalilid	-11.2746
▁ikelimo	-11.2747
pengongoripen	-11.2747
▁records	-11.2751
▁Asap	-11.2757
▁miyaipos	-11.2758
▁sleeping	-11.2758
▁Stand	-11.2764
▁watching	-11.2764
dad	-11.2769
▁pekalangkap	-11.2769
aloy	-11.2773
▁harps	-11.2773
▁appeal	-11.2774
▁pekaasal	-11.2775
▁kapened	-11.278
▁petepeng	-11.2783
lot	-11.2785
lindonga	-11.2789
▁band	-11.2791
odi	-11.2796
▁pegonot	-11.28
▁feasts	-11.28
▁worn	-11.2801
▁rear	-11.2804
yailay	-11.2805
▁cow	-11.2808
▁lots	-11.2808
▁lomi	-11.2812
▁kinisi	-11.2814
▁misepa	-11.2816
▁agree	-11.2819
▁menang	-11.2825
▁mayaw	-11.2826
tekabor	-11.283
▁onon	-11.2831
iel	-11.2832
bet	-11.2833
▁appears	-11.2837
▁pin	-11.2847
ndatadatar	-11.2848
▁sh	-11.285
▁apostle	-11.2852
▁helped	-11.2855
▁hi	-11.2857
▁manna	-11.2868
rilai	-11.287
▁assemble	-11.2871
▁alamat	-11.2882
▁piyakit	-11.2885
▁pikir	-11.2896
pek	-11.2901
lalalis	-11.2903
▁rivers	-11.2911
▁tail	-11.2919
▁pepangni	-11.2922
▁opama	-11.2923
▁brave	-11.2928
▁tereg	-11.2933
▁Sabbaths	-11.2946
▁somoso	-11.2947
ada	-11.2956
▁bai	-11.2957
▁swor	-11.2965
▁baling	-11.2973
▁ndosa	-11.2973
manga	-11.2975
pay	-11.2981
▁inis	-11.2983
▁gobat	-11.2984
▁kibilang	-11.2989
makaneg	-11.3003
▁basin	-11.3007
▁chiefs	-11.3018
▁Ara	-11.3019
▁Kaso	-11.3023
dakep	-11.3036
pendaneg	-11.305
imo	-11.3051
▁miyakapiya	-11.306
daan	-11.3065
mili	-11.3069
podin	-11.3069
tendo	-11.3069
egen	-11.307
▁Idom	-11.3073
▁biyo	-11.3074
layalayag	-11.3089
▁mbe	-11.309
▁terima	-11.3091
▁pair	-11.3099
pressed	-11.31
ailay	-11.3102
▁kiyanggolaolaa	-11.3116
tam	-11.3126
sangan	-11.313
some	-11.3146
ndingan	-11.3147
▁Hanan	-11.3149
▁success	-11.3167
▁street	-11.3171
arata	-11.3173
▁kodal	-11.3174
isendit	-11.3175
▁game	-11.3178
▁commend	-11.3187
▁ipeke	-11.3188
▁press	-11.3188
iyatarima	-11.3193
▁dress	-11.3199
▁thirst	-11.3204
tareg	-11.3209
imbag	-11.3212
▁Antiyokiya	-11.3213
▁Disibil	-11.3213
▁Nethaniah	-11.3213
▁effort	-11.3213
▁kapagiinontolan	-11.3213
▁pananateba	-11.3213
▁blazing	-11.3213
▁duties	-11.3213
▁Meshullam	-11.3213
▁Pinihas	-11.3213
▁pananagoay	-11.3213
▁Hazael	-11.3213
▁Return	-11.3213
▁palanggana	-11.3213
▁Ahijah	-11.3213
▁diyabat	-11.3213
▁situation	-11.3213
▁Adoni	-11.3213
▁stubborn	-11.3213
▁pleasant	-11.3213
▁trembling	-11.3214
▁Nibat	-11.3214
▁marries	-11.3214
▁miyamangitaog	-11.3214
▁peteliyongan	-11.3214
▁benefit	-11.3214
▁kamais	-11.3214
▁wedding	-11.3215
▁veil	-11.3216
▁accompanie	-11.3216
▁Sisira	-11.3216
▁evildoers	-11.3216
ext	-11.3217
▁fortresses	-11.3217
▁miyaso	-11.3219
▁section	-11.322
▁driving	-11.322
▁Mikah	-11.322
▁Saray	-11.3221
▁shattered	-11.3221
▁strip	-11.3223
▁pembangon	-11.3226
▁teked	-11.3226
▁repaired	-11.3226
▁rerenek	-11.3227
▁due	-11.3227
▁agreement	-11.3227
▁wailing	-11.3227
uirement	-11.3228
▁Nabot	-11.3228
▁freedom	-11.3229
▁pekatabang	-11.3229
▁fresh	-11.3229
▁released	-11.323
▁kalilikop	-11.323
▁dagangan	-11.323
▁bent	-11.3231
▁Good	-11.3231
▁sosookan	-11.3231
▁greet	-11.3232
▁Sib	-11.3232
rintas	-11.3233
▁inodod	-11.3233
▁associates	-11.3238
▁spared	-11.3238
▁poriba	-11.3244
▁Adonijah	-11.3245
▁cease	-11.3246
▁deprive	-11.3247
▁Fir	-11.3248
▁boasting	-11.3249
▁dove	-11.3251
▁listaan	-11.3252
nda	-11.3255
▁ropes	-11.3266
kapaginetaw	-11.3267
▁sasaog	-11.3267
▁plundered	-11.3269
▁kawaraw	-11.3269
▁pekatindeg	-11.3271
▁snow	-11.3277
▁captives	-11.3278
▁kaoontod	-11.3284
▁pepamangni	-11.3288
▁sabeta	-11.3292
▁jars	-11.3294
▁monot	-11.3297
▁tigel	-11.3298
▁megay	-11.33
▁tipo	-11.33
▁crying	-11.3302
▁Siya	-11.3303
▁keokitan	-11.3303
▁Ram	-11.3304
▁judged	-11.3307
▁kapediin	-11.3307
▁Ahi	-11.3314
onsider	-11.3315
akaliyowa	-11.3318
▁Non	-11.3326
▁kapepe	-11.3329
bah	-11.3331
ata	-11.3336
▁roots	-11.3336
ram	-11.3343
bid	-11.3348
bilang	-11.3351
inasa	-11.3358
▁resting	-11.3359
▁map	-11.3361
patay	-11.3361
▁Idomiyan	-11.3362
rong	-11.3369
▁inipa	-11.3371
▁kebabayaan	-11.3378
▁Pete	-11.338
▁Red	-11.3381
mo	-11.3386
▁Pato	-11.3388
ive	-11.3391
sakop	-11.3392
omiyong	-11.3406
▁iipos	-11.3412
▁invade	-11.3421
stern	-11.3424
▁pagawid	-11.3425
iyodiyod	-11.3436
▁fence	-11.3444
▁oni	-11.3459
imbawataan	-11.3459
ngeped	-11.346
▁bars	-11.3461
▁using	-11.3463
▁kepos	-11.3468
▁troubles	-11.3469
▁flash	-11.3472
isembag	-11.3474
▁kokoda	-11.3487
ied	-11.3489
▁mean	-11.3489
▁Elk	-11.3494
▁pepam	-11.3494
bantog	-11.3498
nimo	-11.3501
▁koyog	-11.3505
▁pela	-11.3518
▁post	-11.3529
papatot	-11.3544
▁mapo	-11.3545
nik	-11.355
▁fit	-11.3551
▁Miyada	-11.3554
oyal	-11.357
oranan	-11.357
kelen	-11.3571
ndeed	-11.3584
▁tepeng	-11.3586
▁kiyaokit	-11.3588
isa	-11.3597
▁rage	-11.3602
▁Awid	-11.3611
sisingay	-11.3613
▁peratiyaya	-11.3614
▁timo	-11.3615
▁kika	-11.362
▁sising	-11.3623
▁taste	-11.3632
▁timotimo	-11.3633
dolog	-11.3634
▁Leav	-11.3641
law	-11.3646
ngilailay	-11.3648
nggegeba	-11.365
▁Kir	-11.3651
sopak	-11.3652
gar	-11.3653
wani	-11.3659
▁Ko	-11.3661
▁pepayag	-11.3675
▁insult	-11.3684
▁repair	-11.3689
▁kareregen	-11.3693
▁cistern	-11.3694
▁Ammonite	-11.3698
▁breast	-11.3699
▁custom	-11.3703
nder	-11.3703
▁kiyasab	-11.3706
▁compare	-11.3725
sowa	-11.3725
▁Mari	-11.3728
uick	-11.3736
inth	-11.3737
▁tall	-11.3738
▁piyakaon	-11.3739
▁Abiathar	-11.3739
▁Jotham	-11.3739
▁Miditiraniyo	-11.3739
▁Nineveh	-11.3739
▁eunuch	-11.3739
▁serpent	-11.3739
▁taribasok	-11.3739
▁Gidaliyas	-11.3739
▁Ithamar	-11.3739
▁business	-11.3739
▁leprosy	-11.3739
▁merciful	-11.3739
▁Bilhah	-11.3739
▁Gomorah	-11.3739
▁infectious	-11.3739
▁Maacah	-11.3739
▁crooked	-11.3739
▁Hadadisir	-11.3739
▁ambush	-11.3739
▁eighteen	-11.3739
▁Sisera	-11.3739
▁kapakasabot	-11.3739
▁makala	-11.3739
▁interest	-11.374
▁kiyapakandosa	-11.374
▁palitaan	-11.374
▁continually	-11.374
▁easily	-11.374
▁Hasail	-11.374
▁firewood	-11.374
▁shade	-11.374
▁makapembagian	-11.374
▁Timnah	-11.3741
▁Piris	-11.3741
▁mankind	-11.3741
goon	-11.3741
▁Pirisiyo	-11.3741
▁Itamar	-11.3741
▁Hezron	-11.3741
▁Agag	-11.3742
▁magokit	-11.3742
▁determined	-11.3743
▁minipeno	-11.3743
▁Bitowan	-11.3743
▁Akis	-11.3744
▁craftsman	-11.3745
▁kebantogan	-11.3746
▁firmly	-11.3746
▁infant	-11.3746
▁merchants	-11.3747
▁conceal	-11.3748
▁pigs	-11.3748
▁maginom	-11.3748
▁Kadis	-11.3748
▁piyamola	-11.375
▁kapepakalangkap	-11.375
▁penayaon	-11.3751
▁taongkir	-11.3752
▁Shelah	-11.3752
▁keyaan	-11.3752
▁keinom	-11.3753
▁guests	-11.3754
▁ikog	-11.3754
▁tangela	-11.3754
▁makasasarig	-11.3755
▁jealousy	-11.3756
▁believers	-11.3756
▁miyakala	-11.3757
▁size	-11.3757
▁piteta	-11.376
▁pekaogop	-11.3761
▁Obadiah	-11.3762
▁pegegikan	-11.3763
▁green	-11.3764
▁Eden	-11.3764
▁cooked	-11.3765
▁kapamagakal	-11.3765
▁Naino	-11.3766
▁spot	-11.3769
had	-11.3771
tapok	-11.3772
▁pepangalamat	-11.3777
▁Asia	-11.3779
pokas	-11.3781
tademan	-11.3782
▁Moabites	-11.3783
▁nice	-11.3783
bebetad	-11.3789
▁shoulders	-11.3792
▁Scriptures	-11.3793
▁contra	-11.3795
▁miyawit	-11.3796
▁timos	-11.3797
▁Kohathite	-11.3798
▁Soraten	-11.3801
▁maiisaisa	-11.3803
ama	-11.3804
▁district	-11.3808
▁kiyapeta	-11.3808
ezer	-11.3812
▁totori	-11.3813
▁Obadi	-11.3818
▁Asiya	-11.3819
▁kababayai	-11.3822
ndiditar	-11.3825
oked	-11.3826
▁list	-11.3826
▁synagogues	-11.3827
▁ipepangandag	-11.3834
▁sand	-11.3838
sabet	-11.384
towi	-11.384
▁agama	-11.3847
▁Tam	-11.3847
sen	-11.3849
leave	-11.3853
▁osiyat	-11.3857
▁withered	-11.386
▁severe	-11.386
▁Kiyada	-11.3861
▁Pesa	-11.3866
▁al	-11.3868
▁dish	-11.3873
aliyogat	-11.3883
gged	-11.3897
eople	-11.3905
▁curses	-11.3906
▁env	-11.3908
nin	-11.3911
▁naked	-11.3911
▁kiyandato	-11.3911
zar	-11.3911
▁sinta	-11.3924
▁memori	-11.3931
▁perila	-11.3935
▁tower	-11.3938
where	-11.3941
ise	-11.3957
iyapatay	-11.396
▁governors	-11.3964
▁andana	-11.3974
▁tareg	-11.398
armed	-11.3981
awidi	-11.3982
▁pekowa	-11.3991
inikalek	-11.3995
▁Hit	-11.3998
las	-11.4
▁alpa	-11.4007
▁joyful	-11.402
angadap	-11.4023
▁pese	-11.4028
▁Moon	-11.4029
odiyod	-11.4044
mboway	-11.4046
▁roran	-11.4047
▁kasimba	-11.4061
ail	-11.4061
makipembitiyarai	-11.4065
lagoyan	-11.4065
▁wo	-11.4082
anagontaman	-11.4084
iyaagaw	-11.4094
lamen	-11.411
makapet	-11.4113
pantiyari	-11.4118
pangangampedian	-11.4119
▁ipesepa	-11.4123
tel	-11.4127
kit	-11.4136
pekegowad	-11.4137
apepeno	-11.4149
kapasang	-11.415
isibay	-11.4156
iyaneg	-11.4162
abaad	-11.4167
rek	-11.4169
▁peleng	-11.4176
▁Abi	-11.4178
miyag	-11.4179
▁pesetro	-11.418
kandato	-11.4191
▁milili	-11.4195
sarig	-11.4208
▁.	-11.4209
▁En	-11.4213
▁skill	-11.4214
naan	-11.4222
▁attend	-11.4225
▁Day	-11.4237
olad	-11.4243
▁window	-11.4256
▁crop	-11.4256
payaga	-11.4257
inikopa	-11.4263
▁trade	-11.4266
▁pemakineg	-11.4271
antap	-11.4276
▁cook	-11.4277
soraten	-11.4278
▁dishonor	-11.4279
▁kasiksaa	-11.4282
▁trample	-11.4284
▁mase	-11.4292
▁class	-11.4293
▁fault	-11.4294
▁Gomorrah	-11.4295
▁Jezebel	-11.4295
▁Lazarus	-11.4295
▁Mepibosit	-11.4295
▁Misopotamiya	-11.4295
▁Tarshish	-11.4295
▁Yahoyakin	-11.4295
▁centurion	-11.4295
▁citadel	-11.4295
▁kidneys	-11.4295
▁paoledoled	-11.4295
▁security	-11.4295
▁Antioch	-11.4295
▁trustworthy	-11.4295
▁Iromanen	-11.4295
▁mitelimb	-11.4295
▁enthrone	-11.4295
▁revelation	-11.4295
▁thief	-11.4295
▁Nazareth	-11.4295
▁holiness	-11.4295
▁fury	-11.4295
▁rejoicing	-11.4295
▁pagamponen	-11.4295
▁Cyrus	-11.4295
▁Caesarea	-11.4295
▁pangolaon	-11.4295
▁skies	-11.4295
▁tambak	-11.4295
▁petition	-11.4295
▁pemaratiyaya	-11.4295
▁repentance	-11.4295
▁Amram	-11.4295
▁kapanganiyaya	-11.4296
▁justified	-11.4296
▁expert	-11.4296
▁madodosa	-11.4296
▁overpower	-11.4296
▁Eliab	-11.4296
▁threshold	-11.4296
▁beneath	-11.4297
▁Reubenites	-11.4297
panotol	-11.4297
▁purified	-11.4297
▁kakewing	-11.4297
▁Nebat	-11.4297
▁totally	-11.4298
▁bangensa	-11.4298
▁swarm	-11.4298
▁miyantap	-11.4298
ipeyag	-11.4299
▁everywhere	-11.4299
▁youngest	-11.4299
▁Nun	-11.43
ary	-11.43
▁magarang	-11.43
▁pekataban	-11.43
▁Dinah	-11.4301
▁miyamakaoma	-11.4301
▁keodod	-11.4302
isei	-11.4302
▁singers	-11.4303
▁pagawaan	-11.4303
▁mistreat	-11.4305
▁hardened	-11.4305
▁pampang	-11.4305
▁fame	-11.4306
▁paninta	-11.4306
▁circumcision	-11.4306
▁submit	-11.4307
▁paririmar	-11.4307
ndato	-11.4307
▁pakatata	-11.4309
▁inakol	-11.4309
▁pegogop	-11.4309
▁kesoti	-11.431
▁twice	-11.4311
▁Gasa	-11.4311
panotolen	-11.4311
▁mbida	-11.4311
pat	-11.4312
▁grieved	-11.4313
▁inikagowad	-11.4314
▁armor	-11.4314
▁makasasangor	-11.4317
▁Isiriyanen	-11.4318
▁worse	-11.4319
▁matangan	-11.432
ding	-11.432
▁warning	-11.432
imbilang	-11.432
like	-11.4321
▁Pepeka	-11.4322
▁betrayed	-11.4322
opaw	-11.4323
▁Joel	-11.4323
▁kapamokeg	-11.4324
▁farmer	-11.4325
▁encouraged	-11.4325
▁flowers	-11.4328
▁kitana	-11.4328
▁adorn	-11.433
▁kateterang	-11.4334
▁Tagoa	-11.4335
▁tindeg	-11.4337
bengang	-11.4338
▁kakeriyala	-11.434
▁avoid	-11.434
▁Bena	-11.4342
▁pakiilain	-11.4342
▁pesegad	-11.4344
riyas	-11.4345
▁pekatana	-11.4346
kas	-11.435
▁keolaola	-11.435
▁sompa	-11.4352
▁Tiyagar	-11.4354
▁maoyag	-11.4355
▁pepangokom	-11.4357
▁sealed	-11.4358
▁minisepa	-11.4359
▁makainom	-11.4363
▁kisapaat	-11.4364
▁inom	-11.4365
mipe	-11.4368
▁Paran	-11.437
daneg	-11.4371
▁mbogaon	-11.4372
▁baby	-11.4373
▁pekabager	-11.4374
iripot	-11.4378
▁wit	-11.4379
▁mbawata	-11.438
▁seselaan	-11.4383
▁pekeor	-11.4383
ssed	-11.4395
hanan	-11.4395
siken	-11.4397
▁prostitutes	-11.4399
▁keolog	-11.4402
▁mboko	-11.4405
▁gathering	-11.4406
laid	-11.4408
▁numbered	-11.4409
▁borne	-11.4409
▁vines	-11.441
▁kag	-11.4411
pengaroma	-11.4412
▁hell	-11.4413
arong	-11.4416
▁teobat	-11.4418
▁pembeg	-11.4422
ty	-11.4423
▁Bil	-11.4426
▁pemba	-11.4427
▁kabebaya	-11.4428
▁blessings	-11.443
▁stretche	-11.4437
▁stoned	-11.4437
iyatendo	-11.4437
▁rider	-11.444
▁Tiyaban	-11.4442
▁row	-11.4442
▁nda	-11.4445
▁petiyagar	-11.4446
pekapoon	-11.4447
▁warm	-11.4449
▁madato	-11.445
▁mibegay	-11.4456
bebaya	-11.4464
▁pegantap	-11.4474
ey	-11.4484
pepasa	-11.4484
ogan	-11.4487
x	-11.449
ominowa	-11.4497
iness	-11.4497
lek	-11.4502
▁mbega	-11.4504
rely	-11.4504
otolen	-11.4504
atademi	-11.4511
▁Dat	-11.4514
mipag	-11.4524
three	-11.4527
▁Heres	-11.4527
▁ring	-11.4527
obah	-11.4536
▁Nibos	-11.4544
▁piyoka	-11.455
▁pre	-11.4555
soy	-11.4561
▁husbands	-11.4561
▁milay	-11.4569
▁kapepodi	-11.4577
▁bi	-11.4594
tiya	-11.4595
▁simba	-11.4616
polo	-11.4622
▁invite	-11.4632
▁kaperagon	-11.4642
▁golden	-11.4648
▁allow	-11.4654
▁katitindeg	-11.4655
▁miyakaisa	-11.4659
▁maseseb	-11.466
▁sown	-11.4665
▁pipe	-11.4668
▁Gi	-11.4683
▁makapa	-11.4683
bembar	-11.4687
▁herd	-11.469
linding	-11.4695
▁Sisi	-11.4699
sogok	-11.4699
mborngat	-11.4701
▁pepamang	-11.4711
▁kokotaan	-11.4715
aman	-11.4722
▁salam	-11.4725
tened	-11.4729
▁Bilang	-11.4731
▁select	-11.4736
▁rights	-11.4743
ompiya	-11.4751
ongangen	-11.4753
alin	-11.476
saragon	-11.4769
akal	-11.4776
mmediately	-11.4799
gisei	-11.48
▁miyakanda	-11.4805
asiyas	-11.4805
▁noble	-11.4816
▁pine	-11.4821
▁exalt	-11.4822
ridoay	-11.4822
▁Kohath	-11.4831
▁decision	-11.4839
▁warrior	-11.4841
▁uncle	-11.4843
rab	-11.4843
ward	-11.4845
▁expect	-11.4846
▁observ	-11.4846
ngen	-11.4848
aneg	-11.485
isosorat	-11.4855
▁ipekeoyag	-11.4855
▁dispute	-11.4874
▁recognize	-11.4874
makapagoyag	-11.4875
▁Gihasi	-11.4883
▁Jehoahaz	-11.4883
▁Kaisariya	-11.4883
▁Siroyah	-11.4883
▁Succoth	-11.4883
▁Tirzah	-11.4883
▁furnishings	-11.4883
▁poverty	-11.4883
▁ridicule	-11.4883
▁Misolam	-11.4883
▁ikaririga	-11.4883
▁orobarang	-11.4883
▁Ipisos	-11.4883
▁Abiram	-11.4883
▁Kidron	-11.4883
▁Ephesus	-11.4883
▁turban	-11.4883
▁Hadadezer	-11.4883
▁sustain	-11.4883
▁illness	-11.4883
▁Horeb	-11.4883
▁kigagalebek	-11.4883
▁Asdod	-11.4883
▁center	-11.4883
▁mosim	-11.4883
▁biyantowan	-11.4883
▁talibono	-11.4884
▁malice	-11.4884
▁pelompiyon	-11.4884
▁prophecy	-11.4884
▁pekakokom	-11.4884
▁mapaparatiyaya	-11.4884
▁mamagomanta	-11.4884
▁forbidden	-11.4884
▁mise	-11.4884
▁matori	-11.4885
ngaroma	-11.4885
▁kiyapakaawa	-11.4886
▁miyateban	-11.4886
▁miyaribat	-11.4886
▁schemes	-11.4886
▁severely	-11.4886
▁market	-11.4886
▁settlements	-11.4887
▁shook	-11.4887
▁ransom	-11.4888
kokoma	-11.4889
▁useless	-11.4889
▁Achish	-11.4889
▁miyakapalagoy	-11.4889
▁followers	-11.4889
▁discerning	-11.489
▁beams	-11.489
▁kioontod	-11.489
▁kambaradosa	-11.4892
▁fastened	-11.4893
▁batoga	-11.4894
▁Dagon	-11.4895
▁miyakagemaw	-11.4895
▁dying	-11.4895
▁uprooted	-11.4895
▁mitalingoma	-11.4895
▁prove	-11.4895
▁greetings	-11.4897
▁payment	-11.4898
▁tatanod	-11.4899
▁makewali	-11.4899
ariga	-11.4899
▁Ruth	-11.49
▁flute	-11.49
▁craftsmen	-11.49
▁torment	-11.49
▁station	-11.4901
▁pembatog	-11.4905
▁metal	-11.4906
▁kasoled	-11.4906
▁affect	-11.4908
akes	-11.4908
▁myster	-11.491
lat	-11.4912
▁disturbed	-11.4913
▁Sokot	-11.4913
▁ikelek	-11.4917
▁produced	-11.4917
▁wool	-11.492
mbaalan	-11.492
▁strangers	-11.4921
▁minilebeng	-11.4921
▁roll	-11.4922
▁meliyo	-11.4923
▁ride	-11.4924
▁contain	-11.4927
▁magenebeneb	-11.4928
▁fly	-11.4929
▁Taw	-11.4929
▁pekapatay	-11.493
▁actions	-11.4931
▁ibol	-11.4933
▁mawa	-11.4935
▁signal	-11.4936
ib	-11.4936
par	-11.4937
eb	-11.4943
▁Hebrews	-11.4943
▁maidservants	-11.4943
▁pekitokaw	-11.4943
ggagaisa	-11.4948
▁ga	-11.4952
▁nights	-11.4953
▁Jeshua	-11.4953
pos	-11.4958
▁parables	-11.4959
▁riya	-11.496
magatos	-11.4968
▁vows	-11.4972
for	-11.4976
nta	-11.498
▁pagida	-11.4981
▁preserve	-11.4982
layok	-11.4984
▁spears	-11.4986
ona	-11.4994
▁kikilalaan	-11.4994
▁whip	-11.5
les	-11.5
▁Pas	-11.5002
▁portions	-11.5012
ent	-11.5015
age	-11.5026
sosong	-11.5027
▁bec	-11.503
▁Kiriyat	-11.5032
▁pembawata	-11.5042
anamar	-11.5046
▁begin	-11.5054
sta	-11.5054
▁pekawit	-11.5058
kapetan	-11.5059
diyod	-11.506
▁rules	-11.5068
▁listening	-11.507
▁kandosa	-11.5082
asasakop	-11.509
baden	-11.5096
iyalikod	-11.5096
pamikir	-11.5102
cked	-11.5105
▁Kakan	-11.5107
ipesogo	-11.511
ue	-11.5111
▁bin	-11.5118
▁pur	-11.5121
itro	-11.5125
▁Toman	-11.5126
look	-11.5128
ster	-11.5128
▁inagaw	-11.5128
▁box	-11.513
sasakop	-11.5131
▁sowa	-11.5131
kalaboso	-11.5138
rat	-11.5143
tribe	-11.5144
pekatalingoma	-11.5144
sembag	-11.5149
liyoliyo	-11.5151
res	-11.5152
kiran	-11.5152
ecame	-11.5158
▁pala	-11.5158
▁mbaali	-11.5162
▁Writ	-11.5163
▁Ilk	-11.517
begi	-11.517
▁st	-11.5189
▁desecrate	-11.5191
▁masike	-11.5197
▁reigns	-11.5199
longed	-11.5203
▁baya	-11.5205
▁revere	-11.5209
itaero	-11.5226
▁Mba	-11.5227
▁doubt	-11.5228
agad	-11.523
kaw	-11.5231
say	-11.5237
▁conspire	-11.5239
oteng	-11.5239
▁maga	-11.5243
tended	-11.5247
▁im	-11.5253
inom	-11.5261
▁Somiyol	-11.5273
▁hin	-11.5293
▁sebo	-11.5302
of	-11.5303
▁lust	-11.5308
▁leap	-11.5315
ath	-11.5321
▁Br	-11.5323
katelo	-11.5324
kalidas	-11.5326
ilah	-11.5334
▁unit	-11.5334
▁kiyatalikod	-11.5337
▁ngk	-11.5338
ont	-11.5339
▁sepa	-11.5356
ors	-11.5358
ralebi	-11.536
kadenan	-11.5362
▁thin	-11.5364
▁Dila	-11.5371
▁pega	-11.5378
▁cord	-11.5379
aiisaisa	-11.5382
▁mbelag	-11.5398
igaan	-11.5402
▁pam	-11.5404
yobay	-11.5406
inimba	-11.5418
▁kepit	-11.5419
bout	-11.542
▁kapep	-11.5425
bayadan	-11.5427
▁Kos	-11.5428
his	-11.5429
ear	-11.5438
pamola	-11.544
▁pro	-11.5442
gedam	-11.5445
▁Ja	-11.5446
▁pekaato	-11.5451
▁Sorat	-11.5454
▁armorbearer	-11.5454
▁lend	-11.5456
elfth	-11.5461
▁level	-11.5461
▁direction	-11.5463
▁Cushite	-11.5465
▁soldier	-11.5466
▁sengga	-11.5467
▁trial	-11.5467
▁corner	-11.5468
▁foreigner	-11.5471
▁sinner	-11.5475
▁dance	-11.5478
arta	-11.5478
▁badas	-11.5483
▁awake	-11.5484
▁bright	-11.5487
▁govern	-11.5487
londog	-11.5488
▁Miyanga	-11.549
▁pole	-11.5491
▁consent	-11.5492
nisorat	-11.5492
▁mona	-11.55
▁sense	-11.5504
▁sixty	-11.5505
siyaw	-11.5506
▁Kish	-11.5507
▁sickness	-11.5507
▁Kiriath	-11.5508
▁Amminadab	-11.5508
▁Jephthah	-11.5508
▁Yaptah	-11.5508
▁ipamemetad	-11.5508
▁moripori	-11.5508
▁pamimitoon	-11.5508
▁reproach	-11.5508
▁surrender	-11.5508
▁appalled	-11.5508
▁cruel	-11.5508
▁kikadodowaanan	-11.5508
▁Pananalawat	-11.5508
▁opportunity	-11.5508
▁Batsiba	-11.5508
▁Pananggila	-11.5508
▁Gaza	-11.5508
▁Asahel	-11.5508
▁scoff	-11.5508
▁Friend	-11.5508
▁mortal	-11.5508
▁Grigo	-11.5508
▁kiyapakataban	-11.5508
▁constant	-11.5508
▁pakabereg	-11.5508
▁speck	-11.5508
▁Shallum	-11.5508
▁rikord	-11.5508
▁marvel	-11.5508
▁summer	-11.5508
▁somasagad	-11.5508
▁Olibi	-11.5509
▁bitterness	-11.5509
▁notice	-11.5509
▁affliction	-11.5509
▁Ranaw	-11.5509
▁Marawi	-11.5509
▁pepamokeg	-11.5509
▁Riblah	-11.5509
▁masalinggagaw	-11.5509
▁maintain	-11.5509
▁blast	-11.5509
▁renew	-11.5509
▁Afterward	-11.5509
▁gatekeepers	-11.551
rmed	-11.551
▁eleventh	-11.551
▁midst	-11.551
▁serious	-11.551
▁straw	-11.551
▁planned	-11.551
▁pikediyat	-11.551
▁Keilah	-11.5511
▁piyaminasa	-11.5511
▁Stop	-11.5512
▁pendarainonen	-11.5512
▁lifetime	-11.5512
▁sinning	-11.5512
▁deaf	-11.5512
▁Hanah	-11.5512
▁injured	-11.5512
▁somosopak	-11.5513
▁kakitoman	-11.5513
▁withdraw	-11.5513
sibokar	-11.5513
▁smashed	-11.5514
▁pepagapas	-11.5514
▁chew	-11.5515
▁Beg	-11.5516
▁pato	-11.5516
▁clearly	-11.5516
▁kerilaan	-11.5516
▁lebag	-11.5517
▁tongkas	-11.5517
▁courage	-11.5518
▁Panamar	-11.5518
▁Bread	-11.5518
▁kapakandosa	-11.5519
▁inikababaya	-11.5519
▁kapenabet	-11.5519
▁Yowil	-11.5519
▁makalimoon	-11.552
▁Elah	-11.552
▁pekinegen	-11.5521
▁Nem	-11.5522
▁Mikal	-11.5522
▁faithfully	-11.5522
▁marimpoong	-11.5524
▁depart	-11.5524
▁Hisron	-11.5524
▁bibir	-11.5525
▁miyaolog	-11.5525
▁makanggalebek	-11.5525
▁drinks	-11.5526
▁thirteen	-11.5526
▁kakebinasa	-11.5526
▁baraamal	-11.5526
▁miyatoman	-11.5526
▁calm	-11.5526
but	-11.5526
▁landeng	-11.5529
▁kapepanalamat	-11.553
verything	-11.5531
rilaan	-11.5533
▁masoti	-11.5534
▁overwhelmed	-11.5536
adaseg	-11.5536
▁makandosa	-11.5536
▁Benjamites	-11.5537
▁roti	-11.5537
▁komowa	-11.5537
▁trembled	-11.5539
▁piteban	-11.554
▁hundreds	-11.554
▁profit	-11.554
▁purge	-11.5541
soloten	-11.5541
▁announce	-11.5543
▁positions	-11.5545
▁pepagitowito	-11.5546
tok	-11.5547
▁Pray	-11.555
▁selling	-11.5551
ngowan	-11.5554
loaded	-11.5554
ohanan	-11.5557
▁selaan	-11.5559
ha	-11.5563
▁knock	-11.5564
pemesipesik	-11.5565
▁pesaa	-11.5566
ne	-11.5567
▁Inawa	-11.5569
▁pepamange	-11.5569
▁growing	-11.5573
ow	-11.5575
▁lovers	-11.5583
▁crossing	-11.5584
▁fingers	-11.5586
▁panalamat	-11.5587
takabor	-11.5587
▁miyakan	-11.559
▁kapangangarapan	-11.5593
▁arrange	-11.5594
▁Con	-11.5596
▁beard	-11.5597
asisingayo	-11.5599
▁pokas	-11.5604
▁bind	-11.5607
▁pangongonotan	-11.5608
▁Had	-11.5608
▁self	-11.561
benar	-11.5611
▁gin	-11.5613
▁makailay	-11.5614
▁samok	-11.5616
▁peroa	-11.5621
▁fails	-11.5624
▁ogopi	-11.5627
▁twentyfour	-11.5628
iyapisan	-11.5629
▁earnest	-11.563
mbaali	-11.5634
initolod	-11.5634
podi	-11.5634
owed	-11.5636
▁Mbe	-11.5638
▁Set	-11.5645
▁kerit	-11.5646
▁promises	-11.5647
▁oway	-11.5647
▁win	-11.5651
▁loot	-11.5654
▁ikeya	-11.5654
▁burns	-11.5655
telling	-11.5655
ic	-11.5657
▁bands	-11.5666
▁chas	-11.5667
▁destroying	-11.567
▁pamasa	-11.5672
stood	-11.5675
▁string	-11.5675
▁delights	-11.5681
▁piseb	-11.5689
iyananalo	-11.5696
▁karata	-11.5701
▁race	-11.5703
natan	-11.5703
▁bows	-11.5703
▁hall	-11.5708
▁pembega	-11.5708
▁nine	-11.5711
▁kiyanggolaola	-11.5712
▁kadalem	-11.5716
▁kiyapakaliyo	-11.5726
▁Gomiya	-11.5726
etegas	-11.5737
pite	-11.5739
▁apid	-11.5748
▁allot	-11.5754
▁Hanani	-11.5758
▁Mas	-11.5758
▁kaselasela	-11.5762
▁plea	-11.5764
rembang	-11.5765
▁tend	-11.5765
▁kaaped	-11.5768
ini	-11.5773
paar	-11.5774
▁kakapet	-11.5775
kewali	-11.5778
kitawag	-11.5786
▁grumble	-11.5789
▁carve	-11.5791
anaan	-11.5803
inikalimo	-11.5805
▁domiya	-11.5809
perego	-11.5816
body	-11.5821
▁pagowita	-11.5822
mot	-11.5827
▁pesebet	-11.5828
iniliyo	-11.583
korsi	-11.5838
▁nest	-11.584
▁car	-11.5848
▁tw	-11.5849
▁Le	-11.585
panga	-11.5853
▁piyag	-11.5855
▁tekabor	-11.5861
▁kapepangendao	-11.5875
held	-11.5878
▁inflict	-11.5885
ana	-11.5896
▁teban	-11.59
soratan	-11.5903
▁kapepaka	-11.5906
siksaan	-11.5911
▁plott	-11.592
▁pite	-11.5923
▁host	-11.5926
ept	-11.5934
ble	-11.5938
▁Matag	-11.5943
▁miyakato	-11.5943
▁Sit	-11.5945
polaos	-11.5948
▁kapaginetaw	-11.5951
▁Baals	-11.5952
kampet	-11.5953
▁Miyata	-11.596
gopan	-11.5961
ged	-11.5964
▁Mattan	-11.5967
ero	-11.5968
▁kapenggolaola	-11.5968
ending	-11.598
tarima	-11.5997
▁arise	-11.6004
ngalimbabaan	-11.6007
diyas	-11.6012
▁baptism	-11.6013
▁makapiya	-11.6017
▁bowa	-11.6034
▁toman	-11.6038
▁Mak	-11.604
kaliyowa	-11.6042
▁Hi	-11.6052
▁Biyalo	-11.6053
▁ogopa	-11.6053
▁loose	-11.6055
gowad	-11.6065
▁Inibega	-11.607
awatan	-11.6073
▁alad	-11.6081
kapal	-11.6082
pepamagapidapid	-11.6088
pper	-11.6091
pitched	-11.6093
sombo	-11.6094
▁Salmon	-11.6094
scribe	-11.6098
maan	-11.6099
cal	-11.6106
▁arrive	-11.6112
aim	-11.6113
▁demand	-11.6117
pangendao	-11.6129
▁eagle	-11.613
▁concubine	-11.6132
▁tomom	-11.6133
▁bribe	-11.6133
▁Aramean	-11.6133
iba	-11.6135
▁stranger	-11.6137
▁stepp	-11.6141
▁pepangiloba	-11.6143
palad	-11.6147
initemo	-11.6147
▁Merari	-11.6157
▁liyoliyo	-11.6158
▁worry	-11.6161
▁arrest	-11.6163
▁torog	-11.6164
▁kasabot	-11.6166
▁potter	-11.6167
▁wrappe	-11.6167
▁grieve	-11.6167
▁delay	-11.617
▁ruthless	-11.6171
ogalin	-11.6171
▁kibaya	-11.6173
▁Ahitopil	-11.6174
▁Capernaum	-11.6174
▁Euphrates	-11.6174
▁Gehazi	-11.6174
▁Mahanaim	-11.6174
▁distinguish	-11.6174
▁horror	-11.6174
▁integrity	-11.6174
▁patience	-11.6174
▁edict	-11.6175
▁gomoraok	-11.6175
▁Pakababager	-11.6175
▁copy	-11.6175
▁fertil	-11.6175
▁Kadesh	-11.6175
▁pagampaganay	-11.6175
▁Asahil	-11.6175
▁Nebu	-11.6175
▁impure	-11.6175
▁pamalagen	-11.6175
▁endurance	-11.6175
▁tenants	-11.6175
▁rubble	-11.6175
▁kisosookan	-11.6175
▁ilmo	-11.6175
▁Ikron	-11.6175
▁unjust	-11.6175
▁cursing	-11.6175
▁wholeheartedly	-11.6175
▁myrrh	-11.6175
▁somambot	-11.6175
▁Tobiyas	-11.6176
▁Eber	-11.6176
▁colt	-11.6176
▁gladness	-11.6176
▁Ananiyas	-11.6176
▁cymbals	-11.6176
▁Tabor	-11.6176
▁hunger	-11.6176
▁Siyalom	-11.6177
▁correction	-11.6177
▁kiyalipatan	-11.6177
▁makapengadap	-11.6177
▁magician	-11.6177
▁oppression	-11.6178
▁anymore	-11.6178
▁Kilah	-11.6179
▁provision	-11.6179
him	-11.6181
▁minitaralo	-11.6182
▁advisers	-11.6182
▁maitem	-11.6182
▁Baanah	-11.6182
▁Marta	-11.6182
▁matitimo	-11.6183
▁bitterly	-11.6183
▁miyangadap	-11.6184
riboribo	-11.6184
▁minibegak	-11.6184
▁banished	-11.6185
▁Hasor	-11.6185
▁Pekaom	-11.6186
▁secretly	-11.6186
▁petoga	-11.6187
▁pekewaw	-11.6187
▁persecuted	-11.6187
aliah	-11.6187
▁miyakasong	-11.6188
▁cleanse	-11.6188
▁diyaman	-11.6188
▁leaf	-11.6191
▁groaning	-11.6191
▁salompok	-11.6192
▁daneg	-11.6193
▁polangen	-11.6193
▁dough	-11.6195
▁kapekalangkap	-11.6196
▁Sarai	-11.6198
▁makaokit	-11.62
▁kiyapamono	-11.6201
▁nggebaan	-11.6202
▁blowing	-11.6203
▁strengthened	-11.6203
▁penggobat	-11.6204
▁pangangatao	-11.6204
▁wounded	-11.6205
▁lyres	-11.6205
pagoyagen	-11.6209
▁napso	-11.6209
▁cakes	-11.6211
▁bayok	-11.6213
▁sengaw	-11.6214
▁ministering	-11.6214
▁commandments	-11.6214
▁Gershonite	-11.6215
▁concubines	-11.6217
▁Greeks	-11.6218
imbaalan	-11.6219
▁minggolalan	-11.6219
soti	-11.6222
▁tonight	-11.6224
katalingoma	-11.6224
▁singanin	-11.6224
pirik	-11.6225
▁pr	-11.6225
iyasar	-11.6226
ani	-11.6226
▁lebaden	-11.6229
▁pesopak	-11.6231
▁grasp	-11.6235
mbadal	-11.6235
▁plains	-11.6237
▁Susa	-11.624
▁beaten	-11.624
lai	-11.624
kawali	-11.6242
▁tombs	-11.6243
▁pengongonotan	-11.6244
▁needed	-11.6249
▁washing	-11.625
▁kiyaoyag	-11.6251
▁pembetow	-11.6253
▁pekeoyagoyag	-11.6253
tepad	-11.6253
closed	-11.6257
sampirot	-11.6258
▁ndidiyagaw	-11.626
▁island	-11.626
▁pepekala	-11.626
▁kasebo	-11.6264
▁ontoda	-11.627
▁Timot	-11.6273
belag	-11.6274
ningkir	-11.6278
▁piyakapiya	-11.6278
▁overla	-11.6281
ola	-11.6282
sipat	-11.6286
▁diseases	-11.6288
▁kiyabeg	-11.6289
its	-11.6293
▁Hur	-11.6299
▁mboboko	-11.6301
▁okap	-11.6305
▁shave	-11.6306
▁Mil	-11.6308
▁siliyo	-11.6309
▁pile	-11.6315
inggabi	-11.6316
ibarat	-11.6317
▁risen	-11.632
▁sisters	-11.6322
▁aaor	-11.6323
▁humili	-11.6325
▁slay	-11.6329
▁cedars	-11.6332
▁meeting	-11.6332
▁warna	-11.6334
▁Pokas	-11.6335
▁piyana	-11.6338
tengan	-11.6343
▁matters	-11.6346
iyondol	-11.6349
▁abound	-11.6351
▁Peg	-11.6356
oan	-11.6359
dak	-11.636
esombali	-11.6362
▁bite	-11.6363
▁topa	-11.6364
▁real	-11.6366
▁kapepeka	-11.6368
▁Mica	-11.6374
talikodi	-11.6392
▁milita	-11.6396
▁gomi	-11.6397
▁Kaka	-11.64
nditar	-11.6408
makaoma	-11.6414
▁blot	-11.642
angilailay	-11.6423
▁bag	-11.6428
▁rejoices	-11.6431
ket	-11.6432
▁balas	-11.6437
sikem	-11.644
▁kakar	-11.6441
akimbitiyarai	-11.6442
nay	-11.6447
▁unfai	-11.6454
▁kapenda	-11.6458
ketangked	-11.6467
▁pagoman	-11.6471
more	-11.6472
who	-11.6473
tawaga	-11.6477
▁sepaat	-11.6478
▁Ev	-11.6492
irila	-11.6494
langkaw	-11.6495
yagoyag	-11.6498
▁totoa	-11.6499
titiyagar	-11.6501
ongowan	-11.6504
▁judgments	-11.6505
bagak	-11.6529
▁borrow	-11.653
▁Ahimele	-11.6535
▁vanish	-11.6538
mbalingan	-11.6538
▁peyag	-11.6539
▁gomiy	-11.654
▁c	-11.6541
▁mbadal	-11.6546
▁kapepan	-11.6548
kakowa	-11.6551
potol	-11.6554
▁Piyala	-11.6563
stored	-11.6575
▁miyaloke	-11.6576
▁Giba	-11.6582
▁co	-11.6589
▁kapanga	-11.6591
sedepan	-11.6598
▁Ad	-11.6607
▁Ass	-11.661
kimosawir	-11.6611
epengan	-11.6624
▁memor	-11.6625
▁Reu	-11.6626
▁rominipa	-11.663
seksi	-11.6632
balingan	-11.6633
▁paga	-11.6635
apa	-11.6635
tatarotop	-11.6644
▁biyag	-11.6646
koda	-11.6647
▁kagi	-11.6647
▁state	-11.6647
▁miyaki	-11.6655
kolob	-11.6657
toman	-11.6658
▁Nda	-11.6664
tangan	-11.6673
are	-11.6676
▁coal	-11.6679
▁demon	-11.6679
uth	-11.6679
▁pekera	-11.6693
▁kebabaya	-11.6695
▁Over	-11.6704
▁tebo	-11.6704
▁less	-11.6712
▁kilalaa	-11.6712
agen	-11.6713
ually	-11.6713
side	-11.6719
biyag	-11.673
hy	-11.673
ego	-11.6739
tempag	-11.6745
inlaw	-11.6745
awat	-11.6748
▁tiyake	-11.6751
▁intend	-11.6757
▁pekebabayai	-11.6768
O	-11.6774
▁lomolo	-11.678
▁ikas	-11.6782
elah	-11.6783
▁miyapa	-11.6789
erefore	-11.6793
ribolan	-11.6798
▁kiyarila	-11.682
▁siyapen	-11.682
▁kapela	-11.6824
kedega	-11.683
pang	-11.6835
▁Masi	-11.6839
▁divination	-11.6844
▁defense	-11.6845
▁forehead	-11.6846
▁position	-11.6846
▁article	-11.6847
▁companion	-11.6849
▁Canaanite	-11.6849
▁talent	-11.6849
▁commandment	-11.685
▁flower	-11.6852
pita	-11.6856
▁prais	-11.6858
▁sow	-11.6859
▁overthrow	-11.6859
▁tit	-11.686
raoten	-11.6862
▁cake	-11.6865
ipegise	-11.6866
cah	-11.6866
▁mitimo	-11.687
▁bini	-11.6872
▁decide	-11.6874
▁uproot	-11.6874
▁silence	-11.6875
▁capture	-11.6878
moralaan	-11.6879
▁Ngkaino	-11.6879
▁health	-11.6882
▁binasaa	-11.6882
daleman	-11.6884
▁Oholiba	-11.6886
chish	-11.6886
▁gentle	-11.6888
▁Ekron	-11.6889
▁Ahithophel	-11.6889
▁Artasirksis	-11.6889
▁Artaxerxes	-11.6889
▁Baptist	-11.6889
▁Festus	-11.6889
▁Isbosit	-11.6889
▁Maaseiah	-11.6889
▁Mephibosheth	-11.6889
▁Phinehas	-11.6889
▁Sennacherib	-11.6889
▁arrogance	-11.6889
▁bruise	-11.6889
▁cripple	-11.6889
▁kawawatai	-11.6889
▁nostrils	-11.6889
▁paotanotan	-11.6889
▁thieves	-11.6889
▁Ashdod	-11.6889
▁dirowasa	-11.6889
▁twilight	-11.6889
▁Libnah	-11.6889
▁Sadosi	-11.6889
▁unpunished	-11.6889
▁Shemesh	-11.6889
▁Tirsah	-11.6889
▁Kareah	-11.6889
▁barabarat	-11.6889
▁Eliakim	-11.6889
▁burial	-11.6889
▁treasuries	-11.6889
▁tapolan	-11.6889
▁bamboo	-11.6889
▁deposit	-11.6889
▁pembaliliten	-11.6889
▁miyamanimba	-11.6889
▁relief	-11.6889
▁dismayed	-11.6889
▁Hazor	-11.6889
▁shining	-11.6889
▁flies	-11.689
▁makaaayon	-11.689
▁heifer	-11.689
▁Adoniyas	-11.689
▁piyakapagoyag	-11.689
▁convinced	-11.689
▁Ragon	-11.689
▁piroropet	-11.689
▁matenggaw	-11.689
▁miyatimo	-11.689
▁ungodly	-11.689
▁Jair	-11.6891
akabagera	-11.6891
▁deliverance	-11.6891
▁pekesowasowa	-11.6891
▁hung	-11.6891
▁spies	-11.6891
▁acceptable	-11.6892
▁pekagaga	-11.6892
▁Olives	-11.6892
▁kealin	-11.6892
▁miyapamasa	-11.6892
▁miyakapoti	-11.6892
▁thrust	-11.6892
▁kabibiyag	-11.6893
▁hypocrites	-11.6894
▁Pisto	-11.6894
may	-11.6894
▁pelameden	-11.6894
▁miyangendao	-11.6894
▁Biyangon	-11.6895
▁piyamakapiya	-11.6895
▁makaparatiyaya	-11.6895
▁peraoten	-11.6895
▁pepagipat	-11.6896
▁masimba	-11.6896
▁malobay	-11.6896
▁Simri	-11.6897
drach	-11.6897
▁miiga	-11.6897
▁mapakapiya	-11.6897
▁Rabbi	-11.6897
▁parched	-11.6899
▁garing	-11.69
▁kambobono	-11.69
imri	-11.69
▁pekatoon	-11.69
▁kimbitiyarain	-11.69
▁pekaawaan	-11.6901
▁Tatanod	-11.6901
▁weeds	-11.6903
▁ravines	-11.6903
▁kelipatan	-11.6903
▁Ingkainoto	-11.6903
▁builders	-11.6903
▁Adar	-11.6904
▁greatness	-11.6904
▁katori	-11.6904
▁demanded	-11.6904
▁sixteen	-11.6905
▁Iliyab	-11.6907
▁closely	-11.6907
▁disown	-11.6908
▁confront	-11.6909
▁roaring	-11.691
▁pepanateb	-11.691
▁Ori	-11.6911
▁piyanago	-11.6912
▁dragon	-11.6913
▁Midianites	-11.6914
pakaonot	-11.6914
▁murdered	-11.6915
oni	-11.6915
▁petebanan	-11.6916
▁transgressions	-11.6917
▁stolen	-11.6917
shon	-11.6917
▁doorway	-11.6918
▁masoat	-11.6919
▁ikepedi	-11.6919
iyainengka	-11.692
▁minom	-11.6923
▁bone	-11.6924
▁pamonoa	-11.6924
▁mbeling	-11.6924
▁kapanalagadi	-11.6926
▁scorch	-11.6926
▁gegeba	-11.6926
▁Abiyas	-11.693
▁masowa	-11.693
▁Pam	-11.693
zziel	-11.6932
▁kapowasa	-11.6934
▁ketoman	-11.6934
▁kapagembaal	-11.6934
▁kapepawala	-11.6936
▁kiyapakapiya	-11.6936
▁comforted	-11.6938
▁salasa	-11.6938
▁disgraced	-11.6939
▁Fear	-11.694
▁pekokom	-11.694
▁misorat	-11.6942
▁sembagen	-11.6943
▁kisembag	-11.6944
timan	-11.6946
pemborngat	-11.6947
▁kakendori	-11.6949
kararasay	-11.6951
▁kiyababayai	-11.6951
▁Jeh	-11.6956
ecked	-11.6956
▁beating	-11.6957
gepe	-11.6959
tombok	-11.6959
▁tin	-11.6961
▁maagaw	-11.6967
▁discuss	-11.6969
▁kararangiti	-11.6971
▁peratiyayaan	-11.6971
▁tokod	-11.6977
enger	-11.6977
pekebabayai	-11.6978
▁allies	-11.6978
▁mbentog	-11.698
▁kakokorang	-11.6981
▁pepangona	-11.6982
▁wither	-11.6982
▁popot	-11.6982
▁mapapara	-11.6984
▁papasad	-11.6984
▁kimbeg	-11.6984
▁pepek	-11.6989
▁concerned	-11.6994
ongen	-11.6997
▁provinces	-11.6998
▁produces	-11.6999
▁ability	-11.7
▁tetaro	-11.7
▁sp	-11.7001
▁total	-11.7002
osheth	-11.7005
▁somiya	-11.7008
▁penggalebek	-11.7017
▁backs	-11.7017
▁pepangosiyat	-11.7018
▁kapanalamat	-11.7018
▁matimo	-11.7019
▁Wi	-11.7021
sisibay	-11.7026
▁totonga	-11.7038
▁peparoman	-11.7044
▁petimo	-11.7044
▁Ibir	-11.7046
▁keoteng	-11.7048
keagaw	-11.705
▁Ina	-11.7051
▁Leka	-11.7054
▁pakapenda	-11.7056
bearing	-11.7061
tindoro	-11.7061
▁tabotod	-11.7065
kaawid	-11.7078
dai	-11.7089
babasa	-11.7091
▁graves	-11.7092
tek	-11.7098
▁lapis	-11.7103
▁Tiy	-11.7106
▁eighty	-11.7106
▁withers	-11.7107
dapan	-11.7108
▁petelikod	-11.7111
▁pembantog	-11.7117
▁fate	-11.7121
▁pesogok	-11.7123
ayan	-11.7138
▁Lima	-11.7143
kakasoy	-11.7144
miyaden	-11.7155
ropet	-11.7156
▁sail	-11.7158
▁initana	-11.7159
bas	-11.716
pangalinggagaw	-11.7163
eba	-11.7167
pangendaon	-11.7184
atag	-11.7186
iyonot	-11.719
omiyasoy	-11.719
▁ilang	-11.7192
▁Were	-11.7194
▁Pito	-11.7198
babaya	-11.7198
pakaasal	-11.72
▁deed	-11.7202
ave	-11.7202
▁Sip	-11.7208
▁Pel	-11.722
rah	-11.7227
▁load	-11.7228
lepas	-11.723
embak	-11.7232
lam	-11.7233
ranga	-11.7238
onen	-11.724
oran	-11.7248
ingedan	-11.7254
▁minis	-11.7255
ipekedali	-11.7257
▁trib	-11.7259
▁pipero	-11.7268
▁liver	-11.7274
obedience	-11.7276
▁leas	-11.7281
▁biyatiy	-11.7284
hud	-11.7292
▁sl	-11.7294
▁kak	-11.7295
aren	-11.7299
▁siko	-11.7299
▁reache	-11.7308
iyanat	-11.7311
Edom	-11.7312
▁besiege	-11.7315
▁keoma	-11.7317
daowa	-11.7319
miyalot	-11.7321
hip	-11.7324
▁Long	-11.7326
balak	-11.7332
laslas	-11.7334
▁approve	-11.7341
▁kat	-11.7343
▁pelagoy	-11.7347
▁engage	-11.7351
▁piyamaka	-11.7354
▁project	-11.7357
babaling	-11.7359
▁miyap	-11.7359
bang	-11.7367
kilala	-11.7369
▁week	-11.737
doon	-11.7372
sebang	-11.7374
ndadaneg	-11.7382
▁destroyer	-11.7388
mpes	-11.739
▁panel	-11.739
▁mock	-11.7391
▁spit	-11.7394
peyag	-11.7401
ndatoan	-11.7403
iyalangan	-11.7403
lengan	-11.7403
bono	-11.7407
rolled	-11.7412
▁unintentional	-11.7415
klas	-11.7423
pelapis	-11.7429
keoyag	-11.7431
siyapen	-11.7432
her	-11.7434
ush	-11.7436
possible	-11.7437
iyabot	-11.7439
▁trig	-11.744
nog	-11.7452
▁Seven	-11.7454
pakasoled	-11.7456
inggalebek	-11.7461
owani	-11.7465
time	-11.7471
ikopay	-11.7472
▁minibaya	-11.7474
▁rob	-11.7477
▁biy	-11.7482
▁miyageda	-11.7484
pengan	-11.7487
▁honest	-11.7488
▁praises	-11.749
▁Miyawa	-11.7495
araw	-11.7504
▁mipeto	-11.7505
akimbabaya	-11.7506
▁somo	-11.7513
▁penditar	-11.752
▁Sor	-11.7524
▁Pat	-11.7526
kikokom	-11.7541
iro	-11.7544
babarakat	-11.7547
ause	-11.7554
▁dom	-11.7557
any	-11.7561
▁ours	-11.7563
sogoon	-11.7563
▁kara	-11.7564
▁ordina	-11.7569
▁Sosa	-11.7569
▁piyanganga	-11.7575
▁direct	-11.7576
▁lights	-11.7577
▁pekadeke	-11.7587
▁katito	-11.7589
▁Peri	-11.7593
des	-11.7601
▁Ipe	-11.7604
nine	-11.7611
▁club	-11.7614
▁tunic	-11.7614
robab	-11.7621
▁mocker	-11.7631
▁antawa	-11.7632
head	-11.7633
▁Babylonian	-11.7635
▁display	-11.7643
▁study	-11.7644
▁keragon	-11.7644
▁pool	-11.7645
teginep	-11.7645
▁nurse	-11.7646
▁defeat	-11.7646
akongan	-11.7647
alawatan	-11.7649
pepaminasa	-11.7649
tekdir	-11.7653
▁Inise	-11.7654
elek	-11.7655
▁zeal	-11.7655
kaoma	-11.7657
▁poison	-11.7658
▁Abednego	-11.7658
▁Ahitub	-11.7658
▁Enoch	-11.7658
▁Jephunneh	-11.7658
▁Kapirnaom	-11.7658
▁Pisgah	-11.7658
▁Rejoice	-11.7658
▁administrator	-11.7658
▁advantage	-11.7658
▁atastanggongan	-11.7658
▁capital	-11.7658
▁character	-11.7658
▁condition	-11.7658
▁confusion	-11.7658
▁redemption	-11.7658
▁religion	-11.7658
▁restitution	-11.7658
▁sluggard	-11.7658
▁tingkalong	-11.7658
▁Molech	-11.7658
▁partiality	-11.7658
▁Goshen	-11.7658
▁knife	-11.7658
▁Flee	-11.7658
▁mbabaradosa	-11.7658
▁furious	-11.7658
▁Rikab	-11.7658
▁Martha	-11.7658
▁Alaykum	-11.7658
▁earlier	-11.7658
▁hurry	-11.7658
▁maregas	-11.7658
▁makapopoon	-11.7658
▁demonpossessed	-11.7659
▁Seraiah	-11.7659
▁glorified	-11.7659
▁dancing	-11.7659
▁Ananias	-11.7659
zzah	-11.7659
▁tendek	-11.7659
▁piyagongatongat	-11.7659
▁Iglon	-11.7659
▁Tobiah	-11.7659
▁unfaithfulness	-11.7659
▁impurity	-11.7659
▁painful	-11.7659
▁robbed	-11.7659
▁compassionate	-11.766
▁cleansing	-11.766
▁makapegolowan	-11.766
▁jackals	-11.766
▁kiyaidin	-11.766
▁pitekdir	-11.766
▁perverse	-11.766
▁multitude	-11.766
▁felt	-11.7661
▁facedown	-11.7661
▁Hirmon	-11.7661
▁afterward	-11.7661
▁zealous	-11.7661
▁miyamakakasoy	-11.7661
▁frogs	-11.7661
▁pekaripag	-11.7661
▁Lakis	-11.7661
▁exhausted	-11.7661
▁discouraged	-11.7662
▁ipengalinggagaw	-11.7662
▁Kiniyo	-11.7662
▁palang	-11.7662
▁cold	-11.7663
▁easy	-11.7663
▁godless	-11.7663
▁uncleanness	-11.7663
▁bontal	-11.7664
▁kapaginontolan	-11.7664
▁kiyarasay	-11.7664
▁correct	-11.7664
▁miyasama	-11.7664
▁Amariah	-11.7664
▁dinner	-11.7665
▁miyapeno	-11.7665
▁Yopa	-11.7665
▁tanggal	-11.7665
▁Maregen	-11.7666
▁encamped	-11.7666
▁sagogona	-11.7666
▁kasadan	-11.7666
▁Prophets	-11.7667
▁pursuing	-11.7667
▁pakalalakawa	-11.7667
uity	-11.7667
▁bush	-11.7667
▁maperagon	-11.7667
▁raros	-11.7668
▁pelepasen	-11.7668
ampil	-11.7668
▁subdued	-11.7669
▁misemaya	-11.7669
pengendao	-11.7671
▁pemanekew	-11.7672
▁Master	-11.7672
▁kerakmatan	-11.7672
▁dempas	-11.7672
▁cured	-11.7673
▁arrested	-11.7675
▁goodness	-11.7676
▁mararasay	-11.7676
ogen	-11.7677
▁fortunes	-11.7677
▁falsely	-11.7677
▁Yair	-11.7677
rot	-11.7677
▁pemalagoy	-11.7677
rance	-11.7678
▁kapeginom	-11.7679
▁gra	-11.768
▁mapodi	-11.7681
▁pepakaokit	-11.7682
▁accompany	-11.7682
▁handful	-11.7685
▁makambagian	-11.7685
▁godly	-11.7686
▁supplies	-11.7687
▁pepang	-11.7689
pepangongonotan	-11.769
ipoporo	-11.769
▁ipetay	-11.769
▁pepangimporoan	-11.7691
▁mitatan	-11.7692
▁marangit	-11.7693
▁bengel	-11.7695
▁nggenek	-11.7695
▁height	-11.7697
▁rash	-11.7697
▁miyasowa	-11.77
itan	-11.7701
ain	-11.7702
▁pepagongatongat	-11.7703
▁kepareng	-11.7703
▁worker	-11.7703
▁deer	-11.7704
▁riddle	-11.7704
▁higher	-11.7706
▁salamangk	-11.7706
▁pipesa	-11.7707
▁carrie	-11.7709
▁kinitaog	-11.7713
▁makaripag	-11.7714
▁rewarded	-11.7714
▁Nitani	-11.7714
▁towers	-11.7715
saliba	-11.7717
ganat	-11.7717
pangaroma	-11.7718
▁reveal	-11.7719
▁repairs	-11.7719
▁owl	-11.772
▁customs	-11.7721
▁tapong	-11.7724
▁pagadati	-11.7724
▁kiyasiksaa	-11.7728
▁strongholds	-11.7729
▁Tom	-11.773
▁fasted	-11.7732
▁ikeoyag	-11.7733
▁Nimr	-11.7737
▁sorban	-11.7738
pipi	-11.7739
▁Pembalo	-11.774
▁ganat	-11.7741
▁Pit	-11.7741
▁hole	-11.7744
▁blows	-11.7746
▁piyagta	-11.7747
▁bara	-11.7748
tamok	-11.7748
▁karilai	-11.7749
old	-11.7752
▁kemboway	-11.7754
▁Lif	-11.7755
pekasabet	-11.776
oonot	-11.7763
▁Apolo	-11.7768
rido	-11.7768
▁Among	-11.777
▁awai	-11.777
pili	-11.7771
ying	-11.7772
▁Tareg	-11.7773
▁banog	-11.7774
alamu	-11.7774
▁harden	-11.7778
uestions	-11.7783
▁komiki	-11.7788
▁Imam	-11.7789
▁pegawidan	-11.7792
shB	-11.7794
kerarangiti	-11.7799
ndadalendeg	-11.7801
▁rebel	-11.7802
▁crowns	-11.7809
isemaya	-11.781
pekeragon	-11.7811
▁tedem	-11.7813
pelikop	-11.7814
▁sufferings	-11.7816
▁Lalan	-11.7816
tekedeg	-11.7817
▁miyang	-11.7818
▁Hann	-11.7826
▁argue	-11.7833
▁rent	-11.7834
▁Az	-11.7842
▁wa	-11.7842
endaan	-11.7842
▁dikir	-11.7844
▁mangangaroma	-11.7845
eated	-11.7846
▁pangen	-11.7848
dar	-11.7849
▁taliyong	-11.7849
▁mbaling	-11.7851
▁seop	-11.7854
▁Sabeta	-11.7857
riyo	-11.786
▁selasela	-11.7863
▁Magaa	-11.7865
▁simbaan	-11.7867
▁toil	-11.7867
gaan	-11.7868
▁peteme	-11.7869
pes	-11.788
▁titimo	-11.7882
sh	-11.7891
▁Ipeke	-11.7895
▁Out	-11.7895
kapenalagad	-11.7902
▁kapeparatiyaya	-11.7908
adiyam	-11.7908
▁Aramai	-11.7908
bogaw	-11.7913
▁ordain	-11.7913
▁Piyak	-11.7915
tapelek	-11.792
liyowan	-11.7922
▁pepamono	-11.7924
▁persuade	-11.7926
egay	-11.793
ondog	-11.7931
▁Ahimaa	-11.7944
▁kabager	-11.7948
sakit	-11.7954
▁mos	-11.7956
renek	-11.7957
▁pakapipiyaa	-11.7966
▁roam	-11.7969
▁kepita	-11.7972
pekatarima	-11.7974
▁saolan	-11.7977
ndo	-11.7979
tak	-11.798
kitekaw	-11.7994
olen	-11.7996
alogan	-11.7996
▁titindeg	-11.8
▁serig	-11.8
▁risk	-11.8001
pangalimbabaan	-11.8011
▁niyat	-11.8013
ge	-11.8016
▁roads	-11.8027
L	-11.803
▁Sengga	-11.803
hich	-11.8032
ongkir	-11.8035
both	-11.8039
aran	-11.8045
▁Ac	-11.8046
pekelek	-11.8048
was	-11.8051
rarasay	-11.8053
ondoy	-11.8056
mbono	-11.8058
asan	-11.8069
yaga	-11.8072
▁builds	-11.8074
▁mapa	-11.8077
ipengandag	-11.8093
epipi	-11.8094
angin	-11.8096
ngembaal	-11.8103
dato	-11.8104
otang	-11.8105
okan	-11.8105
servants	-11.8113
▁kapekei	-11.8115
▁miyaori	-11.8115
▁faced	-11.8128
▁Ped	-11.8128
rinayag	-11.813
pped	-11.813
▁fellows	-11.8135
sha	-11.8136
mbinasaa	-11.8147
▁seer	-11.8149
▁isong	-11.8154
alaikat	-11.8159
▁orak	-11.8159
▁miyamangi	-11.8161
kegowad	-11.817
matay	-11.8172
otong	-11.8174
▁Pen	-11.8175
hod	-11.8178
taban	-11.818
▁mud	-11.8181
ronot	-11.8183
▁kana	-11.8185
ayaw	-11.8187
▁Mar	-11.8192
▁woe	-11.8193
shes	-11.8199
▁Siyal	-11.8205
▁Nah	-11.8213
iyangongonotan	-11.8215
laboso	-11.8222
▁Bela	-11.8222
sintaan	-11.8222
ayon	-11.8226
▁tao	-11.8229
▁somimba	-11.8229
pegokit	-11.8229
kipagepeda	-11.823
▁mbaloy	-11.824
sir	-11.8251
▁Ephraimite	-11.8252
ilangen	-11.8261
poro	-11.8261
elalalis	-11.8266
dding	-11.8267
rts	-11.827
▁panic	-11.8271
lin	-11.8274
▁Malo	-11.8277
atarotop	-11.8295
pangni	-11.8299
isembi	-11.8311
▁miyo	-11.8317
ions	-11.8321
▁Pela	-11.8324
ekatalingoma	-11.8326
▁fears	-11.8327
▁kapek	-11.8327
▁goo	-11.8328
mbalas	-11.8334
mber	-11.8342
▁somiyamb	-11.8343
nanalo	-11.8349
itelon	-11.8353
kendori	-11.8356
▁Heman	-11.836
barat	-11.8363
iyag	-11.8365
arimaa	-11.8365
▁tie	-11.8366
rad	-11.8373
de	-11.8378
bor	-11.8393
ob	-11.8394
▁Ib	-11.84
▁karesik	-11.8403
▁mita	-11.8404
magidaida	-11.8405
tegas	-11.8411
anat	-11.8418
▁Inok	-11.8422
▁kekampo	-11.8428
▁survive	-11.8431
▁Lawas	-11.8437
eroon	-11.8443
uarter	-11.8447
sapengan	-11.8448
▁timber	-11.8448
sirto	-11.8449
▁associate	-11.8449
▁standard	-11.8449
▁offense	-11.8451
▁hardship	-11.8451
▁task	-11.8454
▁sacrific	-11.8457
▁peseloba	-11.8458
kepakay	-11.8459
solot	-11.8467
▁ho	-11.8474
▁shatter	-11.8477
▁pemang	-11.8478
▁adulter	-11.848
gorigaw	-11.8483
▁liar	-11.8487
▁cherub	-11.8491
▁Ahitob	-11.8491
▁Bathsheba	-11.8491
▁Joppa	-11.8491
▁Korniliyo	-11.8491
▁Lamech	-11.8491
▁Milkisidik	-11.8491
▁Nethanel	-11.8491
▁Sanhedrin	-11.8491
▁Tarsis	-11.8491
▁TransEuphrates	-11.8491
▁authorities	-11.8491
▁ipopondiyong	-11.8491
▁merchandise	-11.8491
▁pandaopan	-11.8491
▁prudent	-11.8491
▁purchase	-11.8491
▁ranaranaw	-11.8491
▁utensils	-11.8491
▁whisper	-11.8491
▁Japheth	-11.8491
▁cupbearer	-11.8491
▁gossip	-11.8491
▁Anathoth	-11.8491
▁gazelle	-11.8491
▁harbor	-11.8491
▁mbabagatos	-11.8491
▁stagger	-11.8491
▁foothills	-11.8491
▁chaff	-11.8491
▁pakababager	-11.8491
▁adulteress	-11.8491
▁Rabbah	-11.8491
▁ninety	-11.8492
▁siyombali	-11.8492
▁renown	-11.8492
▁perseverance	-11.8492
▁promote	-11.8492
▁granada	-11.8492
▁Miriam	-11.8492
▁gomobat	-11.8492
▁confident	-11.8492
▁katatakabor	-11.8492
▁kebokaan	-11.8492
▁piyakagowagowad	-11.8492
▁attitude	-11.8492
▁invoke	-11.8492
▁majestic	-11.8492
▁pattern	-11.8492
▁envoy	-11.8492
▁Pikah	-11.8492
▁emptyhanded	-11.8492
▁fuel	-11.8492
▁torrent	-11.8492
▁pelebengan	-11.8492
▁fragrance	-11.8492
▁Redeemer	-11.8492
▁Gisor	-11.8492
▁lapad	-11.8492
▁fountain	-11.8492
▁satisfy	-11.8492
▁sugarcane	-11.8492
▁Anatot	-11.8493
▁Selaselaa	-11.8493
▁rowasan	-11.8493
▁afternoon	-11.8493
▁priesthood	-11.8493
▁Sirayas	-11.8493
▁miyamanodiyod	-11.8493
▁Aidaw	-11.8493
▁Nggagaan	-11.8493
▁hollow	-11.8493
▁sympathy	-11.8493
▁maasiya	-11.8494
▁piyanarotaroan	-11.8494
▁makakalaboso	-11.8494
▁harshly	-11.8494
▁pekobor	-11.8494
▁downfall	-11.8494
▁countryside	-11.8494
▁Hermon	-11.8495
▁kebilang	-11.8495
▁miyamanindeg	-11.8495
▁tempted	-11.8495
▁Word	-11.8495
▁useful	-11.8495
▁pepangonaban	-11.8496
▁sandawa	-11.8496
▁treasury	-11.8496
▁peperagon	-11.8496
▁rising	-11.8496
▁uncovered	-11.8496
▁kabantogi	-11.8496
▁daylight	-11.8497
▁major	-11.8497
bantabantay	-11.8497
▁sominto	-11.8497
▁inikapedi	-11.8497
▁kapenalagadi	-11.8498
▁miyakapangaroma	-11.8498
▁miyalagoy	-11.8498
▁Siklag	-11.8498
▁keiksamin	-11.8498
▁provoking	-11.8498
▁courageous	-11.8498
▁obtain	-11.8498
▁mitetaginep	-11.8499
kokokos	-11.8499
▁kelompiyo	-11.8499
▁kasasanaan	-11.8499
▁pananggila	-11.85
pimbarambarangan	-11.85
▁wineskins	-11.8501
▁kaken	-11.8501
iyal	-11.8501
▁penabangan	-11.8502
▁stream	-11.8502
▁kelepas	-11.8502
▁Adah	-11.8503
▁Gosen	-11.8503
▁Ngkainoto	-11.8503
▁preparation	-11.8503
▁Dibon	-11.8503
▁winter	-11.8503
▁molding	-11.8504
▁Wait	-11.8504
▁katatareg	-11.8504
▁toladan	-11.8504
▁Titos	-11.8505
▁pakapemborngat	-11.8505
▁Kedar	-11.8505
▁Osiyal	-11.8505
▁makadowa	-11.8506
▁narrow	-11.8506
▁mapakiilay	-11.8507
▁egg	-11.8508
▁galingan	-11.8508
sogat	-11.8508
▁kontra	-11.8509
▁kapangarasi	-11.8509
▁miyabono	-11.8509
▁tender	-11.8509
▁credited	-11.851
▁smell	-11.851
▁kebaroba	-11.8511
▁forgot	-11.8512
▁citizens	-11.8512
▁gedamen	-11.8512
▁instruct	-11.8512
▁bath	-11.8512
▁tatamoken	-11.8512
▁makapekewali	-11.8513
▁respond	-11.8513
▁Tomas	-11.8514
experienced	-11.8515
▁bentol	-11.8516
▁panabangi	-11.8517
▁makatoon	-11.8517
▁magagawii	-11.8517
agoolowan	-11.8518
▁colors	-11.8518
▁pesengka	-11.8518
▁Edomites	-11.8518
▁lilit	-11.8519
▁hoof	-11.8519
anoah	-11.8519
▁kemor	-11.852
▁violate	-11.8521
▁flames	-11.8523
▁kapatas	-11.8523
▁makokom	-11.8524
▁pinggan	-11.8524
▁kelaslas	-11.8526
▁extended	-11.8526
▁seboten	-11.8527
▁divorced	-11.8527
▁tebangan	-11.8527
alaykum	-11.8527
▁tatabaden	-11.8528
pememesa	-11.853
proved	-11.853
▁babak	-11.853
▁blossoms	-11.8531
▁talabok	-11.8531
▁kapendato	-11.8531
▁pakasong	-11.8531
▁kapepangosiyat	-11.8532
▁kawaw	-11.8533
▁watchman	-11.8533
▁pekinega	-11.8533
▁whos	-11.8533
▁corn	-11.8534
▁kiyasalawat	-11.8536
▁ipendato	-11.8537
▁Hosay	-11.8537
▁eleven	-11.8538
▁exclaim	-11.8538
▁pepangarasi	-11.8538
▁united	-11.8539
▁patok	-11.854
▁Geba	-11.8541
▁ariyari	-11.8541
▁saddle	-11.8541
pakatatalingomaa	-11.8541
▁Ataliya	-11.8542
▁makandato	-11.8543
▁thunders	-11.8544
▁katri	-11.8544
▁kalipati	-11.8544
▁Babay	-11.8547
▁kesoat	-11.8547
▁embrace	-11.8548
▁happening	-11.8551
▁katatagoa	-11.8551
▁panamar	-11.8555
▁Taana	-11.8555
▁windows	-11.8556
▁pekaontod	-11.8558
bibinasa	-11.856
▁pagise	-11.856
▁cens	-11.8562
lazy	-11.8562
iseksi	-11.8563
inipangangarapan	-11.8563
▁ascend	-11.8565
▁igaga	-11.8566
▁covet	-11.8568
▁balek	-11.857
▁avenge	-11.8571
▁islands	-11.8571
▁settings	-11.8571
▁fasten	-11.8573
▁kapembayad	-11.8582
▁deserves	-11.8583
▁makaonot	-11.8584
kir	-11.8587
▁kalendo	-11.8589
▁smooth	-11.8589
icri	-11.8591
▁kiyabinasaan	-11.8591
▁noticed	-11.8592
uench	-11.8593
▁main	-11.8593
▁Joah	-11.8594
olo	-11.8594
▁Minda	-11.8595
akasosoled	-11.8595
▁remaining	-11.8596
▁Build	-11.8597
▁waited	-11.8599
peno	-11.86
▁raw	-11.86
ns	-11.86
▁Timan	-11.8604
▁imperi	-11.8605
▁tetapok	-11.8607
your	-11.8611
▁loses	-11.8612
kap	-11.8612
▁peketadem	-11.8612
▁penggaka	-11.8613
▁Miyaden	-11.8614
▁iktiyar	-11.8614
▁saging	-11.8614
atan	-11.8616
panawatewag	-11.862
liness	-11.8628
ipegoman	-11.863
▁term	-11.8632
with	-11.8637
inimbabawata	-11.8639
ita	-11.8644
gontod	-11.8644
▁onot	-11.8645
▁pekeda	-11.8645
pamesipesik	-11.8647
glah	-11.8648
ikidia	-11.865
nilebeng	-11.865
pepangosor	-11.8651
kataros	-11.8651
▁Hagga	-11.8651
▁pekalalakaw	-11.8652
▁pepangembaal	-11.8654
▁Riya	-11.8659
▁goraok	-11.866
pakitidawa	-11.866
▁Pagadat	-11.8661
▁ketademan	-11.8661
▁chooses	-11.8661
pepekarani	-11.8665
▁Dor	-11.8665
▁barn	-11.8666
iyaratiyaya	-11.8666
kepita	-11.8666
uires	-11.8667
▁Lidas	-11.8667
▁bobono	-11.867
▁kawatan	-11.8672
▁mo	-11.8673
▁pemakinega	-11.8675
aawid	-11.8677
▁Alden	-11.8678
▁lit	-11.868
▁Akan	-11.8682
▁kapekan	-11.8692
▁strikes	-11.8692
▁nggoraok	-11.8693
together	-11.87
▁dep	-11.8702
rayoray	-11.8703
▁pesepa	-11.8706
gains	-11.8706
▁nggalebeken	-11.8707
▁hinder	-11.8709
▁petepengi	-11.8715
▁plagues	-11.8717
▁ramp	-11.8717
kaoombaw	-11.872
sayan	-11.8721
salapot	-11.8722
▁fa	-11.8726
▁sangor	-11.8728
▁inisambi	-11.8729
▁Siyad	-11.873
▁reading	-11.8736
orted	-11.8743
ipangendao	-11.8744
ilain	-11.8747
ries	-11.8748
pagapas	-11.8758
▁kiyat	-11.876
▁kiyabaloy	-11.8761
soat	-11.8767
kowaa	-11.8774
aga	-11.8775
▁ble	-11.8775
ndosa	-11.8777
▁bebe	-11.8778
ota	-11.8782
▁Mira	-11.8783
▁encircle	-11.8785
iniparak	-11.8787
nen	-11.8794
baeger	-11.8797
akedeg	-11.8798
bed	-11.8799
▁Keila	-11.88
▁alim	-11.8802
▁Alas	-11.8808
▁pegmaa	-11.8813
▁miyat	-11.8816
▁Li	-11.8817
▁dar	-11.8823
pekawit	-11.8824
▁late	-11.8826
▁kete	-11.8827
▁kesab	-11.8834
iyondog	-11.8837
▁kapag	-11.8845
cords	-11.8846
ove	-11.8847
▁Ri	-11.8852
▁Bils	-11.8859
▁Sheb	-11.8864
▁Toto	-11.8867
pagitowito	-11.887
▁sha	-11.8876
▁dip	-11.8876
▁Rila	-11.8881
ipeselasela	-11.8888
▁shower	-11.8895
▁train	-11.8903
▁Lebo	-11.8905
▁fo	-11.8906
paan	-11.8908
▁tops	-11.8908
ake	-11.8908
kalalakaw	-11.8914
abay	-11.892
taliyon	-11.892
aka	-11.8933
inam	-11.8934
biyas	-11.8934
▁pakakaso	-11.8935
▁sobo	-11.8935
▁soloten	-11.8939
rched	-11.8943
sal	-11.8948
▁engrave	-11.895
▁pepag	-11.8951
▁abanga	-11.8951
gatos	-11.8957
nggay	-11.896
our	-11.8963
▁minitoro	-11.8964
orog	-11.8964
▁withhold	-11.8964
kowaan	-11.8968
iperila	-11.8968
alebod	-11.8972
▁taunt	-11.8972
▁tithe	-11.8983
▁pelalis	-11.8987
▁fade	-11.8991
pakambeken	-11.8995
pakiilay	-11.8998
▁obligate	-11.9033
▁kon	-11.9037
▁mimba	-11.9038
lilinding	-11.9046
kibayad	-11.9047
simbaa	-11.905
▁Siri	-11.905
▁bolt	-11.9055
▁pel	-11.9062
▁Tomiyaro	-11.9066
epeno	-11.9067
▁kapeselasela	-11.9083
▁Riyo	-11.9084
▁miyamanon	-11.9089
pematay	-11.9092
ilis	-11.9093
odiya	-11.9096
▁accus	-11.9098
ipekelimo	-11.9105
omer	-11.9107
▁kapekib	-11.9109
asal	-11.9109
▁Tola	-11.9116
from	-11.912
kai	-11.9121
ami	-11.9121
▁allott	-11.9136
▁inipan	-11.9144
manoman	-11.9151
witan	-11.9153
▁kesa	-11.9156
taero	-11.9161
amamasaan	-11.9164
▁temp	-11.9167
▁ike	-11.9168
▁mbanog	-11.9172
traps	-11.9174
▁Hashab	-11.9182
aniah	-11.9184
ekaw	-11.9188
eban	-11.9189
▁mbabali	-11.9189
lalapis	-11.9189
▁wi	-11.9191
▁ndi	-11.9191
pangembaal	-11.9192
iyasogok	-11.9194
mba	-11.9194
binasa	-11.9197
soson	-11.9198
▁kakan	-11.9199
▁biyala	-11.92
▁pemola	-11.9202
▁Nir	-11.9204
▁pepamagonayona	-11.9205
inisili	-11.9205
nly	-11.9209
icked	-11.921
manat	-11.9212
▁magaga	-11.9224
atar	-11.9226
sepa	-11.9227
▁mbegay	-11.9228
ith	-11.9229
▁kapeka	-11.9233
▁Mababa	-11.9243
kar	-11.9245
▁komiya	-11.9246
kempo	-11.9258
asoy	-11.9259
ngadap	-11.9263
▁ripe	-11.9264
tiyal	-11.9265
ina	-11.9266
▁Mapit	-11.9281
▁makato	-11.9288
▁Pep	-11.9288
▁Tinim	-11.9291
teras	-11.9301
hur	-11.9301
timo	-11.9301
tretch	-11.9314
peselobaa	-11.9314
▁Pepae	-11.9314
▁Misa	-11.9319
osan	-11.9321
trained	-11.9322
sar	-11.9329
awag	-11.9335
kakerangit	-11.9336
penanadem	-11.9336
▁blossom	-11.934
▁bolong	-11.9341
▁De	-11.9348
▁Keda	-11.9349
▁chain	-11.935
▁Miyate	-11.9352
▁debt	-11.9353
▁Gershon	-11.9356
pegidaida	-11.9356
longan	-11.9357
▁shrine	-11.9358
▁Benjamite	-11.9358
▁Gentile	-11.9358
▁weapon	-11.9359
▁pekakaso	-11.936
▁lyre	-11.9362
▁oppressor	-11.9362
▁limit	-11.9362
▁makaisa	-11.9362
▁timbang	-11.9363
▁sapa	-11.9366
▁complaint	-11.9366
arched	-11.9367
▁recover	-11.9368
ded	-11.937
▁mangon	-11.9384
▁Bi	-11.9384
onaan	-11.9384
▁overwhelm	-11.9386
▁explore	-11.9386
bil	-11.9386
▁complain	-11.9387
▁persecute	-11.9388
▁Piyam	-11.9396
▁winepress	-11.9398
▁miyakataban	-11.9398
sondal	-11.9399
▁Recab	-11.94
amataan	-11.94
▁effect	-11.94
▁shameful	-11.94
tatangked	-11.94
▁Abidnigo	-11.94
▁Cyprus	-11.94
▁Eliashib	-11.94
▁Magdalina	-11.94
▁barabangensa	-11.94
▁coconut	-11.94
▁gomogobat	-11.94
▁hyssop	-11.94
▁iroplano	-11.94
▁padidikir	-11.94
▁Deborah	-11.94
▁Diborah	-11.94
▁Jubilee	-11.94
▁Migdol	-11.94
▁tassel	-11.94
▁malicious	-11.94
▁statute	-11.94
▁surface	-11.94
▁vomit	-11.94
▁Rimmon	-11.94
▁Steph	-11.94
▁afford	-11.94
▁nativeborn	-11.94
▁Amoz	-11.9401
▁further	-11.9401
▁wakto	-11.9401
▁Arpad	-11.9401
▁proceed	-11.9401
▁glorify	-11.9401
▁Ahidiyas	-11.9401
▁Sidonians	-11.9401
▁gelat	-11.9401
▁Geshur	-11.9401
▁pirlas	-11.9401
▁Maranao	-11.9401
▁Shaul	-11.9401
▁Mamri	-11.9401
▁flourish	-11.9401
▁ipegonga	-11.9401
▁Yatir	-11.9401
▁mbengon	-11.9401
▁selfcontrolled	-11.9401
▁makapemayandeg	-11.9401
▁nakedness	-11.9401
▁Ahimaaz	-11.9401
▁Mataniyas	-11.9401
▁medium	-11.9401
▁Ephron	-11.9401
▁Abihah	-11.9401
▁Know	-11.9402
▁piyagitowito	-11.9402
▁scourge	-11.9402
▁mabatiya	-11.9402
▁pagapak	-11.9402
dadato	-11.9402
▁tetelo	-11.9403
▁fugitives	-11.9403
▁pamamana	-11.9403
▁pursuit	-11.9403
▁piyakabager	-11.9403
▁ignore	-11.9403
▁makasosopak	-11.9404
▁armies	-11.9404
▁Yapet	-11.9404
▁mipapangkat	-11.9404
▁relent	-11.9404
▁gonong	-11.9404
▁friendship	-11.9405
▁panakes	-11.9405
▁pesodiin	-11.9405
▁Danites	-11.9405
▁anybody	-11.9405
▁interpretation	-11.9406
▁persecution	-11.9406
▁strange	-11.9406
▁kekena	-11.9406
▁sorcery	-11.9406
▁nearby	-11.9407
▁haught	-11.9407
▁Dedan	-11.9407
▁instruments	-11.9407
▁miyabiyag	-11.9407
▁alarmed	-11.9408
▁antoka	-11.9408
▁safely	-11.9408
▁taxes	-11.9409
▁paket	-11.9409
▁mipendarainon	-11.9409
▁Terah	-11.9409
▁makambawata	-11.941
▁Teach	-11.941
▁Abihu	-11.941
▁miyaoteng	-11.941
▁miyapotol	-11.941
▁magabi	-11.941
pananalo	-11.9412
▁peketotong	-11.9412
▁pesokayan	-11.9412
▁regularly	-11.9413
▁miyalaslas	-11.9415
poti	-11.9415
katarima	-11.9415
▁miyabagi	-11.9416
THE	-11.9416
▁handsome	-11.9416
▁kapekakasoy	-11.9416
▁shaved	-11.9417
ipesoled	-11.9417
▁barabad	-11.9417
▁insight	-11.9418
▁minitoman	-11.9418
▁Rise	-11.9419
▁pomegranates	-11.9419
▁tired	-11.9419
▁flying	-11.942
▁kaperimar	-11.9421
▁resist	-11.9423
▁Abiho	-11.9423
▁famous	-11.9424
▁seventeen	-11.9424
▁mention	-11.9426
itinda	-11.9426
▁Pakaso	-11.9426
▁Mother	-11.9428
▁kebetow	-11.9428
▁mabangon	-11.9429
▁thumb	-11.9429
▁pekikan	-11.943
okitan	-11.943
▁pepamatay	-11.9431
▁gray	-11.9432
▁ranks	-11.9433
▁Sobah	-11.9433
▁idea	-11.9436
riga	-11.9436
▁bokel	-11.9436
bibitin	-11.944
▁siyarig	-11.9442
▁healthy	-11.9443
▁mangongonotan	-11.9445
semaya	-11.9446
▁offenses	-11.9448
▁hardships	-11.9448
▁designate	-11.9448
▁begas	-11.9448
▁pemangonga	-11.9449
▁kesabotan	-11.9449
▁Kadmi	-11.9449
▁Sibidi	-11.945
▁pretend	-11.945
▁rebels	-11.9451
mit	-11.9451
▁learning	-11.9454
▁pakipengaroma	-11.9454
▁worm	-11.9457
▁express	-11.9458
▁hosts	-11.9459
▁pegembaal	-11.9461
▁liyam	-11.9467
isdom	-11.9468
▁cargo	-11.9471
▁pakapembeken	-11.9471
▁kapagawa	-11.9473
▁maolog	-11.9474
▁mamono	-11.9474
▁insults	-11.9477
baloya	-11.9477
ilo	-11.9484
▁makasodi	-11.9486
▁ampona	-11.9488
otaw	-11.9488
▁kate	-11.9491
▁pekadarpa	-11.9494
▁Yarim	-11.9496
▁isendod	-11.9497
▁totok	-11.9497
▁pengokom	-11.9497
▁heirs	-11.9499
dodowa	-11.95
▁miyadato	-11.9505
▁breathed	-11.9505
▁dadadag	-11.9506
▁roast	-11.9506
pelinding	-11.9507
▁sasanaan	-11.9507
ub	-11.9509
▁kiyapasad	-11.9513
▁kiyakowaa	-11.9513
▁kadeg	-11.9514
▁doma	-11.9518
▁Arow	-11.952
▁bitiyara	-11.9522
angen	-11.9528
ton	-11.953
igan	-11.9532
▁pemataanan	-11.9532
sek	-11.9532
▁remind	-11.9533
▁Sil	-11.9535
▁conspir	-11.9535
▁kasigi	-11.9536
paka	-11.9546
▁searche	-11.9548
deg	-11.9552
▁paying	-11.9553
▁skillful	-11.9554
ominindeg	-11.9555
gobat	-11.9557
▁Makape	-11.9557
ven	-11.9559
▁final	-11.9559
iga	-11.9563
▁Mesha	-11.9564
dowandowaan	-11.9567
▁meant	-11.9568
baal	-11.9569
▁pots	-11.9571
arani	-11.9571
▁pakapiyaa	-11.9572
mang	-11.9575
ves	-11.9583
▁borders	-11.9585
▁kagowad	-11.9585
▁asal	-11.9589
▁Bir	-11.9589
▁dwellings	-11.959
▁pitch	-11.959
▁trick	-11.9594
▁lan	-11.9595
▁kaiiga	-11.9599
▁pains	-11.9601
▁boasts	-11.9604
▁shy	-11.9609
▁minasa	-11.961
▁pepekarani	-11.961
▁nditar	-11.9615
kama	-11.9623
pipiya	-11.9624
▁drop	-11.9624
▁rows	-11.9625
singayo	-11.9629
▁buildings	-11.963
kingginawai	-11.9633
▁pangaromaa	-11.9633
▁minise	-11.9635
▁perido	-11.9636
palagoy	-11.9641
ngarapan	-11.9643
▁kasakit	-11.9646
▁loft	-11.9656
aloba	-11.9656
▁pembibid	-11.9657
▁mad	-11.9658
▁saboten	-11.9666
▁katatadem	-11.9667
▁Far	-11.9668
▁mas	-11.9668
inibegak	-11.9675
▁Yak	-11.9675
▁piyakada	-11.9677
laan	-11.968
▁Magog	-11.9682
segad	-11.9685
▁mbabanogen	-11.9686
kot	-11.9688
penggolalan	-11.9689
▁dwells	-11.969
abet	-11.9691
▁dedeke	-11.9692
▁ease	-11.9695
▁mbabanoga	-11.9695
mogiyong	-11.9696
▁skins	-11.9697
▁sondol	-11.9701
danegen	-11.9703
lain	-11.9704
rending	-11.9709
▁kawa	-11.9709
▁Lotan	-11.9715
▁Wal	-11.9718
dagedeb	-11.9721
rim	-11.9724
▁beds	-11.974
pesepeng	-11.9741
▁kapepana	-11.9744
▁mbibitiyarai	-11.9745
ieth	-11.9755
knel	-11.9762
nah	-11.9764
▁Piyor	-11.9771
inisambi	-11.9771
▁Ath	-11.9774
▁Gom	-11.9776
▁inisa	-11.9776
sah	-11.9778
pekebabaya	-11.9779
yangka	-11.978
pembetad	-11.9782
atampil	-11.9792
▁content	-11.9793
▁pegagak	-11.9796
▁ndakep	-11.98
alek	-11.9801
tademi	-11.9801
▁Nor	-11.9803
imilik	-11.9804
perasaya	-11.9804
▁sodiyod	-11.9805
▁besieg	-11.9827
iselasela	-11.984
katotolong	-11.9848
asad	-11.9855
taman	-11.9856
▁Ir	-11.9856
▁devastate	-11.986
▁kokoma	-11.9865
▁lean	-11.9865
▁reed	-11.9867
alikod	-11.9874
▁liste	-11.9874
▁panotol	-11.9881
kokom	-11.9884
ccept	-11.989
▁destine	-11.9899
▁error	-11.9901
api	-11.9904
diya	-11.9909
▁yes	-11.991
▁round	-11.9913
bolongan	-11.9923
mbowat	-11.9933
▁heir	-11.9942
kalilintad	-11.9944
▁miniseg	-11.9947
▁flam	-11.9951
▁nut	-11.9955
▁ododa	-11.9957
mbalay	-11.9958
ena	-11.9961
▁Tob	-11.9964
▁mbetowa	-11.9964
▁pepakaliyo	-11.9965
imiyas	-11.9971
▁mon	-11.9973
ipeteros	-11.9974
▁elect	-11.9983
alim	-11.9992
▁Mara	-11.9993
▁bestow	-11.9993
▁ended	-12.0001
towa	-12.0003
akamemesa	-12.0009
▁Yos	-12.0013
▁cor	-12.0019
owi	-12.0022
▁Osi	-12.0024
▁pepero	-12.0032
▁Bel	-12.0032
▁Rome	-12.0032
lalag	-12.0038
abad	-12.0039
▁pelalalis	-12.005
▁lini	-12.005
mimbang	-12.0053
▁ipag	-12.0057
tuck	-12.0063
mbagak	-12.0065
▁camps	-12.0065
▁pagaga	-12.0073
▁sandal	-12.0078
▁pesebo	-12.0081
▁minisog	-12.0084
bowat	-12.0085
iyapangongoripen	-12.0085
diyakat	-12.0091
▁Ido	-12.0097
▁kikakoko	-12.01
▁apasa	-12.0101
pelaslas	-12.0106
▁enslave	-12.0108
▁hunt	-12.0109
mbibitiyarai	-12.0116
▁asada	-12.0126
▁hang	-12.0128
▁Sampa	-12.0133
▁kiyaleka	-12.0133
▁peng	-12.0134
pamasa	-12.0137
▁pesa	-12.0139
ard	-12.0142
land	-12.0142
pepamangendao	-12.0144
magapas	-12.0152
▁keori	-12.0152
nalamat	-12.0154
▁pekabega	-12.0155
▁owned	-12.0165
ros	-12.0165
▁Min	-12.0175
▁Paratiyayaa	-12.0179
▁dedicat	-12.0186
ipepangosiyat	-12.0188
ollow	-12.0195
▁Mama	-12.0197
▁cant	-12.02
kasoled	-12.02
▁represent	-12.0202
tey	-12.0205
akapenalagad	-12.021
▁pak	-12.0211
almu	-12.0211
ila	-12.0211
▁Mo	-12.0219
akalalakawa	-12.022
miyagen	-12.022
cerning	-12.0221
▁Piyan	-12.0223
▁peterima	-12.0227
pamagakal	-12.0231
orot	-12.0231
lessed	-12.0233
sendod	-12.0239
tor	-12.024
▁ndene	-12.024
petan	-12.0241
rani	-12.0244
even	-12.0245
kipetidawa	-12.0247
▁destroys	-12.025
isean	-12.0254
gopaw	-12.0256
▁petelo	-12.0257
panabet	-12.0262
▁fier	-12.0264
imosawir	-12.0266
▁Bo	-12.0268
amili	-12.0269
▁peliyo	-12.027
rushed	-12.027
initoman	-12.0272
▁mal	-12.0277
kapatay	-12.028
▁pekorban	-12.0288
▁pet	-12.0295
▁Miyakao	-12.0299
▁Arab	-12.03
bong	-12.0303
iyakaoma	-12.0307
▁Brea	-12.0308
tongen	-12.0315
▁Initoro	-12.0315
katero	-12.0319
toon	-12.0319
▁kapakatero	-12.0319
diyangka	-12.032
▁drench	-12.0321
▁miyamangon	-12.0326
▁prepar	-12.0326
itobak	-12.0333
▁Bet	-12.0335
kay	-12.0337
kitabang	-12.0337
mpil	-12.0339
ock	-12.0343
▁stumbl	-12.0351
pepangokom	-12.0351
item	-12.0352
▁chicken	-12.0353
thing	-12.0353
▁Niko	-12.0354
▁Moabite	-12.0357
▁Esh	-12.0359
alina	-12.0367
▁involve	-12.0372
▁stole	-12.0373
▁romiri	-12.0376
poroan	-12.0377
▁demolish	-12.0385
yongan	-12.0386
▁execute	-12.0386
▁filth	-12.0386
▁sprout	-12.0386
▁Panganga	-12.0387
▁wick	-12.0389
▁prophesie	-12.0389
▁pervert	-12.039
col	-12.0393
iklag	-12.0393
▁pembonget	-12.0394
▁create	-12.0394
▁fl	-12.0397
▁harsh	-12.0397
▁Tama	-12.0397
inipangkat	-12.0398
▁Teman	-12.0399
elebrate	-12.0399
oontod	-12.04
▁immoral	-12.04
▁Arphaxad	-12.04
▁Ashkelon	-12.04
▁Creator	-12.04
▁Felix	-12.04
▁Glory	-12.04
▁Hinnom	-12.04
▁Iskariyot	-12.04
▁Sadducees	-12.04
▁Shephatiah	-12.04
▁astrologer	-12.04
▁carpenter	-12.04
▁enchanter	-12.04
▁expensive	-12.04
▁occasion	-12.04
▁paralytic	-12.04
▁whirlwind	-12.04
ebedee	-12.04
▁Izhar	-12.04
▁expanse	-12.04
▁Aminadab	-12.04
▁penalty	-12.04
▁disperse	-12.04
▁strife	-12.04
▁gomegenek	-12.04
▁council	-12.0401
▁foretold	-12.0401
▁lawyer	-12.0401
▁seashore	-12.0401
▁Meshech	-12.0401
▁garoda	-12.0401
▁marpil	-12.0401
▁hostility	-12.0401
▁permission	-12.0401
▁network	-12.0401
▁pemangitaog	-12.0401
▁Berekiah	-12.0401
▁gloom	-12.0401
▁steward	-12.0401
▁yesterday	-12.0401
▁penombalian	-12.0401
▁domike	-12.0401
▁pamomolong	-12.0401
▁Molik	-12.0401
▁pepanaliba	-12.0401
▁komokoda	-12.0401
▁kapakataban	-12.0401
▁model	-12.0401
▁Rabah	-12.0401
▁romerenek	-12.0401
▁government	-12.0401
▁huge	-12.0401
▁Krita	-12.0401
▁disobedient	-12.0401
▁reverence	-12.0401
▁iganti	-12.0401
▁inhabited	-12.0401
▁craving	-12.0401
▁tomakedeg	-12.0401
▁pepamalagoy	-12.0401
▁despair	-12.0401
▁prosperous	-12.0401
▁pekasambi	-12.0401
▁Mamre	-12.0401
▁daughterinlaw	-12.0402
▁Pakapipiyaa	-12.0402
▁multiply	-12.0402
▁mininom	-12.0402
▁Iliho	-12.0402
▁Gezer	-12.0402
▁kebolongan	-12.0402
▁Apollos	-12.0402
▁Iliyasib	-12.0402
mal	-12.0402
▁Hinom	-12.0402
▁Kidar	-12.0403
▁matatalandiyang	-12.0403
▁disgraceful	-12.0403
▁peragonen	-12.0403
▁generously	-12.0403
▁responsibility	-12.0403
▁motherinlaw	-12.0403
▁achievement	-12.0403
▁Hazar	-12.0403
▁dominion	-12.0403
▁mute	-12.0403
▁Barabas	-12.0403
▁forgiveness	-12.0403
▁kasisirongan	-12.0403
▁mapeteban	-12.0404
▁kakakalaboso	-12.0404
▁masarangit	-12.0404
▁grumbling	-12.0404
▁ndenem	-12.0404
▁discovered	-12.0405
▁humiliated	-12.0405
▁keresikan	-12.0405
▁kiyasambi	-12.0405
▁wayward	-12.0406
▁kapakamboko	-12.0406
▁missing	-12.0406
▁miyakapagoyag	-12.0406
▁miyamangiparak	-12.0406
▁source	-12.0406
▁masososa	-12.0406
▁Achaia	-12.0406
▁Basti	-12.0406
▁Iprat	-12.0406
▁solemn	-12.0407
▁miyataksil	-12.0407
▁piyamotol	-12.0407
▁repeated	-12.0407
▁kikatatago	-12.0408
▁crossbars	-12.0408
▁East	-12.0408
▁leaning	-12.0408
▁storehouses	-12.0408
▁Andrew	-12.0408
▁pagendaan	-12.0408
▁Lanao	-12.0408
▁begging	-12.041
▁dadadas	-12.041
▁kedawayan	-12.0411
▁story	-12.0411
▁nggemaw	-12.0411
▁kasasamok	-12.0412
▁resound	-12.0412
▁magari	-12.0412
▁malimegas	-12.0412
▁kebayadan	-12.0413
▁discern	-12.0414
▁pendarpaan	-12.0414
▁fair	-12.0415
▁inipatay	-12.0415
▁pagonayonayan	-12.0415
ings	-12.0415
▁kasosonor	-12.0417
▁mocking	-12.0417
▁halal	-12.0417
▁recovered	-12.0418
▁injustice	-12.0418
▁mamangni	-12.0418
▁kebangon	-12.0418
▁childless	-12.0418
▁kapemaanai	-12.0418
▁kepalagoyan	-12.0418
▁ex	-12.0419
▁pakinegen	-12.042
▁Iiktiyar	-12.0421
▁tambourines	-12.0421
▁step	-12.0421
▁Water	-12.0421
▁silenced	-12.0422
▁tataid	-12.0422
▁Tit	-12.0422
▁pakapekeyaan	-12.0423
ds	-12.0423
▁kapanaod	-12.0424
▁Tiglat	-12.0424
▁kapananamar	-12.0426
▁logs	-12.0426
▁pakaise	-12.0429
teribonga	-12.0433
▁pemangi	-12.0433
pengabis	-12.0433
▁miyadowa	-12.0435
▁pepanagontaman	-12.0435
▁makakaden	-12.0435
▁pepasa	-12.0436
▁kapetegompiya	-12.0436
ip	-12.0437
▁katago	-12.0437
▁flatter	-12.0438
▁pekekowa	-12.0438
▁makina	-12.0439
ndaraan	-12.0439
▁maosar	-12.044
▁pepamola	-12.044
▁kaogopi	-12.0441
▁forbid	-12.0443
▁indulge	-12.0444
▁approaching	-12.0444
▁pisodi	-12.0445
▁likeness	-12.0447
▁apple	-12.0448
▁shrines	-12.0448
▁debts	-12.0448
▁melayalayag	-12.0449
▁highway	-12.0449
▁pepangowa	-12.045
▁peteros	-12.045
▁petekor	-12.0451
▁ropa	-12.0452
▁piyaga	-12.0452
itekaw	-12.0454
ippor	-12.0454
pasad	-12.0455
▁bend	-12.0455
▁cares	-12.0456
▁pekitadem	-12.0458
▁maalin	-12.0459
we	-12.0459
▁hurt	-12.046
▁respected	-12.046
▁inenat	-12.0461
▁archer	-12.0465
▁appearing	-12.0465
▁pepanimo	-12.0469
alaya	-12.0469
▁kasosopak	-12.0471
▁dalendeg	-12.0472
▁plane	-12.0473
▁kamboboko	-12.0473
▁disputes	-12.0474
sambi	-12.0475
▁pekebowa	-12.0476
▁decisions	-12.0476
▁gi	-12.048
gotang	-12.0482
▁pesondol	-12.0482
▁pekibono	-12.0484
▁pekibayo	-12.0485
▁inipam	-12.0489
▁Sair	-12.0489
▁deliverer	-12.0492
▁snakes	-12.0493
▁perawat	-12.0498
▁kapembaling	-12.0499
▁kapekena	-12.0501
▁outpost	-12.0502
▁Libni	-12.0504
▁miyakata	-12.0506
peselasela	-12.0509
▁bata	-12.0511
pakalidas	-12.0512
▁sondang	-12.0512
▁perished	-12.0515
▁Yaho	-12.0516
panimo	-12.0518
▁ndadatoan	-12.0519
▁kamboko	-12.0525
▁heaps	-12.0527
▁nose	-12.0528
kaasal	-12.0529
▁kaparatiyaya	-12.0534
▁kaboka	-12.0535
kikibir	-12.0536
▁somiyangka	-12.0537
▁siyapa	-12.0538
mim	-12.0541
▁Beside	-12.0544
▁nets	-12.0544
▁advise	-12.0546
▁trembles	-12.055
they	-12.0552
▁sacks	-12.0557
▁agony	-12.0557
▁clu	-12.0557
▁kapetotong	-12.0558
▁mipa	-12.0559
▁roropet	-12.0559
▁mboboniboniyan	-12.0559
yatan	-12.056
▁tepok	-12.0561
kaaped	-12.0565
betad	-12.0565
▁snatch	-12.0565
▁manalagad	-12.0566
▁Seth	-12.0568
▁kiyasabet	-12.0569
▁raven	-12.0569
▁pipira	-12.057
altie	-12.057
▁katekabor	-12.0571
▁ledge	-12.0582
▁hisop	-12.0584
▁Pagna	-12.0589
ater	-12.0592
ipalat	-12.0593
▁pepekaantap	-12.0598
▁wore	-12.0601
▁pangilailay	-12.0601
pepangandag	-12.0606
alowi	-12.0613
miyangor	-12.062
▁piyaman	-12.062
iyagayonayon	-12.062
▁trak	-12.0624
gorong	-12.0625
▁Piyapiya	-12.0625
pegitowito	-12.0625
kebaloy	-12.0625
▁lama	-12.0626
▁magi	-12.0626
sombali	-12.0627
sekasakaw	-12.063
gonot	-12.0631
▁falling	-12.0633
akiilay	-12.0633
▁tiyoto	-12.0637
▁mam	-12.0641
▁happens	-12.0644
▁Pepanga	-12.0644
lobaan	-12.0646
▁kababaling	-12.0648
▁pendeke	-12.0651
▁boats	-12.0652
miyakipesadanowa	-12.0653
papantag	-12.0655
▁pememesa	-12.066
▁afar	-12.0662
inimbitiyarai	-12.0663
mon	-12.0666
▁tool	-12.0667
▁Kamor	-12.0676
ant	-12.0686
itog	-12.0686
ification	-12.0689
▁spy	-12.0702
▁kelas	-12.0705
▁Rama	-12.0707
▁Gibeonite	-12.071
▁piyagar	-12.0712
▁linim	-12.0714
▁Atarot	-12.0715
bebelag	-12.0719
▁ax	-12.0719
darpa	-12.0721
romasay	-12.0726
tarimaa	-12.0728
sesembor	-12.0729
▁Pagari	-12.073
pakaliyo	-12.0732
nes	-12.0733
▁dagedeb	-12.0734
▁ndeke	-12.074
▁seeds	-12.0741
iket	-12.0743
ndasan	-12.0746
arad	-12.0749
▁makaka	-12.0752
▁siyoso	-12.0753
ati	-12.0754
atatangked	-12.0754
four	-12.0757
open	-12.0765
opawan	-12.0767
▁saya	-12.0768
akakiteb	-12.0769
▁singayo	-12.0771
▁kikaooyag	-12.0773
▁accomplish	-12.0773
▁books	-12.0775
liah	-12.0778
kal	-12.0779
▁pagan	-12.0783
olan	-12.0784
pageeda	-12.0785
anggolay	-12.0787
pembangona	-12.0788
gat	-12.0791
kab	-12.0796
▁tables	-12.0804
▁sti	-12.0805
▁biyoka	-12.0809
pamanekew	-12.0809
▁reli	-12.081
kakaden	-12.0812
oro	-12.0818
▁okay	-12.0825
▁Tiyo	-12.0834
▁miyakadake	-12.0837
▁Coun	-12.084
▁Asar	-12.0844
▁route	-12.0845
▁log	-12.0846
pengonaan	-12.0847
▁ravage	-12.0852
▁seeks	-12.0853
mation	-12.0853
ffn	-12.0856
ngko	-12.086
▁pemb	-12.0862
kaonot	-12.0872
ung	-12.0872
▁struggle	-12.0878
▁kapeken	-12.0885
▁pagala	-12.0892
petiyagar	-12.0912
ndagang	-12.0913
wer	-12.0914
▁fold	-12.0915
▁Sogo	-12.0921
▁iperak	-12.0922
▁u	-12.0928
ebereg	-12.0931
▁Bono	-12.0932
maran	-12.0933
▁magaw	-12.0934
awan	-12.0942
passing	-12.0943
▁kayaw	-12.0944
▁native	-12.0945
anodan	-12.0946
▁Nob	-12.0948
nayaw	-12.0959
▁magonga	-12.0962
sising	-12.0964
kitaralo	-12.0964
imbang	-12.0969
▁tademan	-12.0971
ngongonotan	-12.0975
bisa	-12.0977
▁Yar	-12.0979
erenek	-12.0988
▁Abd	-12.099
▁rouse	-12.0992
alangkap	-12.0994
owin	-12.0995
okas	-12.0997
sedep	-12.1004
pilan	-12.1006
▁Piyangow	-12.1006
▁Misha	-12.1009
niya	-12.1011
▁Soled	-12.1012
give	-12.1015
▁dragg	-12.1016
apariksa	-12.1018
imasad	-12.102
▁Fi	-12.1021
aped	-12.1022
▁chase	-12.1025
▁romi	-12.1026
▁await	-12.1029
▁kapen	-12.1044
▁Bila	-12.1046
▁Judg	-12.1047
▁Onan	-12.1048
pila	-12.1052
▁imbawata	-12.1053
asen	-12.1054
▁Kidi	-12.1055
▁Pero	-12.1058
▁erect	-12.1058
▁kapekadaa	-12.1061
roon	-12.1066
seven	-12.1071
eyaw	-12.1072
siyon	-12.1074
▁wake	-12.1075
▁tooth	-12.1076
▁uphold	-12.1076
wid	-12.108
▁wars	-12.1081
▁Raam	-12.1082
▁marche	-12.1083
kesembag	-12.1084
▁pariksaa	-12.1091
▁Lika	-12.1096
itted	-12.1096
▁Er	-12.1098
▁potol	-12.11
gombos	-12.1103
▁males	-12.1105
tidawa	-12.1109
▁Pepe	-12.111
siig	-12.1118
▁Tomiy	-12.1127
▁kaadena	-12.1128
▁tinda	-12.1131
tendingan	-12.1131
▁persons	-12.1135
▁Tego	-12.1136
akep	-12.1136
▁pepem	-12.1137
▁graze	-12.1138
▁Mal	-12.114
row	-12.1145
▁makalili	-12.1145
▁kisengga	-12.1149
▁tens	-12.115
▁Lang	-12.1156
lad	-12.1161
▁rat	-12.1161
polang	-12.1161
▁bake	-12.1164
omorrow	-12.1165
▁rank	-12.1166
▁sangka	-12.117
ilebeng	-12.117
poroporo	-12.1172
iled	-12.1177
▁kapem	-12.1178
eus	-12.1179
▁awe	-12.1183
▁ipepa	-12.1196
▁supplie	-12.1206
engan	-12.1206
▁piyakatoga	-12.1206
▁pesedep	-12.1208
nding	-12.1216
▁push	-12.1219
onaban	-12.1224
batiyaa	-12.1225
▁taro	-12.1228
▁chopp	-12.1235
▁bangona	-12.1235
▁inikaso	-12.1235
bit	-12.1241
▁maped	-12.1243
▁Six	-12.1244
iten	-12.1245
▁pekigoba	-12.1246
▁miyog	-12.125
▁Asor	-12.1251
uarrels	-12.1251
▁kakena	-12.1252
▁lalis	-12.126
▁liya	-12.1264
otted	-12.1265
▁noon	-12.1274
apay	-12.1275
▁piyangopa	-12.1286
▁rode	-12.1289
▁banish	-12.1291
▁leka	-12.1291
liyon	-12.1296
nayaon	-12.1302
▁sores	-12.1303
▁kinibega	-12.1304
ray	-12.1306
▁Mimba	-12.1309
inipemataan	-12.1313
▁Taros	-12.1322
along	-12.133
tending	-12.1331
▁sincere	-12.1341
reng	-12.1342
ua	-12.1344
likop	-12.1346
paaren	-12.1346
dayas	-12.1347
▁inipoon	-12.1355
▁serves	-12.1356
▁mar	-12.1358
kagoraok	-12.1358
lawati	-12.1361
tes	-12.1366
uppose	-12.137
ekano	-12.1376
parinta	-12.1377
▁initen	-12.138
▁kiyatoto	-12.1381
▁kiyabinasa	-12.1384
inindarainon	-12.1388
pengokom	-12.139
um	-12.1393
▁Tiyagara	-12.1399
▁kapolang	-12.1399
ngginawai	-12.1416
addan	-12.1422
▁Ea	-12.1428
▁kapepakaon	-12.1428
▁makapepa	-12.143
libet	-12.1435
gowan	-12.1438
▁lomiya	-12.1438
▁devise	-12.1438
isoled	-12.1438
ight	-12.144
likaan	-12.1446
▁disappear	-12.1449
▁Biyon	-12.1451
▁nggogordiya	-12.1454
▁beer	-12.1459
claimed	-12.1461
▁kiyatano	-12.1463
eren	-12.1463
▁kegabi	-12.1464
▁cheat	-12.1464
▁grandson	-12.1466
▁banner	-12.1468
▁Pharisee	-12.1469
isi	-12.147
▁Greek	-12.147
▁embroidere	-12.147
▁kaba	-12.1471
pekalidas	-12.1473
▁Hop	-12.1475
▁almond	-12.1476
▁slip	-12.1476
▁judg	-12.1477
sela	-12.1479
ikakadali	-12.1479
▁float	-12.1479
▁Talikod	-12.1483
▁kaleleka	-12.1485
▁ket	-12.1487
irong	-12.1494
▁Sanbal	-12.1507
▁expose	-12.1507
petondagay	-12.151
▁assist	-12.1511
▁Adullam	-12.1512
▁Bisalil	-12.1512
▁Iscariot	-12.1512
▁Jeroham	-12.1512
▁JerubBaal	-12.1512
▁Shecaniah	-12.1512
▁Tisalonika	-12.1512
▁ablaze	-12.1512
▁baitalmal	-12.1512
▁charioteers	-12.1512
▁karsinsiliyo	-12.1512
▁snuff	-12.1512
▁sulfur	-12.1512
▁thornbush	-12.1512
▁universe	-12.1512
▁Ophrah	-12.1512
▁difference	-12.1512
▁ivory	-12.1512
▁steadfast	-12.1512
▁valuable	-12.1512
▁bondage	-12.1512
▁prevent	-12.1512
▁tanggob	-12.1512
▁Rephaites	-12.1512
▁necess	-12.1512
▁estate	-12.1512
▁feeble	-12.1512
▁Nasariyo	-12.1512
▁boundaries	-12.1512
▁procession	-12.1512
▁uproar	-12.1512
▁Bitowil	-12.1512
▁Ophir	-12.1512
▁Lamek	-12.1512
▁boughs	-12.1512
▁certifi	-12.1512
▁dusk	-12.1512
▁related	-12.1512
▁selfish	-12.1512
▁glass	-12.1512
▁Jedaiah	-12.1512
▁blame	-12.1512
▁flint	-12.1512
▁refrain	-12.1512
▁falsehood	-12.1512
▁arowak	-12.1512
▁darayo	-12.1512
▁Bethuel	-12.1512
▁Admah	-12.1512
▁ipepelaw	-12.1512
▁Arabia	-12.1512
▁accurate	-12.1512
▁cousin	-12.1512
▁sunrise	-12.1512
▁Yonadab	-12.1512
▁sayings	-12.1512
▁copper	-12.1512
ashti	-12.1512
▁Jeiel	-12.1512
▁piyakaiktiyar	-12.1512
▁miyamanginom	-12.1512
▁Otniyal	-12.1512
▁pangongoda	-12.1512
angeped	-12.1513
▁kikagogomaanan	-12.1513
▁pagalongan	-12.1513
▁genealogy	-12.1513
▁dreadful	-12.1513
▁pakawawaraw	-12.1513
▁keitong	-12.1513
▁Pepanalamat	-12.1513
▁excuse	-12.1513
▁multiplie	-12.1513
▁pemakatalingoma	-12.1513
▁peramiramig	-12.1513
▁thoroughly	-12.1513
▁privately	-12.1513
▁loaf	-12.1513
▁gloat	-12.1513
▁riyoran	-12.1513
▁kekepit	-12.1513
▁miyatori	-12.1513
▁daybreak	-12.1514
▁Jobab	-12.1514
▁brood	-12.1514
▁kasoaten	-12.1514
▁Harim	-12.1514
▁bentong	-12.1514
▁bleeding	-12.1514
▁pamimikiran	-12.1514
▁makamboboko	-12.1514
▁carcasses	-12.1514
▁shriveled	-12.1514
▁Nahash	-12.1514
▁boldly	-12.1514
▁briers	-12.1515
▁komapet	-12.1515
▁Amalek	-12.1515
▁Ketago	-12.1515
▁Tikowa	-12.1515
▁whitewash	-12.1515
▁accusation	-12.1515
▁petebaden	-12.1515
▁subdue	-12.1515
▁dull	-12.1515
▁confined	-12.1515
▁kalipapa	-12.1515
▁Yasir	-12.1515
▁Medes	-12.1516
▁miyapakapiya	-12.1516
▁domaneg	-12.1516
▁Tirah	-12.1516
▁Sanbalat	-12.1517
▁anggaot	-12.1517
▁pinditar	-12.1517
▁Biyor	-12.1517
▁Miyapasad	-12.1517
▁Oholibah	-12.1518
▁Tekoa	-12.1518
▁jumped	-12.1518
▁mipowasa	-12.1518
▁clasp	-12.1518
▁exceed	-12.1518
▁mabababaya	-12.1518
▁Kenaz	-12.1518
▁matakep	-12.1518
▁kaeraw	-12.1518
▁cubs	-12.1519
▁bangkiti	-12.1519
▁Ganat	-12.1519
▁State	-12.1519
▁Tobal	-12.1519
▁spoils	-12.1519
▁Para	-12.152
ritis	-12.152
▁Arabiya	-12.152
▁miyakabager	-12.152
▁Mbangon	-12.152
▁Iddo	-12.152
▁inipakapiya	-12.1521
▁reduced	-12.1521
▁kasosomayod	-12.1521
▁kelengan	-12.1521
uip	-12.1521
▁Misik	-12.1521
▁pagogop	-12.1522
▁darkened	-12.1522
▁refreshed	-12.1522
▁Gera	-12.1522
▁Sacrifice	-12.1522
▁kikakalaboson	-12.1523
▁trimmed	-12.1523
▁arrow	-12.1523
▁gaze	-12.1524
▁kapanaliba	-12.1524
▁pemanola	-12.1524
▁Arba	-12.1524
▁vipers	-12.1524
▁vegetables	-12.1525
▁measurements	-12.1525
▁kangganat	-12.1525
▁kaooripen	-12.1525
▁pekanono	-12.1525
▁crave	-12.1525
▁peserig	-12.1525
▁penggagaan	-12.1526
▁pepekalangkap	-12.1526
▁instant	-12.1526
▁pepanalimbot	-12.1527
▁midimanda	-12.1527
▁cheated	-12.1527
▁pamolaa	-12.1528
▁maidens	-12.1529
▁pigeons	-12.153
▁drunkards	-12.153
▁thickets	-12.153
▁telagad	-12.153
▁garangan	-12.153
▁kapegapasan	-12.153
▁miyamono	-12.1531
▁sadir	-12.1531
▁pesoratan	-12.1531
▁pekategas	-12.1533
▁sokoba	-12.1533
▁tatareg	-12.1534
▁kiyapalian	-12.1534
▁dalagan	-12.1534
▁gladly	-12.1534
▁Apon	-12.1534
▁Chaldean	-12.1535
▁rin	-12.1535
▁bengit	-12.1538
▁pemaratai	-12.154
▁contend	-12.154
▁kemin	-12.1541
▁Hushai	-12.1541
▁pengganat	-12.1542
▁mimbitiyarai	-12.1542
akitawag	-12.1542
▁robbers	-12.1543
▁Salt	-12.1545
▁pepalalagoy	-12.1545
▁katiya	-12.1545
▁bowaya	-12.1546
▁Osto	-12.1548
▁totorogen	-12.155
▁pemono	-12.155
▁almondo	-12.155
▁Last	-12.1551
▁Yail	-12.1551
▁Pegonot	-12.1552
▁pekelas	-12.1552
▁sapad	-12.1553
▁pesembi	-12.1553
▁sentence	-12.1553
▁papers	-12.1554
▁plunge	-12.1554
▁Carmi	-12.1556
▁pakaradiyaan	-12.1557
▁Libo	-12.1558
▁insulted	-12.1558
▁pekaliboteng	-12.1558
▁paper	-12.1558
▁limits	-12.1564
▁idle	-12.1564
▁Heber	-12.1564
▁miyakakor	-12.1565
▁cling	-12.1569
kin	-12.1569
ndodoo	-12.1569
▁Shout	-12.1569
▁peseod	-12.157
▁standards	-12.1571
▁rapog	-12.1571
▁madaneg	-12.1571
selasela	-12.1574
▁kakasi	-12.1574
▁tegela	-12.1577
▁toro	-12.1577
▁pepekatorog	-12.1579
▁Cai	-12.1579
▁occupied	-12.1579
▁piyamas	-12.158
▁bit	-12.158
▁linog	-12.1581
▁foreheads	-12.1581
owit	-12.1583
▁miyamanondo	-12.1583
▁bribes	-12.1584
▁penanabad	-12.1584
▁Kebinasa	-12.1585
omiyalakaw	-12.1587
▁stalk	-12.1588
▁arriving	-12.1588
lim	-12.1589
▁Rapha	-12.1589
▁kandagang	-12.159
gain	-12.1591
ontol	-12.1592
▁pakisogo	-12.1593
▁fix	-12.1594
alad	-12.1594
▁pengowa	-12.1594
bongkos	-12.1595
ariyas	-12.1595
▁lightly	-12.1596
▁disciplined	-12.16
▁danger	-12.1601
▁kapagitowito	-12.1601
▁worldly	-12.1605
▁tetagompiya	-12.1606
▁pegto	-12.1607
▁Miyapa	-12.1607
▁Hasab	-12.1608
len	-12.1614
akabaling	-12.1614
kaneg	-12.1616
▁katatalandiyang	-12.1616
▁ndekean	-12.1617
▁virgins	-12.1617
isir	-12.1619
uares	-12.1621
▁perishing	-12.1623
▁natur	-12.1624
▁opakat	-12.1624
lekaan	-12.1625
lalangan	-12.1625
▁Sak	-12.1625
▁Ibid	-12.1629
pengangarapan	-12.1631
inengka	-12.1632
▁pagongow	-12.1632
embog	-12.1633
ipagonga	-12.1635
▁grind	-12.1638
▁kikilala	-12.1639
▁imbaba	-12.1639
abelang	-12.164
▁belongings	-12.1641
▁sticks	-12.1642
▁pegodod	-12.1647
▁pesendit	-12.1648
gango	-12.1652
▁panagontaman	-12.1656
hearted	-12.1658
▁torogen	-12.1659
▁Salmona	-12.166
▁kiyapemataan	-12.1662
pakaoma	-12.1667
dap	-12.1669
▁pos	-12.167
hood	-12.1671
▁rejoiced	-12.1671
▁aroused	-12.1672
whe	-12.1673
▁Mina	-12.1675
uring	-12.1675
▁wronged	-12.1676
▁miyamango	-12.1676
▁lovely	-12.1681
▁peratiyayaa	-12.1683
▁Babo	-12.1684
▁pekeden	-12.1684
powasa	-12.1684
▁Awake	-12.1687
sosopak	-12.1687
▁penalamat	-12.1688
▁trip	-12.1692
elagid	-12.1693
▁pendakel	-12.1696
mola	-12.1697
▁kapepamakineg	-12.1699
▁klas	-12.1699
▁pemboko	-12.17
▁overlay	-12.1701
god	-12.1701
▁kapak	-12.1702
pakabager	-12.1703
▁suc	-12.1703
looki	-12.1703
▁Year	-12.1704
▁kiyapayag	-12.1705
▁kiyalitag	-12.1706
barang	-12.1708
▁challenge	-12.1711
east	-12.1715
▁biyanto	-12.1715
▁kapekasakit	-12.1716
▁sway	-12.1717
▁Nih	-12.1724
▁tur	-12.1725
▁miyababa	-12.1725
▁recorde	-12.1726
tondotondog	-12.1728
▁Dea	-12.1729
▁pale	-12.1733
▁foe	-12.1733
wat	-12.1734
▁ill	-12.1737
ibetad	-12.1737
sebeta	-12.1738
▁genealogi	-12.1738
iyangni	-12.1739
▁pegilay	-12.174
▁sorga	-12.174
geped	-12.1742
kokog	-12.1743
▁kapepemagapidap	-12.1744
ael	-12.1747
aaden	-12.175
▁kapenayaw	-12.1752
▁regions	-12.1756
sing	-12.1759
▁mbegi	-12.176
▁forms	-12.176
▁pepanalagadan	-12.1761
▁coat	-12.1763
enday	-12.1763
pekerata	-12.1765
▁miyamakap	-12.1766
cate	-12.1767
▁Babiloniya	-12.1768
sendit	-12.177
▁baker	-12.1771
hum	-12.1772
▁Milka	-12.1773
▁lomiyang	-12.1774
barakat	-12.1776
▁Som	-12.1776
isogo	-12.1781
▁terrors	-12.1784
bies	-12.1788
▁Timna	-12.1789
seko	-12.1796
▁makasela	-12.1798
lompiyo	-12.1799
gal	-12.18
tetaro	-12.1802
▁tototong	-12.1802
▁Mark	-12.1803
kasosoled	-12.1805
▁pepamano	-12.1805
resik	-12.1807
▁minili	-12.1808
▁pantar	-12.1812
▁silay	-12.1813
mangiparak	-12.1814
▁rembang	-12.1816
▁ombos	-12.1816
▁uplift	-12.1816
aliyas	-12.1819
▁tris	-12.182
▁sows	-12.1825
fully	-12.1825
▁bola	-12.1826
mbang	-12.1827
ving	-12.1833
▁peleka	-12.1834
alam	-12.1836
▁salawat	-12.1837
▁rais	-12.1839
▁worshiper	-12.1846
let	-12.1849
▁lidas	-12.1849
▁action	-12.1854
▁intent	-12.1855
▁pasi	-12.1855
rches	-12.1856
▁ipetena	-12.1858
▁kapel	-12.1861
awai	-12.1861
▁compel	-12.1865
rink	-12.1865
kapangalinggagaw	-12.1867
▁bonoon	-12.1868
eklid	-12.1869
dot	-12.1869
▁Pesimba	-12.1871
ori	-12.1879
oops	-12.188
formed	-12.1881
kikilala	-12.1884
sokayan	-12.1886
▁moth	-12.1889
▁Rehob	-12.1889
lelepo	-12.1894
▁lin	-12.1894
▁hostil	-12.1894
▁iket	-12.1897
owah	-12.1901
ipemotaliya	-12.1902
don	-12.1902
▁tata	-12.1902
dor	-12.1904
▁teachings	-12.1905
▁petotonga	-12.1906
oti	-12.1906
▁kiyan	-12.1912
obedient	-12.1918
naloba	-12.192
▁Paga	-12.1925
riel	-12.1929
▁madidi	-12.1929
▁Sepa	-12.1933
▁lolot	-12.1939
▁twentyseven	-12.1942
als	-12.1944
mpered	-12.1946
▁mangaroma	-12.1948
▁reports	-12.1949
inst	-12.195
seen	-12.1952
▁karakmatan	-12.1954
▁hav	-12.1954
▁Didan	-12.1959
ngongoripen	-12.1961
owang	-12.1961
▁stray	-12.1964
▁receives	-12.1967
▁iporo	-12.197
arekan	-12.1971
con	-12.1971
raim	-12.1971
ndarainonen	-12.1972
ess	-12.1973
▁tomini	-12.1975
▁kokom	-12.1977
▁kapeteban	-12.1978
lalamba	-12.198
▁kapemono	-12.1981
▁fle	-12.1983
▁Nayaw	-12.1984
kapalagoy	-12.1984
ikokom	-12.1987
ribat	-12.1989
omiyoro	-12.199
jah	-12.1992
adi	-12.1992
senggibo	-12.1997
kim	-12.1998
▁Bega	-12.2002
▁scribe	-12.2004
iyab	-12.2006
▁pemasa	-12.2006
▁Gobat	-12.2006
▁kn	-12.2007
▁ng	-12.2008
▁Hosh	-12.201
▁lasts	-12.2012
yawan	-12.2013
toos	-12.2014
▁Petae	-12.2015
▁mbono	-12.2026
▁isnt	-12.2029
▁iinam	-12.2029
ibon	-12.2031
▁inisan	-12.2033
togen	-12.2033
▁sembaga	-12.2038
ketan	-12.204
eked	-12.2042
oripen	-12.2042
▁gong	-12.2044
▁mito	-12.2049
kiilain	-12.2049
tegompiya	-12.2051
ipesinta	-12.2055
telowan	-12.2057
goolowan	-12.2059
doro	-12.206
▁Kiy	-12.206
taksil	-12.206
▁personal	-12.206
▁Thes	-12.2065
kapanalagad	-12.2067
tiro	-12.207
▁kiyata	-12.2072
have	-12.2073
▁mens	-12.2075
▁kateban	-12.2077
ngon	-12.2083
tai	-12.2093
▁vici	-12.2094
imbeto	-12.2097
nggagaan	-12.2099
onsecrate	-12.2103
bon	-12.2103
▁miyakat	-12.2105
ilid	-12.2106
kepa	-12.211
tegel	-12.212
▁pepamangi	-12.2125
ives	-12.2126
▁sembi	-12.2128
badal	-12.2129
servant	-12.2131
arry	-12.2134
▁Peng	-12.2135
kamboboniboniyan	-12.2135
▁peteban	-12.2142
ium	-12.2144
▁flame	-12.2147
kapepangimporoan	-12.2147
telo	-12.2155
A	-12.2155
▁Silopi	-12.2158
siyap	-12.2158
▁oyaga	-12.2162
▁sanda	-12.2176
▁crack	-12.2179
elaslas	-12.2182
▁minila	-12.2185
▁Joh	-12.219
▁ipepan	-12.2209
▁sosoti	-12.221
inged	-12.2215
▁tarint	-12.2222
▁mara	-12.2224
▁kapenga	-12.2228
ara	-12.2229
dok	-12.2232
pamangni	-12.2232
▁diyak	-12.2233
▁sounds	-12.2237
sabotan	-12.2242
▁bog	-12.2259
▁Beer	-12.2263
▁rirido	-12.2263
nggisa	-12.2264
▁pokasa	-12.2264
▁Kar	-12.2267
datan	-12.2272
▁suppose	-12.2273
▁miyapaka	-12.2273
rni	-12.2284
mbabanogen	-12.2285
▁Pakapenda	-12.229
▁desecrat	-12.2297
▁peri	-12.2303
kilitag	-12.2304
▁palaces	-12.2306
▁Pepaeng	-12.2307
lled	-12.2315
inibaba	-12.2315
miya	-12.2315
▁Him	-12.2319
▁sak	-12.232
lalangi	-12.2322
ntir	-12.2326
pekailay	-12.2329
The	-12.2336
▁Ch	-12.2347
egel	-12.2359
kilalaan	-12.2364
▁matago	-12.2364
▁truthful	-12.2365
nimba	-12.2366
▁mapembagi	-12.2367
▁Pem	-12.2368
failing	-12.2368
acious	-12.2382
possessed	-12.2385
▁tomiyo	-12.2388
ikorban	-12.2393
▁peparo	-12.2395
▁key	-12.2402
▁pise	-12.2409
ck	-12.241
▁tiyap	-12.2411
az	-12.2411
penggolaola	-12.2415
inidapenet	-12.2415
dapenet	-12.2427
gon	-12.2431
ssemble	-12.2441
▁abhor	-12.2442
sekisi	-12.2445
▁devot	-12.2447
hu	-12.2451
▁kasalawat	-12.2453
▁Co	-12.2456
▁kasosonda	-12.2457
▁likes	-12.2463
▁fed	-12.2472
▁mill	-12.2476
ipemangendao	-12.2479
routed	-12.2482
rekan	-12.2485
▁miyasogo	-12.2485
kaliboteng	-12.2487
kalimoon	-12.2488
ured	-12.2495
gabi	-12.2496
▁drag	-12.2497
▁fro	-12.2506
▁Tata	-12.2506
▁Miyat	-12.2506
ench	-12.2509
gapas	-12.2514
▁pekeroma	-12.2515
agaraw	-12.2522
antang	-12.2524
bbed	-12.2525
sanaan	-12.2525
minisek	-12.2531
ras	-12.2535
iyaw	-12.2542
▁kakeda	-12.2552
kodan	-12.2559
badot	-12.256
▁wid	-12.2561
rought	-12.2566
▁Neh	-12.2566
taga	-12.257
▁snatche	-12.257
ndowadowa	-12.2571
▁Tira	-12.2574
▁Kaebaya	-12.2577
▁loma	-12.2578
ering	-12.2579
iyakandosa	-12.2581
▁pepeginged	-12.2583
onadab	-12.2585
sogo	-12.2594
▁Iman	-12.2599
▁penayaw	-12.2607
totoroga	-12.2608
pepekaantap	-12.2614
▁goal	-12.2618
▁applie	-12.2632
▁Nebo	-12.2637
▁kasa	-12.2638
kapagilaya	-12.2648
mbayad	-12.2657
▁somasa	-12.2657
ripot	-12.2658
petedem	-12.2661
nggibo	-12.2662
▁longing	-12.2664
pagantangan	-12.2667
▁limp	-12.2667
▁paeka	-12.2669
tabotod	-12.267
rimpoong	-12.2672
Y	-12.2679
▁mbelo	-12.2679
▁bababa	-12.2682
bserve	-12.2682
itapi	-12.2683
hand	-12.2683
gedi	-12.2684
kampo	-12.2689
holds	-12.2693
apalian	-12.2695
▁Ephrath	-12.27
▁miyasala	-12.2701
than	-12.2702
▁popo	-12.2702
▁Ammon	-12.2705
▁kaperipa	-12.2708
▁Jebusite	-12.2711
▁transgression	-12.2712
▁piyanam	-12.2712
▁marketplace	-12.2713
▁tradition	-12.2716
▁ornament	-12.2718
▁elder	-12.2718
▁forefather	-12.2719
▁Amorite	-12.2721
▁Midianite	-12.2721
darpaan	-12.2722
▁iskowila	-12.2723
▁kesabot	-12.2726
▁pekaonga	-12.273
▁consum	-12.273
▁mbonoa	-12.273
▁griev	-12.2731
iph	-12.2732
▁wheel	-12.2733
keoteng	-12.2734
▁mibibi	-12.2737
erment	-12.274
▁ancestr	-12.2746
▁frighten	-12.2754
▁Magi	-12.2755
kerarangitan	-12.2755
▁divine	-12.2756
▁Pang	-12.2756
▁office	-12.2759
▁jaw	-12.2759
▁carcass	-12.2759
nggasto	-12.2761
▁procla	-12.2761
▁Alhamdulillah	-12.2762
▁Barabbas	-12.2762
▁Cornelius	-12.2762
▁Elizabeth	-12.2762
▁Enosh	-12.2762
▁Jeduthun	-12.2762
▁Kerethite	-12.2762
▁Mahalalel	-12.2762
▁Megiddo	-12.2762
▁Melchizedek	-12.2762
▁Micmash	-12.2762
▁Moripori	-12.2762
▁Pilikso	-12.2762
▁Yadoton	-12.2762
▁attentive	-12.2762
▁biskowit	-12.2762
▁hymn	-12.2762
▁inscription	-12.2762
▁jasper	-12.2762
▁opponent	-12.2762
▁physical	-12.2762
▁sanctified	-12.2762
▁scoundrel	-12.2762
▁shovel	-12.2762
▁superior	-12.2762
▁watchtower	-12.2762
▁Auntie	-12.2762
▁Bembaran	-12.2762
▁Isamariyan	-12.2762
▁Japanese	-12.2762
▁Macky	-12.2762
▁Nigib	-12.2762
▁Sikaniyas	-12.2762
▁Sultan	-12.2762
▁Arpaksad	-12.2762
▁Bozrah	-12.2762
▁waistband	-12.2762
▁Migido	-12.2762
▁ignorant	-12.2762
▁visible	-12.2762
▁midnight	-12.2762
▁shirt	-12.2762
▁Eglon	-12.2762
▁Jehozadak	-12.2762
▁bottom	-12.2762
▁kabebetengan	-12.2762
▁adversary	-12.2762
▁Remaliah	-12.2762
▁Sipatiyas	-12.2762
▁temptation	-12.2762
▁forfeit	-12.2762
▁kasatroan	-12.2762
▁unwilling	-12.2762
▁alert	-12.2762
▁Ndidiyagaw	-12.2762
▁Repent	-12.2762
▁Jearim	-12.2762
▁Sibmah	-12.2762
▁powder	-12.2762
▁Hahirot	-12.2762
▁giyoray	-12.2762
▁kipelebengen	-12.2762
uantities	-12.2762
▁jewelry	-12.2762
▁rainbow	-12.2762
▁rubies	-12.2762
▁stump	-12.2762
▁abstain	-12.2762
▁Command	-12.2762
▁sombowan	-12.2762
▁pavement	-12.2762
▁piyangalaboso	-12.2762
▁kadodowaanan	-12.2762
▁somigad	-12.2762
▁Jakin	-12.2762
▁pamalawagen	-12.2762
▁Jazer	-12.2762
uities	-12.2762
▁Ripaim	-12.2762
▁mapegma	-12.2762
▁rattan	-12.2762
▁piyanekew	-12.2762
▁desolation	-12.2762
▁Alpha	-12.2762
▁plaster	-12.2762
▁Askilon	-12.2762
▁underfoot	-12.2762
▁Destruction	-12.2762
▁Neriah	-12.2762
▁pegamponen	-12.2762
uently	-12.2762
▁iteog	-12.2762
ibeon	-12.2762
▁spotted	-12.2763
▁Anakim	-12.2763
▁cluster	-12.2763
▁Othniel	-12.2763
▁mistress	-12.2763
▁Oholah	-12.2763
▁bedroom	-12.2763
▁lilies	-12.2763
▁darling	-12.2763
▁flogged	-12.2763
▁pepamanopak	-12.2763
▁Bantogen	-12.2763
▁arguing	-12.2763
▁terrible	-12.2763
▁Miribah	-12.2763
▁Really	-12.2763
▁goldsmith	-12.2763
suspect	-12.2763
▁Rephaim	-12.2763
▁peranegen	-12.2763
▁thrive	-12.2763
▁Barniya	-12.2763
yabet	-12.2763
irgin	-12.2763
▁fulfillment	-12.2763
▁pepanekat	-12.2764
▁Sipri	-12.2764
Melech	-12.2764
▁perasain	-12.2764
▁kekadenan	-12.2764
▁sirino	-12.2764
▁pamilya	-12.2764
▁makategompiya	-12.2764
▁miyamakasilay	-12.2764
▁Pamimikiran	-12.2764
▁Pool	-12.2764
▁prophetess	-12.2765
▁threat	-12.2765
▁Gisir	-12.2765
▁diviners	-12.2765
▁nggibonggibo	-12.2766
▁pepekaalamat	-12.2766
▁pesodiyod	-12.2766
▁revenge	-12.2766
▁kiyaregenan	-12.2766
▁manonoriman	-12.2766
▁petondog	-12.2767
▁pekalipati	-12.2767
▁perfection	-12.2767
▁radiant	-12.2767
▁pemakailay	-12.2767
▁kapelimolimod	-12.2767
▁tagakal	-12.2767
▁Rezin	-12.2768
▁Panotola	-12.2768
▁miyarasay	-12.2768
▁pepamanekew	-12.2768
▁Natanil	-12.2768
▁dyed	-12.2768
ananamar	-12.2768
▁Peleg	-12.2768
▁kabobo	-12.2769
▁Sikri	-12.2769
▁kiyagagawii	-12.2769
▁everybody	-12.2769
emiah	-12.2769
▁pekasoat	-12.2769
▁Media	-12.2769
▁kedaneg	-12.2769
▁miyakambagian	-12.2769
▁peaceful	-12.277
▁blasphemy	-12.277
▁minitana	-12.277
▁Imlah	-12.2771
▁scorpions	-12.2771
▁doorkeepers	-12.2771
▁disobeyed	-12.2771
pagitagon	-12.2771
▁mbidabida	-12.2771
▁custod	-12.2771
▁kiyagoraok	-12.2771
▁pepiyapiyaan	-12.2771
▁plainly	-12.2771
▁publicly	-12.2772
▁pangoran	-12.2772
▁Sister	-12.2772
▁avenger	-12.2772
imotimo	-12.2772
▁kiyamara	-12.2772
▁kaperidoa	-12.2772
uiver	-12.2773
▁kakowak	-12.2773
▁soninlaw	-12.2773
▁piyanotong	-12.2773
▁twig	-12.2774
▁Kinas	-12.2774
▁kiyaganat	-12.2774
▁Lalis	-12.2774
pekesoat	-12.2774
▁sokesoker	-12.2775
▁receiv	-12.2775
pegiseg	-12.2775
▁adulterers	-12.2776
▁arguments	-12.2776
▁lioness	-12.2776
▁miyadadag	-12.2777
▁frightened	-12.2777
▁miyakagoraok	-12.2777
▁cracked	-12.2778
▁itch	-12.2779
▁miyakaseko	-12.2779
yong	-12.2779
▁kenti	-12.278
▁filthy	-12.278
▁goodby	-12.278
▁loving	-12.2781
▁demolished	-12.2781
▁pepan	-12.2782
ben	-12.2782
▁board	-12.2783
▁mininggolalan	-12.2783
▁siyolot	-12.2783
▁upward	-12.2784
▁coins	-12.2784
▁makikilala	-12.2784
▁miyakapasad	-12.2784
▁perapogan	-12.2785
▁doorpost	-12.2785
▁kepayag	-12.2785
▁nourish	-12.2786
▁komaden	-12.2786
▁kapepanamar	-12.2787
▁kikararasay	-12.2787
▁groves	-12.2787
▁Siyapat	-12.2787
▁kapetidawa	-12.2788
▁jewels	-12.2788
▁Biriyas	-12.2788
▁terrify	-12.2788
▁survived	-12.2788
▁karina	-12.2788
▁miniyog	-12.2789
▁cock	-12.279
▁avenged	-12.2791
▁miyata	-12.2791
▁malompiyo	-12.2791
▁sesambitan	-12.2791
▁pegongkir	-12.2791
▁resident	-12.2792
▁lusted	-12.2792
▁sesenep	-12.2793
▁bricks	-12.2794
uite	-12.2794
▁Anakites	-12.2794
▁raragon	-12.2795
▁kambaling	-12.2796
▁Shepherd	-12.2796
tarapas	-12.2798
▁pepariksa	-12.2798
▁pelekeb	-12.2798
▁slopes	-12.2799
▁pembagibagi	-12.28
▁kaseop	-12.28
▁attain	-12.28
▁imbolawananan	-12.2802
▁Merarite	-12.2803
▁suit	-12.2803
▁doctor	-12.2803
▁Blow	-12.2803
wood	-12.2803
▁pepeg	-12.2804
▁haste	-12.2804
▁ornaments	-12.2805
▁Arah	-12.2806
▁kandidiyagaw	-12.2807
▁maori	-12.2807
▁iskowilaan	-12.2808
▁reeds	-12.2808
▁embroiderer	-12.2808
▁lap	-12.2809
▁piyango	-12.2809
mamokeg	-12.2809
lebengen	-12.2809
▁sadka	-12.281
▁reaper	-12.2811
▁malinding	-12.2814
▁pekapalagoy	-12.2816
▁Obi	-12.2816
▁overthrown	-12.2817
▁pegongatongat	-12.2818
iyagapas	-12.2819
▁Paros	-12.2821
▁Sowar	-12.2822
▁censer	-12.2826
▁Arad	-12.2826
▁kasopaka	-12.2826
▁impos	-12.2828
bayaan	-12.2828
▁pekat	-12.2828
▁pagans	-12.2829
▁petoon	-12.2829
▁dilana	-12.283
▁fever	-12.2832
▁sekoa	-12.2832
▁panit	-12.2832
▁Siyowa	-12.2832
▁counselor	-12.2833
▁basak	-12.2833
▁baths	-12.2835
badiah	-12.2835
▁nails	-12.2836
▁enroll	-12.2836
▁apply	-12.2837
▁bantoga	-12.2837
▁keilang	-12.2838
▁trapped	-12.2838
▁feasting	-12.2839
angel	-12.2839
▁ketarotop	-12.2841
▁sengor	-12.2845
▁knead	-12.2846
▁Saron	-12.2847
genekan	-12.2848
▁trials	-12.2851
▁makalalakaw	-12.2851
▁bold	-12.2852
▁unity	-12.2853
▁kneel	-12.2853
odod	-12.2854
▁mina	-12.2854
git	-12.2856
▁product	-12.2857
▁breathing	-12.2858
▁ponas	-12.2859
▁pelamba	-12.286
agembaal	-12.2861
▁kebatal	-12.2862
▁Pass	-12.2863
▁pekaiseg	-12.2864
pelompiyo	-12.2867
▁kiyasopak	-12.2867
▁pekesab	-12.2867
▁pekibir	-12.2868
▁expected	-12.2868
▁mailang	-12.287
iyangingise	-12.287
nawidan	-12.2872
▁intelligen	-12.2872
▁Rad	-12.2872
▁boasted	-12.2873
kapanginginsabar	-12.2877
▁maginawa	-12.2878
▁abogado	-12.2879
▁kandatoi	-12.288
▁Piyang	-12.2884
▁kasasa	-12.2884
opa	-12.2885
▁inengkaa	-12.2888
▁Inos	-12.2889
iyakambeken	-12.2889
▁katatalikod	-12.289
▁color	-12.2891
▁figure	-12.2891
▁pepegenebeneb	-12.2891
▁Roman	-12.2893
▁kasakiti	-12.2895
▁hanging	-12.2897
▁pekikilala	-12.2899
iyapangaroma	-12.2902
▁bogawa	-12.2902
▁endured	-12.2903
▁totob	-12.2903
▁Piyana	-12.2904
inisana	-12.2904
kasagad	-12.2904
▁tiyagara	-12.2907
niah	-12.2909
▁keosog	-12.291
▁Tano	-12.2912
▁gegenek	-12.2912
▁Jahaz	-12.2914
▁meditate	-12.2919
▁kaparatiyayaa	-12.2921
ngi	-12.2923
▁displease	-12.2924
tol	-12.293
directly	-12.293
langolangon	-12.2932
▁pemonoa	-12.2936
▁kombong	-12.2936
mabalaga	-12.2939
itawag	-12.2945
▁shadows	-12.2945
eped	-12.2946
udden	-12.2949
▁enable	-12.2949
▁pepanalawat	-12.2949
▁pastures	-12.295
▁papalad	-12.2951
▁Bos	-12.2953
▁mbayabaya	-12.2956
▁Way	-12.2956
taid	-12.2958
▁sawaw	-12.2961
▁kadaleman	-12.2963
oram	-12.2963
▁pegenebeneb	-12.2965
▁nggonanao	-12.2969
▁roofs	-12.2971
▁sengkop	-12.2975
▁shot	-12.2976
▁luxur	-12.2976
▁komeke	-12.2977
pamayandeg	-12.2979
▁Pama	-12.2985
rinti	-12.2985
stairs	-12.2988
▁wealthy	-12.2989
▁pesodi	-12.2989
▁shun	-12.2991
bra	-12.2991
mbabanog	-12.2992
ndaan	-12.2995
▁miyaped	-12.2995
ono	-12.3
gobarobar	-12.3002
▁finel	-12.3004
ilmit	-12.3004
▁twin	-12.3005
bebebaya	-12.301
▁Dishon	-12.3013
ris	-12.3015
▁Ner	-12.3015
▁Tiyake	-12.3017
▁entertain	-12.3017
piyapiyaan	-12.3021
▁Pamili	-12.3022
▁kela	-12.3024
iyarong	-12.3024
▁lomili	-12.3033
▁bitowanen	-12.3033
▁agila	-12.3034
▁tread	-12.3035
ijah	-12.3041
▁aged	-12.3041
penateban	-12.3043
▁accuser	-12.3044
▁kiyaloto	-12.3045
inipirik	-12.3047
inilang	-12.305
hath	-12.305
▁annual	-12.3051
angangampedian	-12.3053
▁Mahli	-12.3058
saboten	-12.3058
lembo	-12.3062
▁Horite	-12.3063
gagawii	-12.3064
▁pangengen	-12.3069
▁Gira	-12.3071
orship	-12.3071
trike	-12.3071
ratiyaya	-12.3072
kaiiga	-12.3077
▁batter	-12.308
ame	-12.3081
▁selaselaa	-12.3081
zan	-12.3086
▁papatong	-12.3089
▁kareregenan	-12.3089
pegonda	-12.3091
▁stead	-12.3093
▁ages	-12.3096
▁wanting	-12.3097
▁ball	-12.3099
mata	-12.31
gowit	-12.3103
▁perch	-12.3106
▁pero	-12.3106
▁mis	-12.3108
ikna	-12.3109
▁kaebaya	-12.3112
lowing	-12.3115
▁keraw	-12.3136
▁Pay	-12.314
emen	-12.314
▁teng	-12.3141
she	-12.3142
olaola	-12.3143
pangilailay	-12.3149
▁Siyamay	-12.3152
▁inform	-12.3152
▁Hanam	-12.3156
lebad	-12.316
pesepa	-12.3163
stretche	-12.3163
▁Pekeila	-12.3166
songowi	-12.3167
memesa	-12.3169
▁pembayad	-12.3173
kindat	-12.3174
aniyas	-12.3176
▁cases	-12.3179
▁kapelompiyow	-12.3182
word	-12.3193
ntod	-12.3195
▁mbinasaa	-12.3196
walay	-12.32
etter	-12.3202
biah	-12.3204
▁Oholi	-12.3211
din	-12.3212
gad	-12.3213
kaseko	-12.3217
wagen	-12.3217
▁rains	-12.3221
imbitiyarain	-12.3222
▁panago	-12.323
▁pepamana	-12.3233
▁makapagida	-12.3237
kaokit	-12.324
▁patch	-12.3241
▁penalagad	-12.3243
odas	-12.3248
▁totoo	-12.3252
▁Pemangi	-12.3253
bab	-12.3257
▁keto	-12.3258
▁Kebaya	-12.3262
resence	-12.3263
▁excellen	-12.3264
lik	-12.3265
ties	-12.3269
▁Mag	-12.327
▁earring	-12.3271
▁Atha	-12.3271
▁miyakarege	-12.3276
▁watchm	-12.3278
manalagad	-12.3278
nor	-12.3278
watan	-12.3279
iling	-12.3291
epa	-12.3295
▁Oba	-12.3295
han	-12.3296
▁Havi	-12.3298
badan	-12.3306
▁Shan	-12.3307
ngangarapan	-12.3308
▁Shua	-12.331
aol	-12.331
pepangendao	-12.3312
kaasala	-12.3312
telabok	-12.3323
▁mimb	-12.3326
pakadeke	-12.333
▁Liya	-12.3331
iksaan	-12.3332
nity	-12.3333
panindeg	-12.3333
keb	-12.3334
sondaro	-12.3335
▁founded	-12.3336
▁Sari	-12.3338
lis	-12.3339
▁Pepaka	-12.3341
dawag	-12.3342
katiger	-12.3345
flicted	-12.3346
gakot	-12.3347
▁kapeso	-12.3348
kipangkat	-12.335
▁Teke	-12.335
yot	-12.3352
raot	-12.3356
among	-12.3358
escribe	-12.3361
liyat	-12.3362
beken	-12.3364
iyaslas	-12.3369
▁Par	-12.3369
▁tomoto	-12.3379
kapeseksii	-12.3379
begaken	-12.3382
nger	-12.3386
ide	-12.3392
▁Mesh	-12.3393
ipoonan	-12.3406
kelit	-12.3408
▁pipiyapiya	-12.3411
kesabet	-12.3412
▁Pet	-12.3413
poporo	-12.342
idapenet	-12.3422
▁inikabalo	-12.3427
▁Whe	-12.3428
ibi	-12.3429
rap	-12.343
▁ponder	-12.3436
pepakatanor	-12.3437
▁princess	-12.3441
▁kipeke	-12.3446
▁rilaan	-12.345
▁pekitan	-12.3451
▁peto	-12.3451
tang	-12.3454
abebaya	-12.3456
tomparak	-12.3457
asayan	-12.3458
makasela	-12.346
oba	-12.346
▁kempo	-12.3467
bak	-12.347
akapaginetaw	-12.3474
penayawa	-12.3475
▁wrap	-12.3476
ager	-12.3476
onan	-12.3481
▁nggo	-12.3482
▁kiyasabota	-12.3483
▁helper	-12.3483
▁pepakato	-12.3484
▁kagai	-12.3486
▁Sangk	-12.3488
tendan	-12.349
tawan	-12.3491
esen	-12.3491
onah	-12.3493
liyas	-12.3494
▁include	-12.3495
▁Gomi	-12.3498
▁flashe	-12.35
▁cap	-12.3501
panginsabar	-12.3509
▁Matt	-12.3519
dendeg	-12.3536
▁batang	-12.3539
▁kibaba	-12.354
▁mabobot	-12.3543
▁pepemaka	-12.3549
dong	-12.3549
▁ca	-12.3549
▁manage	-12.3555
ker	-12.3556
pemikir	-12.3557
miyoro	-12.356
isii	-12.3561
ngowi	-12.3565
▁Joza	-12.3569
here	-12.3581
orah	-12.3584
▁keeper	-12.3585
ntil	-12.359
rengan	-12.3599
sepaan	-12.36
ataan	-12.3602
▁Mabaeba	-12.3606
▁sombalia	-12.3612
▁kiyabaling	-12.3613
▁tegikor	-12.3618
pekesoy	-12.3622
this	-12.3625
▁didawa	-12.3626
▁tet	-12.3627
tipo	-12.3631
ccording	-12.3634
j	-12.3636
▁Shu	-12.3642
▁kebal	-12.3643
raraot	-12.365
▁Jok	-12.3655
▁potola	-12.3659
▁kapakape	-12.3661
katitindeg	-12.3663
rila	-12.3665
biyagen	-12.3667
seg	-12.3669
▁Hold	-12.367
petepengi	-12.3673
marked	-12.3674
▁Komiya	-12.3675
garab	-12.3675
▁Siy	-12.3676
▁kapaga	-12.3679
▁makadada	-12.3683
▁witan	-12.3685
panagad	-12.3699
papaar	-12.3704
▁kapakateta	-12.3705
▁miise	-12.3706
▁kiyaya	-12.3706
▁kam	-12.3709
▁Aha	-12.3711
kenal	-12.3717
karaw	-12.3718
▁Maon	-12.3727
apasang	-12.3729
siyas	-12.3732
▁ada	-12.3734
▁blemish	-12.3734
abaya	-12.3734
kakakaden	-12.3736
round	-12.3737
▁Fur	-12.3738
bogaon	-12.374
yanan	-12.374
iteobat	-12.374
apas	-12.3745
▁pont	-12.3745
pekarani	-12.3746
▁su	-12.3749
ayanan	-12.375
▁inter	-12.375
tter	-12.3753
▁Kit	-12.3753
obog	-12.3753
tabeker	-12.3755
▁miyakamo	-12.3758
ikolob	-12.3758
▁siksa	-12.3768
▁kapeng	-12.3772
tiban	-12.3776
mpat	-12.3777
▁Kiyato	-12.3779
▁katib	-12.3784
▁diya	-12.3787
▁Ig	-12.379
▁Sh	-12.3798
apenet	-12.3802
▁osara	-12.3805
perak	-12.381
▁bu	-12.3813
teobat	-12.3814
▁rag	-12.3817
iyabangon	-12.3819
▁burdens	-12.3821
▁advanc	-12.3821
oparik	-12.3824
cry	-12.3827
▁span	-12.383
▁Shamm	-12.3835
married	-12.3837
lit	-12.384
wing	-12.3843
osog	-12.3846
▁Eze	-12.3851
mpir	-12.3851
ngil	-12.3853
miyapi	-12.3854
▁Miyakala	-12.3859
rok	-12.3861
acy	-12.3862
▁Add	-12.3865
tig	-12.387
▁malek	-12.3872
iyanan	-12.3874
▁kiyatepeng	-12.3876
apekorban	-12.3878
▁unite	-12.3886
nswer	-12.3887
lumber	-12.3889
sarigan	-12.3889
oniya	-12.39
▁pepanana	-12.3907
arengan	-12.3911
▁Maki	-12.3912
▁extra	-12.3918
hem	-12.3918
▁ipekeya	-12.3919
▁Foll	-12.3925
▁pekior	-12.3928
▁kapegosa	-12.393
ndas	-12.393
initin	-12.3931
▁piyo	-12.3939
tis	-12.3939
▁insist	-12.3939
rantar	-12.3939
▁Ge	-12.394
kapanalamat	-12.3941
aoma	-12.3942
ywhere	-12.3948
▁mate	-12.3952
oving	-12.3957
ushed	-12.3958
alamata	-12.3965
enggay	-12.3967
▁kase	-12.3967
▁distribute	-12.3971
▁kapet	-12.3972
▁mataban	-12.3973
▁Lys	-12.3973
▁kapagowit	-12.3974
onta	-12.3977
lands	-12.3978
enai	-12.398
▁peges	-12.3984
▁Misiya	-12.3987
▁Thirty	-12.399
likod	-12.3992
iyambi	-12.3993
▁trans	-12.3998
kembo	-12.4002
▁peker	-12.4002
emek	-12.4004
sapak	-12.4008
▁grip	-12.4009
▁Hasar	-12.4012
▁usual	-12.4014
▁opis	-12.4016
▁kedad	-12.4021
eph	-12.4022
▁commission	-12.4028
ated	-12.4033
▁inika	-12.4038
▁tobo	-12.4038
opi	-12.4039
baroba	-12.4046
bar	-12.4048
sebar	-12.4054
▁Iden	-12.4055
▁knee	-12.4056
lidas	-12.4058
pekatiger	-12.406
▁tai	-12.4061
▁eviden	-12.4062
rib	-12.4065
omas	-12.4067
timate	-12.4068
▁frustrate	-12.4071
▁tri	-12.4073
loba	-12.4073
ft	-12.4077
▁Ob	-12.4082
apapadalem	-12.4083
uality	-12.4086
▁Ami	-12.41
peten	-12.4106
▁taero	-12.4111
▁makat	-12.4114
▁saba	-12.4114
wadib	-12.4116
sangkad	-12.4119
▁ibibil	-12.4119
sel	-12.4123
▁realiz	-12.4127
▁pego	-12.4129
odaan	-12.413
pelalakaw	-12.4133
▁Har	-12.4133
mor	-12.4136
now	-12.4138
▁Domini	-12.4139
▁giba	-12.4139
▁broad	-12.414
▁problem	-12.4141
▁pemanimba	-12.4141
▁chair	-12.4143
▁imbolawanan	-12.4143
giving	-12.4144
mbinasaan	-12.4145
▁proverb	-12.4146
▁pastureland	-12.4146
▁slope	-12.4147
▁grape	-12.415
▁Presen	-12.4151
what	-12.4151
▁Edomite	-12.4152
▁glean	-12.4152
▁throat	-12.4153
▁Syria	-12.4153
▁keparo	-12.4153
▁guest	-12.4155
iibarat	-12.4155
▁mingg	-12.4158
▁realm	-12.4158
▁baptiz	-12.416
▁mule	-12.4164
▁banana	-12.4165
▁pekaona	-12.4165
▁todo	-12.4167
▁sina	-12.4168
▁kaso	-12.4169
▁reconcile	-12.4171
▁petegikor	-12.4173
idi	-12.4173
▁Babylonia	-12.4174
▁neglect	-12.4174
eda	-12.4175
▁smash	-12.4176
▁conceive	-12.4176
▁mislead	-12.4176
▁encamp	-12.4176
▁convict	-12.4176
▁trimme	-12.4178
▁Dodo	-12.4179
lipatan	-12.4181
▁magic	-12.4185
▁cancel	-12.4186
▁generous	-12.4187
▁imprison	-12.4189
accur	-12.419
elophehad	-12.419
▁Astorit	-12.419
▁Beelzebub	-12.419
▁Crucify	-12.419
▁Galasiya	-12.419
▁Girgashites	-12.419
▁Girgasiyo	-12.419
▁Laodisiya	-12.419
▁Magdalene	-12.419
▁Netophathite	-12.419
▁Pilimpinas	-12.419
▁Shunammite	-12.419
▁Tubal	-12.419
▁Yaramiil	-12.419
▁accessories	-12.419
▁adversaries	-12.419
▁blanket	-12.419
▁bortikan	-12.419
▁cabinet	-12.419
▁coffee	-12.419
▁deceptive	-12.419
▁dissension	-12.419
▁doctrine	-12.419
▁dungeon	-12.419
▁footstool	-12.419
▁furniture	-12.419
▁jambs	-12.419
▁keonseran	-12.419
▁kinsmanredeemer	-12.419
▁panginginseda	-12.419
▁precepts	-12.419
▁scabbard	-12.419
▁terraces	-12.419
▁tumors	-12.419
▁turmoil	-12.419
▁Aijalon	-12.419
▁Corinth	-12.419
▁Methuselah	-12.419
▁amazement	-12.419
▁kapakasasabot	-12.419
▁mediator	-12.419
▁Bikri	-12.419
▁bounty	-12.419
▁capstone	-12.419
▁cliff	-12.419
▁couple	-12.419
▁perceive	-12.419
▁prostrate	-12.419
▁trespass	-12.419
▁vigor	-12.419
▁wreath	-12.419
▁Bitsaida	-12.419
▁Barnea	-12.419
▁Adolam	-12.419
▁Restore	-12.419
▁canopy	-12.419
▁fashion	-12.419
▁rendeng	-12.419
▁snapped	-12.419
▁denarius	-12.419
▁Sipaniyas	-12.419
▁magogorigaw	-12.419
▁Meranaw	-12.419
arig	-12.419
▁Ilisiyama	-12.419
▁Kiyatangkaan	-12.419
▁Troas	-12.419
▁ambition	-12.419
▁paperwork	-12.419
▁wolves	-12.419
▁Philippines	-12.419
▁Meribah	-12.419
▁kapesember	-12.419
▁Matthew	-12.419
▁rival	-12.419
▁chisel	-12.419
▁envious	-12.419
▁progress	-12.419
▁entangle	-12.419
▁Korinto	-12.419
▁extortion	-12.419
▁deception	-12.419
▁anchor	-12.419
▁domadatem	-12.419
▁venom	-12.419
▁chatter	-12.419
▁margas	-12.419
▁grandmother	-12.419
▁hatred	-12.419
▁mipemiri	-12.419
▁raiders	-12.419
▁enlarge	-12.419
▁disregard	-12.419
▁Hormah	-12.419
▁Togarmah	-12.419
▁approval	-12.419
▁pesember	-12.419
▁kabatali	-12.4191
▁masosonor	-12.4191
▁Hipir	-12.4191
▁hometown	-12.4191
▁reflect	-12.4191
▁detail	-12.4191
▁remote	-12.4191
▁kapanalimbot	-12.4191
▁Hanoch	-12.4191
▁joking	-12.4191
▁tolerate	-12.4191
▁handbreadth	-12.4191
▁riyobak	-12.4191
▁Bilhan	-12.4191
▁Silisiya	-12.4191
▁pepekasebo	-12.4191
▁recently	-12.4191
▁ipelebeng	-12.4191
▁baptize	-12.4191
▁kanggani	-12.4191
▁kiyaperimon	-12.4191
▁Gorge	-12.4191
▁Hepher	-12.4191
▁kariit	-12.4191
▁penetrate	-12.4191
▁justify	-12.4191
▁Hurry	-12.4191
▁kapangaol	-12.4191
▁Niriyas	-12.4191
▁Greetings	-12.4191
▁liyalis	-12.4191
▁noisy	-12.4191
▁harem	-12.4191
▁jeep	-12.4191
▁pepamanegad	-12.4191
▁kaonabi	-12.4191
▁kekawaraw	-12.4191
▁kapekagaga	-12.4191
▁victorious	-12.4191
▁kwarto	-12.4191
▁blazed	-12.4191
▁decay	-12.4192
▁medicine	-12.4192
epeng	-12.4192
▁grating	-12.4192
▁miyamakandosa	-12.4192
▁miyakadaag	-12.4192
▁haunt	-12.4192
▁Hirah	-12.4192
▁wafer	-12.4192
▁mapembagibagi	-12.4192
▁milinog	-12.4192
▁Jezreelite	-12.4192
pikir	-12.4192
▁mbenara	-12.4192
▁fitting	-12.4192
▁downcast	-12.4192
▁passage	-12.4192
▁Hibir	-12.4192
▁flight	-12.4192
▁somagad	-12.4192
▁fathom	-12.4192
▁Hosah	-12.4193
▁Stone	-12.4193
▁kiyatiyapan	-12.4193
▁makapembeken	-12.4193
▁sheaves	-12.4193
▁supervision	-12.4193
▁Yarimot	-12.4193
▁reclining	-12.4193
▁somabet	-12.4193
▁Jabin	-12.4193
▁tekaew	-12.4193
▁pekedadag	-12.4193
▁consist	-12.4193
▁Shobal	-12.4193
▁Gittite	-12.4193
▁sesanggibo	-12.4193
▁gorge	-12.4193
▁gnash	-12.4193
▁kakeparo	-12.4193
▁Genek	-12.4194
▁confused	-12.4194
▁timbega	-12.4194
▁Siyobal	-12.4194
▁kamimiskini	-12.4194
▁victims	-12.4194
▁musicians	-12.4194
▁spiritists	-12.4194
▁kapepista	-12.4194
▁balagen	-12.4194
▁tomindeg	-12.4194
▁tamereg	-12.4194
▁pogon	-12.4195
▁Philippi	-12.4195
▁occupy	-12.4195
▁Panalamat	-12.4195
▁pekabangen	-12.4195
▁brook	-12.4195
▁Gees	-12.4195
▁kelompiyowan	-12.4195
▁lolokes	-12.4195
▁kiyatidawa	-12.4196
▁Jared	-12.4196
▁twent	-12.4196
▁gonsi	-12.4196
▁prowl	-12.4196
▁Bicri	-12.4196
▁Sirini	-12.4196
▁piyagma	-12.4196
▁pembatiya	-12.4197
liboteng	-12.4197
▁tiyonda	-12.4197
▁madness	-12.4197
▁Peparatiyaya	-12.4197
▁Pipikir	-12.4197
▁harvesters	-12.4197
▁Iskar	-12.4197
▁baletek	-12.4197
▁makapengaroma	-12.4197
▁imitate	-12.4197
▁inolabong	-12.4197
▁conceited	-12.4198
▁affairs	-12.4198
ebi	-12.4198
▁kapangatao	-12.4198
▁Heaven	-12.4198
▁mitepok	-12.4199
▁repaid	-12.4199
▁miyakatorog	-12.4199
▁mipepen	-12.4199
▁Lawig	-12.4199
▁Horam	-12.4199
▁pekeolaola	-12.4199
pamaninta	-12.42
▁Pilig	-12.42
▁kapegongkir	-12.42
serted	-12.42
▁Miyamatay	-12.42
▁sharpened	-12.42
▁Risin	-12.42
▁Jether	-12.42
▁chopping	-12.4201
▁discussion	-12.4201
▁makeroma	-12.4201
▁swelling	-12.4201
▁tip	-12.4201
▁surprised	-12.4202
gotten	-12.4203
▁kiyabantogan	-12.4203
▁Naarah	-12.4203
▁gently	-12.4203
▁pelepas	-12.4203
▁makapediin	-12.4203
▁kiiseg	-12.4203
▁peketoon	-12.4203
▁patiently	-12.4203
iter	-12.4203
▁kiyatori	-12.4204
▁peminasa	-12.4204
▁Naamah	-12.4205
uered	-12.4205
▁gireb	-12.4206
wai	-12.4206
▁mapenggalebek	-12.4207
▁kapakagaga	-12.4207
telimbegak	-12.4207
▁Must	-12.4208
▁maparo	-12.4208
▁mbasokan	-12.4208
▁Opir	-12.4209
▁katitimo	-12.4209
▁Run	-12.4209
▁kikakapet	-12.4209
▁pepowasa	-12.421
▁Live	-12.421
▁raisins	-12.421
▁makatipo	-12.421
▁disappeared	-12.4211
▁keaon	-12.4211
▁pepemeges	-12.4212
▁accomplished	-12.4212
▁incit	-12.4212
▁blasphemed	-12.4213
▁kepasad	-12.4213
▁towanga	-12.4213
▁executed	-12.4213
▁kiyasoled	-12.4214
▁kapenombali	-12.4214
▁describe	-12.4214
▁paekaoma	-12.4214
▁maritan	-12.4216
▁explored	-12.4216
▁Aven	-12.4216
▁iskwilaan	-12.4217
▁powerless	-12.4217
▁election	-12.4218
▁kalelekeb	-12.4219
▁keisaisa	-12.4219
▁withstand	-12.422
▁exploits	-12.422
▁miniparak	-12.4221
▁contributions	-12.4221
▁kiyokom	-12.4221
▁kekorangan	-12.4221
▁pinto	-12.4222
▁outward	-12.4222
▁patong	-12.4222
▁nursed	-12.4222
▁pelalapis	-12.4222
▁mabaeger	-12.4222
▁kapakasong	-12.4224
▁pepengokom	-12.4224
▁pakiwit	-12.4225
▁cooking	-12.4226
▁Hav	-12.4226
▁stall	-12.4226
▁Bezalel	-12.4227
▁cure	-12.4227
anageb	-12.4227
▁kapesegad	-12.4228
▁Iliyal	-12.4228
▁kalompiyowi	-12.4229
iiket	-12.4229
▁kaliliboteng	-12.423
▁kapepagitowito	-12.423
▁workmen	-12.4231
▁pagiyog	-12.4231
▁Omar	-12.4232
▁Assyrians	-12.4232
▁kapepanaod	-12.4232
▁kilebeng	-12.4233
▁distinct	-12.4234
▁pendanegen	-12.4234
▁Minitoon	-12.4234
▁kabinasaa	-12.4236
▁mamagidaida	-12.4236
iin	-12.4236
▁rororan	-12.4236
▁administration	-12.4236
▁belly	-12.4237
▁posaka	-12.4238
tal	-12.4238
▁kidian	-12.4238
▁petonda	-12.4239
▁inipeleleb	-12.4239
▁oak	-12.4241
▁penotongen	-12.4243
▁oaks	-12.4244
▁maoteng	-12.4244
▁purse	-12.4244
▁ontod	-12.4245
▁manner	-12.4246
▁pakipangaromaan	-12.4246
▁migaga	-12.4247
▁Pilistiya	-12.4248
▁pelidas	-12.4248
▁magomanta	-12.4249
▁Tapa	-12.425
▁pamaratiyaya	-12.4251
▁holes	-12.4254
▁Fall	-12.4254
▁liars	-12.4254
▁melalis	-12.4254
▁kapekakan	-12.4254
▁mbagiyaw	-12.4254
▁mainom	-12.4255
laughter	-12.4256
▁likas	-12.4258
▁kapana	-12.4259
▁talam	-12.426
▁nggogobat	-12.426
▁matatang	-12.4261
▁circle	-12.4261
▁aboard	-12.4261
▁laga	-12.4262
▁nggordiya	-12.4262
▁stoop	-12.4264
▁Piteban	-12.4265
▁Bakb	-12.4266
▁tatarimaa	-12.4266
▁drunken	-12.4266
▁weeks	-12.4266
▁believer	-12.4266
▁restrain	-12.4266
▁kawadib	-12.4267
nanamar	-12.4267
▁sendoden	-12.4268
▁curve	-12.4268
▁kelayon	-12.4269
▁keromaa	-12.427
▁popoti	-12.427
kawit	-12.4271
▁siyangka	-12.4272
toona	-12.4275
▁sesabar	-12.4275
▁tunics	-12.4275
nanangoran	-12.4275
▁Pemba	-12.4276
▁mbongeti	-12.4276
▁Pesong	-12.4277
▁piyanempa	-12.4278
▁Milo	-12.4279
▁defenses	-12.4282
▁piyamanaba	-12.4283
▁miyailang	-12.4286
▁kapagidaida	-12.4289
▁piyotol	-12.4292
▁throng	-12.4293
▁successful	-12.4296
▁mapatay	-12.4296
▁Cushites	-12.4297
▁arrives	-12.4298
▁Terror	-12.43
tanding	-12.43
▁wing	-12.4301
▁kibetad	-12.4302
▁endless	-12.4303
▁pakatitindeg	-12.4303
▁bebereg	-12.4305
▁conform	-12.4306
▁Miyakap	-12.4307
lamat	-12.4309
initaralo	-12.4312
▁kesaba	-12.4313
▁kapangongonotan	-12.4313
▁lobe	-12.4314
▁earn	-12.4314
▁Libiya	-12.4314
▁motion	-12.4315
bentelen	-12.4316
▁ipepang	-12.4318
niyo	-12.4322
▁vali	-12.4323
ipped	-12.4323
▁keoyagoyag	-12.4326
▁Branch	-12.4327
ggebaan	-12.4328
▁sodiyodi	-12.4329
▁sambayang	-12.4329
ple	-12.433
▁paris	-12.4332
▁guides	-12.4332
gawa	-12.4333
▁siyong	-12.4333
controlled	-12.4334
▁peripag	-12.4336
ackles	-12.4337
▁darken	-12.4337
▁Away	-12.4339
▁Enan	-12.434
▁retreat	-12.4342
dat	-12.4342
anog	-12.4343
▁festivals	-12.4343
▁awaken	-12.4346
iyakilala	-12.4348
▁pepamaka	-12.4349
petebeker	-12.4349
▁weights	-12.4351
aban	-12.4353
kor	-12.4353
▁kaaawid	-12.4355
▁pekadakel	-12.4359
ngel	-12.4361
▁Patro	-12.4365
olonan	-12.4365
▁Peor	-12.4367
▁exercise	-12.4369
▁Inilay	-12.4369
▁pepamangon	-12.4369
gnin	-12.4369
arch	-12.437
itidawa	-12.4372
▁robi	-12.4373
▁Sakay	-12.4373
▁flows	-12.4373
▁Hod	-12.4373
uests	-12.4374
▁shell	-12.4375
▁karegen	-12.438
▁seals	-12.438
▁pengginawa	-12.4382
▁starv	-12.4384
protected	-12.4385
isirto	-12.439
▁pagidaida	-12.439
▁Rini	-12.4395
ela	-12.4398
▁seah	-12.4401
▁petegel	-12.4403
iyaminasa	-12.4403
▁kindle	-12.4404
baba	-12.4405
kapagenebeneb	-12.4406
▁Pekae	-12.4407
mosawir	-12.4407
▁minioma	-12.4409
▁kiyaselasela	-12.4411
▁makase	-12.4412
pemboko	-12.4414
▁mamamasaan	-12.4417
▁Hall	-12.442
▁kambelag	-12.4421
▁pouring	-12.4426
▁Pili	-12.4426
▁inilay	-12.4429
kapoti	-12.443
indaw	-12.443
▁hada	-12.4431
daway	-12.4436
pengelengkeleng	-12.4438
▁pengangarapan	-12.4438
ilalapis	-12.4444
▁stage	-12.4446
▁outlaw	-12.4449
▁changes	-12.4449
gaga	-12.4451
▁boring	-12.4452
▁kalalawan	-12.4454
▁Persian	-12.4455
▁stirr	-12.4458
sanggibo	-12.4461
ea	-12.4461
cial	-12.4463
iyagenebeneb	-12.4464
▁gadong	-12.4465
▁straighten	-12.4467
▁Tomiya	-12.4468
▁ipese	-12.4476
▁mbagian	-12.4476
▁kakepayag	-12.4476
▁damage	-12.4478
aph	-12.448
▁telowan	-12.4481
▁mitana	-12.4483
▁monga	-12.4484
lalawana	-12.4484
isepa	-12.4487
▁por	-12.449
▁freed	-12.449
▁pegdas	-12.4493
▁alam	-12.4496
asepa	-12.4497
▁pekesoy	-12.4497
▁Pemasa	-12.4501
▁Husha	-12.4501
▁abhorre	-12.4502
pangandag	-12.4507
ektano	-12.4507
▁lumber	-12.4508
▁mapopo	-12.4509
datadatar	-12.4509
▁Pangangarapan	-12.451
▁aga	-12.4512
when	-12.4513
▁sominind	-12.4514
▁mitata	-12.4514
peraot	-12.4518
▁kalilimodan	-12.452
▁Pagi	-12.4523
imbitiyarai	-12.4525
▁sepaan	-12.4529
ross	-12.453
tataalik	-12.4531
ower	-12.4532
pisan	-12.4536
▁commanding	-12.4537
▁kebinasaan	-12.4541
▁deceiver	-12.4542
pagitog	-12.4551
▁sounding	-12.4551
▁Pin	-12.4552
▁keka	-12.4552
kekokom	-12.4557
▁pelomeg	-12.4558
▁salamat	-12.4559
▁Itam	-12.4559
▁magala	-12.456
▁miyakalim	-12.4561
▁lomala	-12.4561
▁makambek	-12.4562
▁iiket	-12.4565
inggagaan	-12.4566
bangona	-12.4566
kaleken	-12.4574
ser	-12.4574
▁wasted	-12.4575
▁site	-12.4581
▁tiyapa	-12.4581
▁kaliboteng	-12.4582
▁staffs	-12.4585
▁kaseloba	-12.4588
▁mission	-12.4588
peparintaa	-12.459
▁temples	-12.4591
▁inisang	-12.4592
▁banowit	-12.4594
arosen	-12.4599
nindarainon	-12.4601
lapis	-12.4603
serakan	-12.4603
kisalawat	-12.4604
morala	-12.4612
▁ay	-12.4615
kapembawata	-12.4617
limegas	-12.4622
▁pepenep	-12.4625
pegayonayon	-12.4626
▁olives	-12.4628
nggonanao	-12.4629
▁assure	-12.4632
▁Pepaki	-12.4633
iriken	-12.4635
▁pepamangendao	-12.4647
iyatotok	-12.4652
▁barit	-12.4658
▁Ca	-12.466
▁Rihob	-12.4661
akad	-12.4663
keten	-12.4666
gawi	-12.4667
▁magidaida	-12.4668
pagembaal	-12.4668
▁kelebat	-12.4668
▁Potiph	-12.4668
▁Tago	-12.4668
▁Yah	-12.4671
osen	-12.4671
▁nayawa	-12.4673
awi	-12.4674
aten	-12.4675
kibono	-12.4678
angaroma	-12.4682
by	-12.4694
▁Katero	-12.4695
▁daring	-12.4697
▁rakmati	-12.47
▁piyakao	-12.4706
▁Malk	-12.4708
▁teache	-12.4713
katan	-12.4718
reserved	-12.4718
▁sesapa	-12.4719
▁kaoo	-12.4723
▁Rim	-12.4724
ipenggalebek	-12.4727
genebeneb	-12.4727
▁choke	-12.473
▁sting	-12.473
lakaw	-12.4732
▁armi	-12.4737
▁tapa	-12.4742
▁pagosa	-12.4742
sook	-12.4746
ayas	-12.4757
latter	-12.4758
▁raid	-12.476
anaod	-12.4763
gai	-12.4764
saolan	-12.4766
▁chop	-12.4766
▁kesapeng	-12.4767
▁pakab	-12.4769
kimbitiyarai	-12.4771
epak	-12.4776
▁reregen	-12.4781
yakim	-12.4782
ndaw	-12.4785
end	-12.4787
paratiyaya	-12.479
▁oori	-12.4794
gs	-12.4796
▁foam	-12.4796
▁Haga	-12.4797
aot	-12.4798
▁miyabang	-12.4799
▁Pilit	-12.4802
ninggolalan	-12.4802
pagiktiyar	-12.4805
▁Siki	-12.4807
▁pekala	-12.4807
alangan	-12.4808
pepakitokaw	-12.4812
▁pegi	-12.4812
oph	-12.482
ipemataan	-12.4822
akalan	-12.4824
ayat	-12.4826
▁wrongs	-12.4834
▁destructi	-12.4835
▁Kenan	-12.4835
▁sir	-12.4838
iseg	-12.4841
▁Maran	-12.4843
▁ikokom	-12.4843
▁Lod	-12.4843
▁watche	-12.4843
tondog	-12.4846
pemono	-12.4853
▁kapi	-12.4854
kayan	-12.4855
ph	-12.4859
pamakineg	-12.486
▁mabebe	-12.4872
alibet	-12.4872
gadong	-12.4873
solation	-12.4881
▁inip	-12.4881
owing	-12.4893
▁Hil	-12.4894
gowa	-12.4896
▁tomipa	-12.4897
kesogok	-12.4904
tilak	-12.4913
▁Land	-12.4913
▁mbel	-12.4913
▁sintaan	-12.4914
▁Penda	-12.4917
peragon	-12.4922
deket	-12.4925
▁defi	-12.4926
apipiya	-12.4931
▁camel	-12.4931
lacks	-12.4934
▁Pesepa	-12.4936
▁souls	-12.4937
▁sesala	-12.4939
sirong	-12.4941
▁Somiy	-12.4943
▁iniso	-12.4949
▁katatanga	-12.4949
▁Isti	-12.4954
▁bother	-12.4954
oten	-12.4956
water	-12.4956
posed	-12.4957
isenga	-12.4961
▁kiyapaki	-12.4963
▁Pakalalaka	-12.4964
kob	-12.4966
inimboko	-12.4967
ury	-12.4973
iyararangitan	-12.4974
ndeg	-12.4974
▁cr	-12.4976
▁starte	-12.4978
▁supervise	-12.4981
▁pant	-12.4984
bonoon	-12.4989
papadalem	-12.4994
daiah	-12.4994
ze	-12.4997
▁peramig	-12.4998
panido	-12.4998
▁kipa	-12.5
▁tenda	-12.5
gagaw	-12.5001
pagatoang	-12.5011
▁kambeg	-12.5013
pelah	-12.5015
gepeda	-12.5026
lina	-12.5029
makambowat	-12.503
gawii	-12.503
▁sash	-12.5031
▁kakesabot	-12.5031
▁hesitate	-12.5031
▁devoti	-12.5034
▁Miyato	-12.5034
into	-12.5036
ul	-12.5037
teterang	-12.5039
yok	-12.5045
▁Ez	-12.5048
akar	-12.5049
mbong	-12.5049
▁Po	-12.505
temo	-12.5051
▁pengarasi	-12.5052
▁pepekataban	-12.5053
abasa	-12.5059
▁tengan	-12.506
liya	-12.5066
lekeb	-12.5066
magatoang	-12.5067
silay	-12.5073
sabot	-12.5075
kasasangor	-12.5075
▁dig	-12.5077
▁iyog	-12.5078
kineg	-12.5078
olintang	-12.5081
dep	-12.5084
▁Gileadite	-12.5084
etek	-12.5085
▁Mosta	-12.5085
▁spac	-12.5087
pin	-12.5093
▁rara	-12.5093
▁tinte	-12.5102
angongonotan	-12.5103
pokasa	-12.5107
wil	-12.5107
▁Potol	-12.5112
yanat	-12.5115
apayag	-12.5116
▁driver	-12.5116
dadarpa	-12.5118
mono	-12.5119
▁kapekokom	-12.5123
pag	-12.5124
nivers	-12.5124
▁makipenda	-12.5129
lowly	-12.5134
moon	-12.514
▁Pese	-12.5145
▁Asas	-12.5145
▁Miyaman	-12.5154
katorog	-12.5154
pekasilay	-12.5155
▁awhile	-12.5163
▁Pango	-12.5164
▁opisi	-12.5167
ipemboko	-12.5167
▁Nibo	-12.5168
▁encourag	-12.5168
▁strea	-12.5169
idimanda	-12.5172
gave	-12.5177
amad	-12.5182
get	-12.5184
peteroa	-12.5185
▁Pakiila	-12.5197
elinding	-12.5202
▁farm	-12.5205
ested	-12.5206
▁ri	-12.5208
▁pesina	-12.521
botod	-12.5211
peng	-12.5216
gantap	-12.5218
tena	-12.5223
gondoy	-12.5225
ananalo	-12.5226
iyakainom	-12.5226
▁miyapamo	-12.5227
▁Siyoba	-12.5229
daya	-12.523
keokitan	-12.5233
▁Tin	-12.5235
ompi	-12.5238
▁blaspheme	-12.5239
teban	-12.5241
era	-12.5243
▁milang	-12.5245
ragged	-12.5247
nitaog	-12.525
▁lomalangka	-12.5254
betow	-12.5265
▁Iliya	-12.5267
ridoa	-12.5267
eemed	-12.5268
everything	-12.527
▁j	-12.5271
▁makak	-12.5274
▁kababa	-12.528
ripped	-12.5281
▁Pakaon	-12.5286
iyamono	-12.529
dag	-12.5291
pasang	-12.5294
yapas	-12.5295
▁teros	-12.5297
dikir	-12.5299
▁wali	-12.53
rik	-12.5305
lintad	-12.5306
pamili	-12.5307
▁scar	-12.5311
six	-12.5312
itoro	-12.5317
▁kanoko	-12.5318
apanga	-12.532
▁Toro	-12.5324
pira	-12.5327
▁theirs	-12.5328
▁mateten	-12.5333
otan	-12.5333
keolog	-12.5335
ingly	-12.5336
▁Hano	-12.5338
kedeg	-12.5341
▁tidawa	-12.5343
▁Ten	-12.5352
kasodiyod	-12.5354
coming	-12.5359
▁kapemakineg	-12.5359
▁Sabdi	-12.5365
akaonot	-12.5366
▁keo	-12.5373
dis	-12.5378
▁komila	-12.538
ipagoman	-12.5385
▁ipen	-12.5388
sarta	-12.5389
ngoran	-12.5389
pepamangni	-12.5392
▁katoon	-12.5396
makaliyo	-12.5398
▁kiyato	-12.5398
tim	-12.5399
pengginawai	-12.54
ngs	-12.5408
penonogo	-12.541
periksaa	-12.5417
waraw	-12.5426
▁owns	-12.5429
▁kiyaso	-12.5429
▁Light	-12.5433
▁prefer	-12.5435
isasapeng	-12.5436
akandato	-12.5443
▁mist	-12.5443
birth	-12.5444
reb	-12.5446
standing	-12.5447
▁sadang	-12.5448
sara	-12.5449
epan	-12.5453
mbor	-12.5457
mission	-12.546
ial	-12.5461
▁dropp	-12.5468
▁fe	-12.5471
F	-12.5471
ari	-12.5472
▁miyoka	-12.5474
▁Prisi	-12.548
third	-12.5481
▁karara	-12.5487
lendo	-12.5488
kakakai	-12.549
▁ndake	-12.5495
yield	-12.5499
▁mbagibagi	-12.5499
mbayabaya	-12.55
angkap	-12.5505
▁makapepere	-12.5507
pagiklas	-12.5507
▁peselasela	-12.5508
olongan	-12.5509
gasto	-12.551
paat	-12.5516
kilalaa	-12.5519
belaga	-12.5524
▁Salo	-12.553
▁peli	-12.5533
▁match	-12.5539
arapen	-12.554
▁mikek	-12.5542
garang	-12.5542
▁kasela	-12.5544
▁piyakis	-12.5544
▁Nation	-12.5547
uar	-12.5555
polis	-12.5557
pamando	-12.5559
lokelokes	-12.5559
▁beings	-12.556
ud	-12.5563
loy	-12.5564
eken	-12.5565
set	-12.5568
pendimanda	-12.5571
▁Tak	-12.5574
iyangorban	-12.5575
pegipat	-12.5579
▁mapepe	-12.5579
eeb	-12.558
▁Pan	-12.558
▁piyata	-12.5581
dedeket	-12.5581
▁panana	-12.5585
thro	-12.559
▁pekagema	-12.5591
tatangel	-12.5593
ilet	-12.5593
▁ise	-12.5594
▁baeg	-12.5595
enggoraok	-12.5597
▁penamar	-12.5602
iyaropet	-12.5603
▁promi	-12.5608
gree	-12.5609
▁penda	-12.5611
wang	-12.5616
▁barat	-12.5617
▁par	-12.5617
itataralo	-12.562
threw	-12.5625
▁pepakaoni	-12.5628
ibegak	-12.563
pian	-12.5634
▁kipetind	-12.5637
liwanag	-12.564
pangangarapan	-12.5641
inisengga	-12.5641
▁Laha	-12.5641
imowil	-12.5641
▁Begin	-12.5643
sanggar	-12.5644
▁oven	-12.5647
▁inibaya	-12.5648
ound	-12.5651
▁minipala	-12.5653
loved	-12.5656
minipag	-12.566
first	-12.5664
▁Inisan	-12.5664
pamangeto	-12.5666
mpay	-12.5668
▁miyamili	-12.5671
iyon	-12.5674
ipetidawa	-12.5675
itongkol	-12.5677
▁makapan	-12.568
pamatay	-12.5681
▁ip	-12.5681
▁Sal	-12.5684
kereng	-12.5686
sarino	-12.5686
asangor	-12.5687
asaan	-12.5695
▁stif	-12.5695
pemakineg	-12.5696
▁End	-12.5697
akaseko	-12.5699
yam	-12.57
tatap	-12.57
▁miyatang	-12.5702
▁kitata	-12.5704
▁pendidi	-12.5706
▁Arki	-12.5717
▁bansa	-12.572
▁Miyakapat	-12.5721
bot	-12.5722
▁keta	-12.5722
▁piyakaya	-12.5724
ator	-12.5733
▁Wash	-12.5733
pakadarpa	-12.5734
▁seloba	-12.574
erakmatan	-12.5741
balaga	-12.5742
▁design	-12.5744
atot	-12.5753
▁paginom	-12.5756
▁linding	-12.5757
▁Paeka	-12.576
▁piyakas	-12.576
▁malem	-12.5762
makineg	-12.5763
pata	-12.5763
moth	-12.5765
siya	-12.5765
bai	-12.5766
isita	-12.5774
kokoda	-12.5779
pegolowan	-12.578
other	-12.5785
▁matas	-12.5787
▁pilala	-12.5793
▁Songow	-12.5794
ekepen	-12.5795
ategas	-12.5796
▁Mapipi	-12.5796
mbantayan	-12.5798
▁cheek	-12.581
▁sapphire	-12.581
▁Muslim	-12.581
▁helmet	-12.581
▁Samaritan	-12.5812
mbay	-12.5813
▁citizen	-12.5814
▁brick	-12.5814
ham	-12.5817
▁attendant	-12.5817
▁fortune	-12.5819
▁murderer	-12.5822
▁Cho	-12.5822
▁Hal	-12.5823
ipesorat	-12.5824
▁spur	-12.5825
anen	-12.5826
▁mapeno	-12.5826
▁pegadat	-12.5827
▁peketimo	-12.5827
lowi	-12.5827
▁thread	-12.5828
▁ngganat	-12.5831
gopakat	-12.5833
tabangi	-12.5838
▁plank	-12.5838
▁ensnare	-12.584
▁Paeg	-12.584
▁denounce	-12.584
▁disturb	-12.5842
apengaroma	-12.5842
▁reduce	-12.5842
eilay	-12.5843
▁circumcise	-12.5843
▁replace	-12.5844
▁winnow	-12.5844
iniyawa	-12.5847
▁writhe	-12.5849
▁Pae	-12.5853
▁temper	-12.5853
▁Karmi	-12.5854
smith	-12.5855
pepodi	-12.5855
▁divid	-12.5855
▁selfcontrol	-12.5856
▁greeting	-12.5856
uantit	-12.5857
onominto	-12.5857
▁Abyss	-12.5857
▁Akowilo	-12.5857
▁Azekah	-12.5857
▁Bahorim	-12.5857
▁Commercial	-12.5857
▁Edrei	-12.5857
▁Filipino	-12.5857
▁Gilboa	-12.5857
▁Grandpa	-12.5857
▁Hussein	-12.5857
▁Hussien	-12.5857
▁Norjan	-12.5857
▁Tabernacles	-12.5857
▁Tagalog	-12.5857
▁airplane	-12.5857
▁arrival	-12.5857
▁batolakit	-12.5857
▁behavior	-12.5857
▁chrysolite	-12.5857
▁conscript	-12.5857
▁diligence	-12.5857
▁favoritism	-12.5857
▁garrison	-12.5857
▁heavier	-12.5857
▁hypocrisy	-12.5857
▁javelin	-12.5857
▁laughingstock	-12.5857
▁meranaranap	-12.5857
▁obstinate	-12.5857
▁paralyzed	-12.5857
▁perplex	-12.5857
▁pilgrimage	-12.5857
▁reddish	-12.5857
▁structure	-12.5857
▁temporary	-12.5857
▁wilderness	-12.5857
▁Binhadad	-12.5857
▁Gilbowa	-12.5857
▁Hakilah	-12.5857
▁Jerimoth	-12.5857
▁Nazirite	-12.5857
▁Sepharvaim	-12.5857
▁Serug	-12.5857
▁conspicuous	-12.5857
▁ipameted	-12.5857
▁machine	-12.5857
▁mirror	-12.5857
▁reputation	-12.5857
▁smolder	-12.5857
▁traitor	-12.5857
▁verdict	-12.5857
▁Thessalonica	-12.5857
▁encumb	-12.5857
▁kapetegikor	-12.5857
▁stubble	-12.5857
▁tihaya	-12.5857
▁Ravine	-12.5857
▁monkey	-12.5857
▁Hagrites	-12.5857
▁suprem	-12.5857
▁courier	-12.5857
▁pematiyaan	-12.5857
shazzar	-12.5857
▁Belshazzar	-12.5857
▁Hosanna	-12.5857
▁convert	-12.5857
▁ignorance	-12.5857
▁Kedesh	-12.5857
▁Tibni	-12.5857
ephaniah	-12.5857
▁campaign	-12.5857
▁happiness	-12.5857
▁flirt	-12.5857
▁prize	-12.5857
▁cornerstone	-12.5857
▁departure	-12.5857
▁Counsel	-12.5857
▁Gihon	-12.5857
▁makapenabang	-12.5857
▁Bosrah	-12.5857
▁Oprah	-12.5857
▁Shelomi	-12.5857
▁dispossess	-12.5857
▁Topheth	-12.5857
▁revelry	-12.5857
▁Asshur	-12.5857
▁dismiss	-12.5857
▁Akbor	-12.5857
▁rumor	-12.5857
▁swirl	-12.5857
▁guidance	-12.5857
▁maputi	-12.5857
▁overshadow	-12.5857
▁Righteousness	-12.5857
▁poplar	-12.5857
▁Elimelech	-12.5857
▁pepamangongkir	-12.5857
▁weakness	-12.5857
▁defraud	-12.5857
paigoay	-12.5857
▁Listra	-12.5857
▁Shishak	-12.5857
▁Ammiel	-12.5857
▁Mahalalil	-12.5857
▁Rikim	-12.5857
▁picture	-12.5857
▁brandish	-12.5857
▁rotten	-12.5857
▁granddaughter	-12.5857
▁treacherous	-12.5857
▁Atinas	-12.5857
▁Ilimilik	-12.5857
▁Artem	-12.5857
▁destitute	-12.5857
▁gallop	-12.5857
▁kapakadaag	-12.5857
▁Asikah	-12.5857
▁Aristar	-12.5858
▁misfortune	-12.5858
▁tomiyarima	-12.5858
▁Yadayas	-12.5858
▁paitaw	-12.5858
▁panarima	-12.5858
▁Sibowim	-12.5858
▁batiyong	-12.5858
▁makaririmeng	-12.5858
▁Naioth	-12.5858
▁Enough	-12.5858
▁mikewasa	-12.5858
▁Mikmas	-12.5858
▁miyagango	-12.5858
▁Peniel	-12.5858
▁vinegar	-12.5858
▁kapaginom	-12.5858
▁Sito	-12.5858
▁makapemaana	-12.5858
▁pepamaapaar	-12.5858
▁birthright	-12.5858
▁registrar	-12.5858
▁festering	-12.5858
▁piyamakatindeg	-12.5858
▁somaloba	-12.5858
▁baeboy	-12.5858
▁Shelemiah	-12.5858
▁Hodiah	-12.5858
▁magiipat	-12.5858
▁kalilang	-12.5858
▁rapidly	-12.5858
▁transport	-12.5858
▁sinapang	-12.5858
▁Debar	-12.5858
▁ndadagang	-12.5858
[...]
